{
  "version": "1.0",
  "truncation": null,
  "padding": null,
  "added_tokens": [
    {
      "id": 0,
      "content": "[PAD]",
      "single_word": false,
      "lstrip": false,
      "rstrip": false,
      "normalized": false,
      "special": true
    },
    {
      "id": 31997,
      "content": "[UNK]",
      "single_word": false,
      "lstrip": false,
      "rstrip": false,
      "normalized": false,
      "special": true
    },
    {
      "id": 31998,
      "content": "[CLS]",
      "single_word": false,
      "lstrip": false,
      "rstrip": false,
      "normalized": false,
      "special": true
    },
    {
      "id": 31999,
      "content": "[SEP]",
      "single_word": false,
      "lstrip": false,
      "rstrip": false,
      "normalized": false,
      "special": true
    },
    {
      "id": 32000,
      "content": "[MASK]",
      "single_word": false,
      "lstrip": false,
      "rstrip": false,
      "normalized": false,
      "special": true
    }
  ],
  "normalizer": {
    "type": "BertNormalizer",
    "clean_text": true,
    "handle_chinese_chars": true,
    "strip_accents": null,
    "lowercase": false
  },
  "pre_tokenizer": {
    "type": "BertPreTokenizer"
  },
  "post_processor": {
    "type": "TemplateProcessing",
    "single": [
      {
        "SpecialToken": {
          "id": "[CLS]",
          "type_id": 0
        }
      },
      {
        "Sequence": {
          "id": "A",
          "type_id": 0
        }
      },
      {
        "SpecialToken": {
          "id": "[SEP]",
          "type_id": 0
        }
      }
    ],
    "pair": [
      {
        "SpecialToken": {
          "id": "[CLS]",
          "type_id": 0
        }
      },
      {
        "Sequence": {
          "id": "A",
          "type_id": 0
        }
      },
      {
        "SpecialToken": {
          "id": "[SEP]",
          "type_id": 0
        }
      },
      {
        "Sequence": {
          "id": "B",
          "type_id": 1
        }
      },
      {
        "SpecialToken": {
          "id": "[SEP]",
          "type_id": 1
        }
      }
    ],
    "special_tokens": {
      "[CLS]": {
        "id": "[CLS]",
        "ids": [
          31998
        ],
        "tokens": [
          "[CLS]"
        ]
      },
      "[SEP]": {
        "id": "[SEP]",
        "ids": [
          31999
        ],
        "tokens": [
          "[SEP]"
        ]
      }
    }
  },
  "decoder": {
    "type": "WordPiece",
    "prefix": "##",
    "cleanup": true
  },
  "model": {
    "type": "WordPiece",
    "unk_token": "[UNK]",
    "continuing_subword_prefix": "##",
    "max_input_chars_per_word": 100,
    "vocab": {
      "[PAD]": 0,
      ".": 1,
      ",": 2,
      "이": 3,
      "있": 4,
      ")": 5,
      "(": 6,
      "1": 7,
      "그": 8,
      "##으로": 9,
      "##에서": 10,
      "사": 11,
      "대": 12,
      "수": 13,
      "2": 14,
      "기": 15,
      "지": 16,
      "것": 17,
      "가": 18,
      "전": 19,
      "한": 20,
      "아": 21,
      "'": 22,
      "하": 23,
      "##했다": 24,
      "시": 25,
      "있다": 26,
      "보": 27,
      "자": 28,
      "\"": 29,
      "정": 30,
      "다": 31,
      "##하는": 32,
      "나": 33,
      "등": 34,
      "3": 35,
      "고": 36,
      "제": 37,
      "##이다": 38,
      "주": 39,
      "-": 40,
      "일": 41,
      "##하고": 42,
      "경": 43,
      "인": 44,
      "모": 45,
      "위": 46,
      "중": 47,
      "공": 48,
      "부": 49,
      "=": 50,
      "a": 51,
      "의": 52,
      "오": 53,
      "상": 54,
      "##었다": 55,
      "##니다": 56,
      "##on": 57,
      "t": 58,
      "마": 59,
      "개": 60,
      "유": 61,
      "내": 62,
      "어": 63,
      "소": 64,
      "]": 65,
      "구": 66,
      "##he": 67,
      "말": 68,
      "[": 69,
      "서": 70,
      "관": 71,
      "무": 72,
      "않": 73,
      "있는": 74,
      "’": 75,
      "20": 76,
      "연": 77,
      "조": 78,
      "여": 79,
      "‘": 80,
      "비": 81,
      "없": 82,
      "“": 83,
      "때": 84,
      "”": 85,
      "바": 86,
      "해": 87,
      "신": 88,
      "선": 89,
      "만": 90,
      "##in": 91,
      "국": 92,
      "4": 93,
      "미": 94,
      "생": 95,
      "##한다": 96,
      "우": 97,
      "s": 98,
      "최": 99,
      "5": 100,
      "발": 101,
      "동": 102,
      "방": 103,
      "문": 104,
      "도": 105,
      "##지만": 106,
      "안": 107,
      "분": 108,
      "##에게": 109,
      "원": 110,
      "세": 111,
      "통": 112,
      "영": 113,
      "·": 114,
      "##re": 115,
      "스": 116,
      "##le": 117,
      "##at": 118,
      "##들이": 119,
      "재": 120,
      "김": 121,
      "성": 122,
      "강": 123,
      "거": 124,
      "예": 125,
      "및": 126,
      "진": 127,
      "장": 128,
      "##에는": 129,
      "현": 130,
      "실": 131,
      "되": 132,
      "##라고": 133,
      ":": 134,
      "결": 135,
      "the": 136,
      "o": 137,
      "##적인": 138,
      "S": 139,
      "##까지": 140,
      "##er": 141,
      "6": 142,
      "##하게": 143,
      "##된다": 144,
      "또": 145,
      "반": 146,
      "사람": 147,
      "더": 148,
      "불": 149,
      "##00": 150,
      "후": 151,
      "당": 152,
      "##면서": 153,
      "##습니다": 154,
      "같": 155,
      "따": 156,
      "##al": 157,
      "?": 158,
      "특": 159,
      "201": 160,
      "교": 161,
      "기자": 162,
      "매": 163,
      "알": 164,
      "7": 165,
      "대한": 166,
      "A": 167,
      "##적으로": 168,
      "##부터": 169,
      "노": 170,
      "과": 171,
      "남": 172,
      "적": 173,
      "##en": 174,
      "계": 175,
      "한다": 176,
      "m": 177,
      "C": 178,
      "들": 179,
      "단": 180,
      "감": 181,
      "추": 182,
      "/": 183,
      "화": 184,
      "배": 185,
      "금": 186,
      "많": 187,
      "차": 188,
      "받": 189,
      "것이": 190,
      "of": 191,
      "포": 192,
      "##ion": 193,
      "19": 194,
      "열": 195,
      "##라는": 196,
      "두": 197,
      "##하기": 198,
      "위해": 199,
      "에": 200,
      "확": 201,
      "파": 202,
      "출": 203,
      "물": 204,
      "##es": 205,
      "##or": 206,
      "##an": 207,
      "##들은": 208,
      "저": 209,
      "설": 210,
      "c": 211,
      "%": 212,
      "##하여": 213,
      "작": 214,
      "지난": 215,
      "##였다": 216,
      "8": 217,
      "##들의": 218,
      "박": 219,
      "b": 220,
      "##is": 221,
      "##뉴스": 222,
      "##았다": 223,
      "참": 224,
      "역": 225,
      "할": 226,
      "올": 227,
      "f": 228,
      "##ar": 229,
      "입": 230,
      "프": 231,
      "T": 232,
      "함": 233,
      "##리고": 234,
      "건": 235,
      "10": 236,
      "행": 237,
      "통해": 238,
      "!": 239,
      "서울": 240,
      "데": 241,
      "회": 242,
      "우리": 243,
      "p": 244,
      "때문": 245,
      "9": 246,
      "##하다": 247,
      "M": 248,
      "##으며": 249,
      "달": 250,
      "한국": 251,
      "##om": 252,
      "평": 253,
      "투": 254,
      "것이다": 255,
      "못": 256,
      "d": 257,
      "앞": 258,
      "활": 259,
      "피": 260,
      "그러": 261,
      "운": 262,
      "아니": 263,
      "I": 264,
      "로": 265,
      "살": 266,
      "생각": 267,
      "직": 268,
      "새": 269,
      "총": 270,
      "학": 271,
      "경우": 272,
      "##다는": 273,
      "청": 274,
      "명": 275,
      "##기를": 276,
      "##하지": 277,
      "것으로": 278,
      "좋": 279,
      "밝": 280,
      "하는": 281,
      "약": 282,
      "요": 283,
      "목": 284,
      "증": 285,
      "양": 286,
      "산": 287,
      "외": 288,
      "집": 289,
      "자신": 290,
      "변": 291,
      "##에서는": 292,
      "함께": 293,
      "필": 294,
      "본": 295,
      "##ic": 296,
      "*": 297,
      "##nd": 298,
      "간": 299,
      "초": 300,
      "##it": 301,
      "##들을": 302,
      "각": 303,
      "개의": 304,
      "점": 305,
      "임": 306,
      "0": 307,
      "속": 308,
      "를": 309,
      "은": 310,
      "표": 311,
      "게": 312,
      "심": 313,
      "##ro": 314,
      "을": 315,
      "##는데": 316,
      "했다": 317,
      "환": 318,
      "사용": 319,
      "높": 320,
      "##ation": 321,
      "대해": 322,
      "종": 323,
      "##지는": 324,
      "타": 325,
      "K": 326,
      "는": 327,
      "##이나": 328,
      "같은": 329,
      "in": 330,
      "이상": 331,
      "따라": 332,
      "P": 333,
      "드": 334,
      "손": 335,
      "것은": 336,
      "##리는": 337,
      "다른": 338,
      "그리고": 339,
      "돌": 340,
      "호": 341,
      "처": 342,
      "##하며": 343,
      "맞": 344,
      "잘": 345,
      "##되는": 346,
      "치": 347,
      "~": 348,
      "##에도": 349,
      "##도록": 350,
      "구조": 351,
      "하고": 352,
      "판": 353,
      "B": 354,
      "##됐다": 355,
      "##자는": 356,
      "##리를": 357,
      "##ct": 358,
      "&": 359,
      "들어": 360,
      "and": 361,
      "눈": 362,
      "12": 363,
      "to": 364,
      "리": 365,
      "체": 366,
      "말했다": 367,
      "아이": 368,
      "형": 369,
      "라": 370,
      "mo": 371,
      "시작": 372,
      ">": 373,
      "이번": 374,
      "D": 375,
      "트": 376,
      "지역": 377,
      "##자의": 378,
      "##대로": 379,
      "카": 380,
      "L": 381,
      "며": 382,
      "뒤": 383,
      "##되어": 384,
      "크": 385,
      "것을": 386,
      "문제": 387,
      "##다고": 388,
      "11": 389,
      "민": 390,
      "##보다": 391,
      ";": 392,
      "##통령": 393,
      "밝혔": 394,
      "충": 395,
      "##ing": 396,
      "삼": 397,
      "w": 398,
      "##하면": 399,
      "바로": 400,
      "채": 401,
      "##사를": 402,
      "대통령": 403,
      "걸": 404,
      "있었다": 405,
      "때문에": 406,
      "##et": 407,
      "이어": 408,
      "대표": 409,
      "사진": 410,
      "진행": 411,
      "미국": 412,
      "하나": 413,
      "위한": 414,
      "검": 415,
      "만들": 416,
      "가장": 417,
      "메": 418,
      "프로": 419,
      "합": 420,
      "독": 421,
      "at": 422,
      "##ed": 423,
      "편": 424,
      "가능": 425,
      "복": 426,
      "##레이": 427,
      "번": 428,
      "G": 429,
      "필요": 430,
      "밝혔다": 431,
      "광": 432,
      "순": 433,
      "##스트": 434,
      "찾": 435,
      "N": 436,
      "창": 437,
      "재배": 438,
      "군": 439,
      "##장은": 440,
      "…": 441,
      "법": 442,
      "된다": 443,
      "무단": 444,
      "200": 445,
      "그는": 446,
      "누": 447,
      "음": 448,
      "H": 449,
      "취": 450,
      "##ou": 451,
      "근": 452,
      "지원": 453,
      "언": 454,
      "##기에": 455,
      "금지": 456,
      "모든": 457,
      "있어": 458,
      "##지를": 459,
      "##ag": 460,
      "2017": 461,
      "##장을": 462,
      "관련": 463,
      "하지만": 464,
      "##기도": 465,
      "코": 466,
      "북": 467,
      "등을": 468,
      "그런": 469,
      "##id": 470,
      "##처럼": 471,
      "농": 472,
      "관계": 473,
      "모두": 474,
      "E": 475,
      "##cu": 476,
      "재배포": 477,
      "F": 478,
      "태": 479,
      "##해야": 480,
      "날": 481,
      "사업": 482,
      "이후": 483,
      "많은": 484,
      "##서는": 485,
      "15": 486,
      "##성을": 487,
      "##자가": 488,
      "업": 489,
      "##력을": 490,
      "##ond": 491,
      "##tr": 492,
      "##졌다": 493,
      "않는": 494,
      "##페이": 495,
      "완": 496,
      "용": 497,
      "그러나": 498,
      "큰": 499,
      "18": 500,
      "모습": 501,
      "##il": 502,
      "클": 503,
      "토": 504,
      "시간": 505,
      "담": 506,
      "이미": 507,
      "다양": 508,
      "##지고": 509,
      "식": 510,
      "줄": 511,
      "세계": 512,
      "얼": 513,
      "다시": 514,
      "사실": 515,
      "l": 516,
      "힘": 517,
      "##이었다": 518,
      "중국": 519,
      "##이고": 520,
      "##거나": 521,
      "##들에게": 522,
      "뉴스": 523,
      "권": 524,
      "친": 525,
      "##기가": 526,
      "##성이": 527,
      "없는": 528,
      "준": 529,
      "##상을": 530,
      "나타": 531,
      "와": 532,
      "버": 533,
      "|": 534,
      "정도": 535,
      "atom": 536,
      "다음": 537,
      "사회": 538,
      "또한": 539,
      "정부": 540,
      "30": 541,
      "온": 542,
      "##lecu": 543,
      "규": 544,
      "g": 545,
      "협": 546,
      "##000": 547,
      "##로운": 548,
      "##입니다": 549,
      "천": 550,
      "승": 551,
      "향": 552,
      "없다": 553,
      "bond": 554,
      "백": 555,
      "제공": 556,
      "##렇게": 557,
      "질": 558,
      "특히": 559,
      "항": 560,
      "절": 561,
      "##위원": 562,
      "너": 563,
      "했": 564,
      "병": 565,
      "원자": 566,
      "##이는": 567,
      "현재": 568,
      "글": 569,
      "네": 570,
      "이용": 571,
      "다양한": 572,
      "기업": 573,
      "홍": 574,
      "국민": 575,
      "R": 576,
      "애": 577,
      "마음": 578,
      "W": 579,
      "##el": 580,
      "디": 581,
      "The": 582,
      "책": 583,
      "v": 584,
      "여러": 585,
      "허": 586,
      "상황": 587,
      "오후": 588,
      "##ri": 589,
      "##정을": 590,
      "##ent": 591,
      "지금": 592,
      "길": 593,
      "##리가": 594,
      "교육": 595,
      "##렸다": 596,
      "효": 597,
      "이날": 598,
      "##경제": 599,
      "갖": 600,
      "##장이": 601,
      "느": 602,
      "될": 603,
      "일본": 604,
      "##시아": 605,
      "h": 606,
      "O": 607,
      "##이터": 608,
      "##st": 609,
      "##비스": 610,
      "아니라": 611,
      "죽": 612,
      "넘": 613,
      "또는": 614,
      "브": 615,
      "첫": 616,
      "##ure": 617,
      "13": 618,
      "##가는": 619,
      "사이": 620,
      "끝": 621,
      "황": 622,
      "있을": 623,
      "이런": 624,
      "구성": 625,
      "논": 626,
      "##기는": 627,
      "16": 628,
      "있었": 629,
      "곳": 630,
      "molecu": 631,
      "##학교": 632,
      "쓰": 633,
      "##ol": 634,
      "##화를": 635,
      "##하면서": 636,
      "나는": 637,
      "축": 638,
      "##해서": 639,
      "##결합": 640,
      "등의": 641,
      "##주의": 642,
      "이야": 643,
      "경제": 644,
      "##겠다": 645,
      "##되고": 646,
      "V": 647,
      "##으면": 648,
      "싶": 649,
      "베": 650,
      "이라고": 651,
      "예정": 652,
      "14": 653,
      "##iv": 654,
      "##이라": 655,
      "화학": 656,
      "뉴": 657,
      "잡": 658,
      "방송": 659,
      "##리아": 660,
      "결과": 661,
      "계획": 662,
      "어떤": 663,
      "##ch": 664,
      "##들과": 665,
      "존": 666,
      "패": 667,
      "##시간": 668,
      "자신의": 669,
      "커": 670,
      "볼": 671,
      "##ow": 672,
      "연구": 673,
      "보고": 674,
      "라고": 675,
      "J": 676,
      "##포츠": 677,
      "17": 678,
      "##가기": 679,
      "##사가": 680,
      "##그램": 681,
      "먹": 682,
      "##시스": 683,
      "설명": 684,
      "그것": 685,
      "운영": 686,
      "열린": 687,
      "최근": 688,
      "##ad": 689,
      "국내": 690,
      "n": 691,
      "##am": 692,
      "#": 693,
      "잠": 694,
      "머": 695,
      "접": 696,
      "##사업": 697,
      "한편": 698,
      "등이": 699,
      "##차원": 700,
      "##자를": 701,
      "탄": 702,
      "중요": 703,
      "기록": 704,
      "##하였다": 705,
      "벌": 706,
      "정보": 707,
      "대상": 708,
      "그녀": 709,
      "그래": 710,
      "##회의": 711,
      "많이": 712,
      "야": 713,
      "사랑": 714,
      "##사는": 715,
      "기술": 716,
      "##에서도": 717,
      "분자": 718,
      "##억원": 719,
      "##im": 720,
      "su": 721,
      "발생": 722,
      "빠": 723,
      "##센터": 724,
      "올해": 725,
      "몸": 726,
      "##인이": 727,
      "늘": 728,
      "##되었다": 729,
      "포함": 730,
      "##으나": 731,
      "##운데": 732,
      "막": 733,
      "에서": 734,
      "##ac": 735,
      "##식을": 736,
      "결정": 737,
      "내용": 738,
      "동안": 739,
      "새로운": 740,
      "돌아": 741,
      "레": 742,
      "##왔다": 743,
      "있으며": 744,
      "##as": 745,
      "철": 746,
      "떠": 747,
      "플": 748,
      "25": 749,
      "문화": 750,
      "후보": 751,
      "##em": 752,
      "전문": 753,
      "골": 754,
      "갈": 755,
      "참여": 756,
      "##이며": 757,
      "국가": 758,
      "##iz": 759,
      "##ble": 760,
      "지난해": 761,
      "##므로": 762,
      "왕": 763,
      "폭": 764,
      "##기업": 765,
      "##랜드": 766,
      "##니까": 767,
      "활동": 768,
      "그의": 769,
      "##만원": 770,
      "##age": 771,
      "##ile": 772,
      "페이": 773,
      "기대": 774,
      "않고": 775,
      "##르면": 776,
      "테": 777,
      "극": 778,
      "개발": 779,
      "##어나": 780,
      "난": 781,
      "가운데": 782,
      "보여": 783,
      "최고": 784,
      "측": 785,
      "당시": 786,
      "추가": 787,
      "이유": 788,
      "좋은": 789,
      "이름": 790,
      "면": 791,
      "엄": 792,
      "방법": 793,
      "처음": 794,
      "##분의": 795,
      "데이터": 796,
      "##op": 797,
      "##사의": 798,
      "씨": 799,
      "않았다": 800,
      "##BS": 801,
      "의미": 802,
      "오늘": 803,
      "귀": 804,
      "##ual": 805,
      "U": 806,
      "경기": 807,
      "증가": 808,
      "내가": 809,
      "##장에서": 810,
      "##gh": 811,
      "찾아": 812,
      "송": 813,
      "##리에": 814,
      "##uct": 815,
      "된": 816,
      "공개": 817,
      "있습니다": 818,
      "이를": 819,
      "이에": 820,
      "영화": 821,
      "활용": 822,
      "##는다": 823,
      "확대": 824,
      "바로가기": 825,
      "주요": 826,
      "##이라고": 827,
      "확인": 828,
      "##했던": 829,
      "##시키": 830,
      "##기로": 831,
      "별": 832,
      "윤": 833,
      "##도를": 834,
      "해당": 835,
      "오는": 836,
      "##회를": 837,
      "얻": 838,
      "##라도": 839,
      "▲": 840,
      "월": 841,
      "직접": 842,
      "##이트": 843,
      "스타": 844,
      "##원은": 845,
      "##치를": 846,
      "##전재": 847,
      "re": 848,
      "투자": 849,
      "##스타": 850,
      "추진": 851,
      "서비스": 852,
      "떨": 853,
      "무단전재": 854,
      "##이라는": 855,
      "수도": 856,
      "아무": 857,
      "for": 858,
      "##ter": 859,
      "##인의": 860,
      "않은": 861,
      "##truct": 862,
      "##ization": 863,
      "배우": 864,
      "만들어": 865,
      "con": 866,
      "이는": 867,
      "어떻": 868,
      "이러": 869,
      "가지": 870,
      "즉": 871,
      "24": 872,
      "있도록": 873,
      "발표": 874,
      "대부": 875,
      "놓": 876,
      "평가": 877,
      "따르면": 878,
      "몰": 879,
      "100": 880,
      "##력이": 881,
      "21": 882,
      "성공": 883,
      "##르는": 884,
      "##tructure": 885,
      "학생": 886,
      "##isual": 887,
      "울": 888,
      "알려": 889,
      "안전": 890,
      "##가지": 891,
      "급": 892,
      "##다가": 893,
      "22": 894,
      "인간": 895,
      "molecule": 896,
      "##isualization": 897,
      "오전": 898,
      "상태": 899,
      "있다는": 900,
      "199": 901,
      "파일": 902,
      "일반": 903,
      "물론": 904,
      "##주는": 905,
      "어떻게": 906,
      "혼": 907,
      "##교육": 908,
      "##위를": 909,
      "##제로": 910,
      "북한": 911,
      "페이스": 912,
      "캐": 913,
      "<": 914,
      "계속": 915,
      "##원이": 916,
      "있고": 917,
      "##리스": 918,
      "참석": 919,
      "제품": 920,
      "관심": 921,
      "삼성": 922,
      "더욱": 923,
      "정치": 924,
      "기준": 925,
      "뿐": 926,
      "즐": 927,
      "기능": 928,
      "역시": 929,
      "##ut": 930,
      "##음을": 931,
      "시장": 932,
      "악": 933,
      "이러한": 934,
      "때문이다": 935,
      "작품": 936,
      "되는": 937,
      "##합니다": 938,
      "th": 939,
      "범": 940,
      "##able": 941,
      "자유": 942,
      "키": 943,
      "선수": 944,
      "듯": 945,
      "고객": 946,
      "준비": 947,
      "전국": 948,
      "프로그램": 949,
      "##인다": 950,
      "당신": 951,
      "##지가": 952,
      "어려": 953,
      "is": 954,
      "받아": 955,
      "감독": 956,
      "없이": 957,
      "판매": 958,
      "are": 959,
      "여성": 960,
      "전체": 961,
      "23": 962,
      "##대를": 963,
      "부분": 964,
      "중심": 965,
      "너무": 966,
      "##ot": 967,
      "어느": 968,
      "있다고": 969,
      "이제": 970,
      "그렇": 971,
      "##났다": 972,
      "##시에": 973,
      "마련": 974,
      "산업": 975,
      "##진다": 976,
      "선택": 977,
      "##ght": 978,
      "##ain": 979,
      "희": 980,
      "생활": 981,
      "##이었": 982,
      "##했고": 983,
      "높은": 984,
      "클릭": 985,
      "팀": 986,
      "##머니": 987,
      "되어": 988,
      "먼": 989,
      "부산": 990,
      "뜻": 991,
      "몇": 992,
      "전재": 993,
      "풍": 994,
      "응": 995,
      "##치는": 996,
      "50": 997,
      "둘": 998,
      "이렇게": 999,
      "밀": 1000,
      "영향": 1001,
      "최대": 1002,
      "같다": 1003,
      "##명을": 1004,
      "육": 1005,
      "##수를": 1006,
      "낮": 1007,
      "국제": 1008,
      "##원을": 1009,
      "무엇": 1010,
      "사람이": 1011,
      "△": 1012,
      "##선을": 1013,
      "##지도": 1014,
      "효과": 1015,
      "왜": 1016,
      "자기": 1017,
      "##드는": 1018,
      "##내는": 1019,
      "일부": 1020,
      "앞으로": 1021,
      "놀": 1022,
      "라는": 1023,
      "예정이다": 1024,
      "되었다": 1025,
      "환경": 1026,
      "존재": 1027,
      "##점을": 1028,
      "##어요": 1029,
      "연합": 1030,
      "돈": 1031,
      "생산": 1032,
      "능": 1033,
      "홈": 1034,
      "침": 1035,
      "아닌": 1036,
      "##lo": 1037,
      "이루": 1038,
      "블": 1039,
      "공격": 1040,
      "정책": 1041,
      "r": 1042,
      "##명이": 1043,
      "##ur": 1044,
      "게임": 1045,
      "##BC": 1046,
      "##스를": 1047,
      "지속": 1048,
      "사건": 1049,
      "##냈다": 1050,
      "이라": 1051,
      "같이": 1052,
      "공식": 1053,
      "@": 1054,
      "현대": 1055,
      "기다": 1056,
      "제보": 1057,
      "만나": 1058,
      "말을": 1059,
      "나오": 1060,
      "인터": 1061,
      "좌": 1062,
      "##수는": 1063,
      "웃": 1064,
      "##스는": 1065,
      "##했다고": 1066,
      "실시": 1067,
      "적극": 1068,
      "지방": 1069,
      "##물을": 1070,
      "시민": 1071,
      "없었다": 1072,
      "으로": 1073,
      "##제를": 1074,
      "##감을": 1075,
      "##이가": 1076,
      "유지": 1077,
      "##lar": 1078,
      "28": 1079,
      "대학": 1080,
      "친구": 1081,
      "##위원회": 1082,
      "##전을": 1083,
      "이해": 1084,
      "##없이": 1085,
      "떨어": 1086,
      "##인을": 1087,
      "이것": 1088,
      "도시": 1089,
      "펼": 1090,
      "##장의": 1091,
      "관한": 1092,
      "##나라": 1093,
      "풀": 1094,
      "핵": 1095,
      "##의를": 1096,
      "_": 1097,
      "##도가": 1098,
      "##도로": 1099,
      "조사": 1100,
      "제작": 1101,
      "분석": 1102,
      "페이스북": 1103,
      "+": 1104,
      "##지역": 1105,
      "##ay": 1106,
      "##동을": 1107,
      "뉴시스": 1108,
      "##주시": 1109,
      "역할": 1110,
      "학교": 1111,
      "e": 1112,
      "##상의": 1113,
      "상대": 1114,
      "헤": 1115,
      "27": 1116,
      "터": 1117,
      "흥": 1118,
      "##문화": 1119,
      "않았": 1120,
      "26": 1121,
      "모형": 1122,
      "##라이": 1123,
      "##인은": 1124,
      "아래": 1125,
      "##명의": 1126,
      "자연": 1127,
      "##했습니다": 1128,
      "##ul": 1129,
      "##밖에": 1130,
      "##이지": 1131,
      "##hem": 1132,
      "특별": 1133,
      "##수가": 1134,
      "피해": 1135,
      "강화": 1136,
      "맡": 1137,
      "방문": 1138,
      "pro": 1139,
      "건강": 1140,
      "아직": 1141,
      "##로서": 1142,
      "관계자는": 1143,
      "보면": 1144,
      "봉": 1145,
      "쉽": 1146,
      "결국": 1147,
      "매우": 1148,
      "개최": 1149,
      "폐": 1150,
      "as": 1151,
      "보다": 1152,
      "##us": 1153,
      "수준": 1154,
      "SD": 1155,
      "##갔다": 1156,
      "과정": 1157,
      "않는다": 1158,
      "비롯": 1159,
      "일이": 1160,
      "##디어": 1161,
      "##움을": 1162,
      "가족": 1163,
      "##하려": 1164,
      "##은행": 1165,
      "관리": 1166,
      "on": 1167,
      "##스로": 1168,
      "휴": 1169,
      "##스터": 1170,
      "어린": 1171,
      "금융": 1172,
      "##스의": 1173,
      "##20": 1174,
      "경찰": 1175,
      "연결": 1176,
      "##기관": 1177,
      "하지": 1178,
      "뛰": 1179,
      "삶": 1180,
      "file": 1181,
      "##라마": 1182,
      "##원의": 1183,
      "좀": 1184,
      "미래": 1185,
      "팔": 1186,
      "공동": 1187,
      "page": 1188,
      "##her": 1189,
      "얼굴": 1190,
      "chem": 1191,
      "structure": 1192,
      "깨": 1193,
      "그런데": 1194,
      "SDF": 1195,
      "##기자": 1196,
      "긴": 1197,
      "##일보": 1198,
      "visualization": 1199,
      "atoms": 1200,
      "암": 1201,
      "적용": 1202,
      "##어서": 1203,
      "표현": 1204,
      "반응": 1205,
      "지나": 1206,
      "##산업": 1207,
      "##트를": 1208,
      "강조": 1209,
      "것도": 1210,
      "요구": 1211,
      "소비": 1212,
      "40": 1213,
      "##정보": 1214,
      "성장": 1215,
      "치료": 1216,
      "여기": 1217,
      "##되었": 1218,
      "환자": 1219,
      "##부는": 1220,
      "그렇게": 1221,
      "판단": 1222,
      "##전히": 1223,
      "##상이": 1224,
      "모습을": 1225,
      "주장": 1226,
      "##되지": 1227,
      "탈": 1228,
      "##신문": 1229,
      "붙": 1230,
      "##세요": 1231,
      "가지고": 1232,
      "투여": 1233,
      "변화": 1234,
      "이야기": 1235,
      "목표": 1236,
      "##마다": 1237,
      "경쟁": 1238,
      "대비": 1239,
      "규모": 1240,
      "##동안": 1241,
      "드러": 1242,
      "##지막": 1243,
      "##케이": 1244,
      "조선": 1245,
      "##일까지": 1246,
      "밤": 1247,
      "인천": 1248,
      "그래서": 1249,
      "##정한": 1250,
      "주민": 1251,
      "위치": 1252,
      "얼마": 1253,
      "크게": 1254,
      "출연": 1255,
      "##대의": 1256,
      "서로": 1257,
      "##연구": 1258,
      "##인지": 1259,
      "만큼": 1260,
      "상승": 1261,
      "##과의": 1262,
      "기존": 1263,
      "콘": 1264,
      "29": 1265,
      "##사에": 1266,
      "먼저": 1267,
      "시즌": 1268,
      "##관리": 1269,
      "전망": 1270,
      "발전": 1271,
      "##일리": 1272,
      "고려": 1273,
      "분야": 1274,
      "스포츠": 1275,
      "개인": 1276,
      "끌": 1277,
      "연합뉴스": 1278,
      "그림": 1279,
      "좋아": 1280,
      "##이를": 1281,
      "석": 1282,
      "설치": 1283,
      "예상": 1284,
      "노력": 1285,
      "##하였": 1286,
      "혈": 1287,
      "##하겠": 1288,
      "##ew": 1289,
      "아버": 1290,
      "경험": 1291,
      "마지막": 1292,
      "##임을": 1293,
      "믿": 1294,
      "나라": 1295,
      "등장": 1296,
      "기본": 1297,
      "##인가": 1298,
      "알고": 1299,
      "al": 1300,
      "가격": 1301,
      "티": 1302,
      "##un": 1303,
      "##년에": 1304,
      "자체": 1305,
      "숨": 1306,
      "##있는": 1307,
      "기간": 1308,
      "##스가": 1309,
      "##마트": 1310,
      "##일부터": 1311,
      "##거리": 1312,
      "업무": 1313,
      "선정": 1314,
      "중요한": 1315,
      "##로드": 1316,
      "##장에": 1317,
      "##right": 1318,
      "팬": 1319,
      "##대에": 1320,
      "않을": 1321,
      "##지에": 1322,
      "자동": 1323,
      "아니다": 1324,
      "##계를": 1325,
      "꿈": 1326,
      "##yl": 1327,
      "##사회": 1328,
      "##시는": 1329,
      "방향": 1330,
      "각각": 1331,
      "##문을": 1332,
      "##ort": 1333,
      "정신": 1334,
      "받고": 1335,
      "이동": 1336,
      "An": 1337,
      "싸": 1338,
      "31": 1339,
      "##부를": 1340,
      "##로는": 1341,
      "해결": 1342,
      "읽": 1343,
      "##인데": 1344,
      "압": 1345,
      "살펴": 1346,
      "위험": 1347,
      "흔": 1348,
      "됐다": 1349,
      "깊": 1350,
      "##들도": 1351,
      "살아": 1352,
      "품": 1353,
      "대상으로": 1354,
      "##기의": 1355,
      "##나는": 1356,
      "##시설": 1357,
      "제주": 1358,
      "집중": 1359,
      "##다면": 1360,
      "누구": 1361,
      "##ip": 1362,
      "000": 1363,
      "##개월": 1364,
      "해외": 1365,
      "##안을": 1366,
      "##ical": 1367,
      "##금을": 1368,
      "##지원": 1369,
      "조직": 1370,
      "##자인": 1371,
      "영상": 1372,
      "##사와": 1373,
      "다운": 1374,
      "우리는": 1375,
      "조금": 1376,
      "##ir": 1377,
      "##소를": 1378,
      "##민국": 1379,
      "혹": 1380,
      "##한다고": 1381,
      "사람은": 1382,
      "사고": 1383,
      "발견": 1384,
      "있는데": 1385,
      "##기술": 1386,
      "개선": 1387,
      "##로부터": 1388,
      "선보": 1389,
      "움": 1390,
      "앞서": 1391,
      "올라": 1392,
      "자리": 1393,
      "내려": 1394,
      "따라서": 1395,
      "##세를": 1396,
      "##도의": 1397,
      "」": 1398,
      "##라인": 1399,
      "「": 1400,
      "글로": 1401,
      "루": 1402,
      "##르게": 1403,
      "##프트": 1404,
      "등에": 1405,
      "##전자": 1406,
      "그가": 1407,
      "상품": 1408,
      "Go": 1409,
      "일을": 1410,
      "##정이": 1411,
      "갑": 1412,
      "##재인": 1413,
      "##opy": 1414,
      "외국": 1415,
      "대선": 1416,
      "##보고": 1417,
      "##이어": 1418,
      "번째": 1419,
      "##스포츠": 1420,
      "답": 1421,
      "러": 1422,
      "듣": 1423,
      "헌": 1424,
      "페": 1425,
      "##가를": 1426,
      "ro": 1427,
      "Y": 1428,
      "2015": 1429,
      "보내": 1430,
      "##전에": 1431,
      "##어난": 1432,
      "인정": 1433,
      "아시아": 1434,
      "지적": 1435,
      "##한다는": 1436,
      "##서를": 1437,
      "보인다": 1438,
      "##리의": 1439,
      "##으로써": 1440,
      "경영": 1441,
      "과거": 1442,
      "##ail": 1443,
      "##린다": 1444,
      "마을": 1445,
      "정말": 1446,
      "198": 1447,
      "겨": 1448,
      "##약을": 1449,
      "음악": 1450,
      "형성": 1451,
      "##ce": 1452,
      "넣": 1453,
      "꾸": 1454,
      "시스": 1455,
      "##ap": 1456,
      "사람들이": 1457,
      "흐": 1458,
      "##불어": 1459,
      "필요한": 1460,
      "의해": 1461,
      "상당": 1462,
      "행정": 1463,
      "녹": 1464,
      "격": 1465,
      "##롯데": 1466,
      "국회": 1467,
      "곧": 1468,
      "##수의": 1469,
      "관광": 1470,
      "##자들이": 1471,
      "궁": 1472,
      "##지의": 1473,
      "##부가": 1474,
      "전했다": 1475,
      "더불어": 1476,
      "알아": 1477,
      "##렌드": 1478,
      "작은": 1479,
      "브랜드": 1480,
      "##그룹": 1481,
      "대한민국": 1482,
      "의견": 1483,
      "슬": 1484,
      "##opyright": 1485,
      "워": 1486,
      "##own": 1487,
      "2016": 1488,
      "하면": 1489,
      "있던": 1490,
      "하루": 1491,
      "##하자": 1492,
      "##으니": 1493,
      "##자로": 1494,
      "히": 1495,
      "현실": 1496,
      "행복": 1497,
      "##르고": 1498,
      "문재인": 1499,
      "구성되어": 1500,
      "만든": 1501,
      "##었던": 1502,
      "##시장": 1503,
      "작업": 1504,
      "거의": 1505,
      "견": 1506,
      "i": 1507,
      "##th": 1508,
      "cont": 1509,
      "비교": 1510,
      "##TV": 1511,
      "색": 1512,
      "컨": 1513,
      "##ity": 1514,
      "거래": 1515,
      "##um": 1516,
      "글로벌": 1517,
      "전략": 1518,
      "##주당": 1519,
      "방식": 1520,
      "엔": 1521,
      "이라며": 1522,
      "이하": 1523,
      "시스템": 1524,
      "##데이": 1525,
      "롯데": 1526,
      "가치": 1527,
      "섬": 1528,
      "##ctiv": 1529,
      "중앙": 1530,
      "##tal": 1531,
      "형태": 1532,
      "주변": 1533,
      "##ers": 1534,
      "##션을": 1535,
      "##하거나": 1536,
      "빈": 1537,
      "##리로": 1538,
      "여자": 1539,
      "』": 1540,
      "##스러": 1541,
      "혐": 1542,
      "반영": 1543,
      "여행": 1544,
      "ar": 1545,
      "바람": 1546,
      "받은": 1547,
      "잔": 1548,
      "##쳤다": 1549,
      "##려고": 1550,
      "##gen": 1551,
      "##드를": 1552,
      "갖고": 1553,
      "##성과": 1554,
      "##ional": 1555,
      "##개를": 1556,
      "##리지": 1557,
      "대구": 1558,
      "##and": 1559,
      "##촬영": 1560,
      "아주": 1561,
      "않아": 1562,
      "말이": 1563,
      "참가": 1564,
      "해야": 1565,
      "역사": 1566,
      "##권을": 1567,
      "##10": 1568,
      "##vid": 1569,
      "자신이": 1570,
      "다운로드": 1571,
      "『": 1572,
      "##NS": 1573,
      "움직": 1574,
      "##치고": 1575,
      "결혼": 1576,
      "##70": 1577,
      "매출": 1578,
      "나온": 1579,
      "기사": 1580,
      "국민의": 1581,
      "##도는": 1582,
      "##부의": 1583,
      "노동": 1584,
      "있지만": 1585,
      "##와의": 1586,
      "있게": 1587,
      "퍼": 1588,
      "대신": 1589,
      "계획이다": 1590,
      "맛": 1591,
      "##so": 1592,
      "어디": 1593,
      "보기": 1594,
      "##ages": 1595,
      "##대한": 1596,
      "조성": 1597,
      "시청": 1598,
      "확보": 1599,
      "##대표": 1600,
      "자료": 1601,
      "얘": 1602,
      "따른": 1603,
      "기관": 1604,
      "k": 1605,
      "##너지": 1606,
      "차지": 1607,
      "y": 1608,
      "공연": 1609,
      "최초": 1610,
      "인사": 1611,
      "down": 1612,
      "##자리": 1613,
      "보는": 1614,
      "혁": 1615,
      "의원": 1616,
      "착": 1617,
      "빨": 1618,
      "##ere": 1619,
      "##pt": 1620,
      "##구조": 1621,
      "##훈련": 1622,
      "감소": 1623,
      "제시": 1624,
      "##환경": 1625,
      "av": 1626,
      "영국": 1627,
      "프리": 1628,
      "##회가": 1629,
      "하여": 1630,
      "##ang": 1631,
      "such": 1632,
      "숙": 1633,
      "기억": 1634,
      "덕": 1635,
      "우리가": 1636,
      "트렌드": 1637,
      "이루어": 1638,
      "##개발": 1639,
      "꽃": 1640,
      "영업": 1641,
      "##50": 1642,
      "##했지만": 1643,
      "`": 1644,
      "받았다": 1645,
      "##대가": 1646,
      "##데일리": 1647,
      "다만": 1648,
      "오른": 1649,
      "##ains": 1650,
      "provid": 1651,
      "스스로": 1652,
      "that": 1653,
      "##물이": 1654,
      "출시": 1655,
      "되고": 1656,
      "슈": 1657,
      "기념": 1658,
      "가까": 1659,
      "인해": 1660,
      "Copyright": 1661,
      "현지": 1662,
      "##으로서": 1663,
      "원자로": 1664,
      "동시에": 1665,
      "##소년": 1666,
      "바라": 1667,
      "##ailable": 1668,
      "시각": 1669,
      "벗": 1670,
      "total": 1671,
      "전달": 1672,
      "무료": 1673,
      "가진": 1674,
      "available": 1675,
      "염": 1676,
      "틀": 1677,
      "역할을": 1678,
      "##럼프": 1679,
      "등으로": 1680,
      "##리그": 1681,
      "##하겠다": 1682,
      "유행": 1683,
      "건설": 1684,
      "##load": 1685,
      "라며": 1686,
      "평균": 1687,
      "분자의": 1688,
      "충분": 1689,
      "우선": 1690,
      "LG": 1691,
      "##으로는": 1692,
      "시행": 1693,
      "##립니다": 1694,
      "전에": 1695,
      "wh": 1696,
      "쇼": 1697,
      "##었고": 1698,
      "chemical": 1699,
      "provides": 1700,
      "##상에": 1701,
      "땅": 1702,
      "contains": 1703,
      "##ate": 1704,
      "순간": 1705,
      "##오는": 1706,
      "##코리아": 1707,
      "download": 1708,
      "bonds": 1709,
      "딸": 1710,
      "솔": 1711,
      "molecular": 1712,
      "화학결합": 1713,
      "레이": 1714,
      "이미지": 1715,
      "공간": 1716,
      "돼": 1717,
      "##ud": 1718,
      "이라는": 1719,
      "##스럽": 1720,
      "그대로": 1721,
      "대부분": 1722,
      "##량을": 1723,
      "과학": 1724,
      "##하던": 1725,
      "##가가": 1726,
      "##움이": 1727,
      "##하도록": 1728,
      "목소": 1729,
      "##웨어": 1730,
      "##ne": 1731,
      "영향을": 1732,
      "라이": 1733,
      "빛": 1734,
      "모양": 1735,
      "트럼프": 1736,
      "이와": 1737,
      "장관": 1738,
      "검찰": 1739,
      "프랑": 1740,
      "설명했다": 1741,
      "행사": 1742,
      "by": 1743,
      "rot": 1744,
      "보호": 1745,
      "최종": 1746,
      "##os": 1747,
      "넘어": 1748,
      "선거": 1749,
      "60": 1750,
      "어머니": 1751,
      "소개": 1752,
      "##년간": 1753,
      "곡": 1754,
      "망": 1755,
      "대전": 1756,
      "정도로": 1757,
      "##위에": 1758,
      "##식이": 1759,
      "##30": 1760,
      "운동": 1761,
      "##개의": 1762,
      "달리": 1763,
      "부족": 1764,
      "공급": 1765,
      "우수": 1766,
      "##원에": 1767,
      "나의": 1768,
      "##ack": 1769,
      "##이드": 1770,
      "분위": 1771,
      "때는": 1772,
      "【": 1773,
      "】": 1774,
      "##정책": 1775,
      "하며": 1776,
      "행동": 1777,
      "칼": 1778,
      "신청": 1779,
      "##는지": 1780,
      "안정": 1781,
      "##하지만": 1782,
      "젊": 1783,
      "컴": 1784,
      "##으므로": 1785,
      "##더라도": 1786,
      "드라마": 1787,
      "전쟁": 1788,
      "##시켜": 1789,
      "SK": 1790,
      "대부분의": 1791,
      "##21": 1792,
      "전통": 1793,
      "노래": 1794,
      "##릭터": 1795,
      "유럽": 1796,
      "##생활": 1797,
      "술": 1798,
      "##단체": 1799,
      "##적이": 1800,
      "없어": 1801,
      "아름": 1802,
      "##are": 1803,
      "정상": 1804,
      "##장과": 1805,
      "##자들의": 1806,
      "##통신": 1807,
      "앉": 1808,
      "쪽": 1809,
      "광주": 1810,
      "##구를": 1811,
      "##원에서": 1812,
      "##서울": 1813,
      "##ore": 1814,
      "##롭게": 1815,
      "##ord": 1816,
      "기능을": 1817,
      "##제가": 1818,
      "구축": 1819,
      "Ch": 1820,
      "정확": 1821,
      "##랐다": 1822,
      "##pp": 1823,
      "##업체": 1824,
      "이야기를": 1825,
      "나서": 1826,
      "##부에": 1827,
      "못한": 1828,
      "해도": 1829,
      "소속": 1830,
      "캐릭터": 1831,
      "수출": 1832,
      "##나무": 1833,
      "익": 1834,
      "##회는": 1835,
      "##운드": 1836,
      "부모": 1837,
      "##성은": 1838,
      "##도시": 1839,
      "인기": 1840,
      "##기간": 1841,
      "합니다": 1842,
      "그녀는": 1843,
      "##만큼": 1844,
      "체험": 1845,
      "##하기도": 1846,
      "##이자": 1847,
      "수상": 1848,
      "##하는데": 1849,
      "남자": 1850,
      "##이기": 1851,
      "퇴": 1852,
      "##했으며": 1853,
      "결합": 1854,
      "제대로": 1855,
      "##비를": 1856,
      "모델": 1857,
      "SBS": 1858,
      "청년": 1859,
      "##ine": 1860,
      "촬영": 1861,
      "사실을": 1862,
      "분명": 1863,
      "##년부터": 1864,
      "빌": 1865,
      "두고": 1866,
      "대응": 1867,
      "##들에": 1868,
      "스마트": 1869,
      "각종": 1870,
      "경기도": 1871,
      "##바일": 1872,
      "잃": 1873,
      "##관계": 1874,
      "##한국": 1875,
      "수가": 1876,
      "문제가": 1877,
      "##디오": 1878,
      "만에": 1879,
      "멀": 1880,
      "이전": 1881,
      "##대는": 1882,
      "나가": 1883,
      "##했을": 1884,
      "자세": 1885,
      "언제": 1886,
      "##회에서": 1887,
      "이벤": 1888,
      "도입": 1889,
      "##od": 1890,
      "통해서": 1891,
      "마이": 1892,
      "##투자": 1893,
      "찬": 1894,
      "##사로": 1895,
      "보도": 1896,
      "독일": 1897,
      "##스크": 1898,
      "면서": 1899,
      "엄마": 1900,
      "묻": 1901,
      "##어야": 1902,
      "##ig": 1903,
      "##파트": 1904,
      "이뤄": 1905,
      "흘": 1906,
      "##보는": 1907,
      "##정은": 1908,
      "##ly": 1909,
      "##ec": 1910,
      "쉽게": 1911,
      "##가의": 1912,
      "##등학교": 1913,
      "부담": 1914,
      "실제": 1915,
      "청와": 1916,
      "##에게는": 1917,
      "##ich": 1918,
      "수익": 1919,
      "통합": 1920,
      "##멤버": 1921,
      "꼭": 1922,
      "##ous": 1923,
      "재미": 1924,
      "핵심": 1925,
      "있기": 1926,
      "국정": 1927,
      "무슨": 1928,
      "수행": 1929,
      "그리": 1930,
      "직원": 1931,
      "##대학교": 1932,
      "빼": 1933,
      "중소": 1934,
      "##회에": 1935,
      "##텐츠": 1936,
      "마음을": 1937,
      "유명": 1938,
      "##지로": 1939,
      "있어서": 1940,
      "뭐": 1941,
      "푸": 1942,
      "매일": 1943,
      "니": 1944,
      "현장": 1945,
      "어렵": 1946,
      "모바일": 1947,
      "##av": 1948,
      "기반": 1949,
      "장애": 1950,
      "위원": 1951,
      "##조선": 1952,
      "않다": 1953,
      "지정": 1954,
      "시작했다": 1955,
      "한다는": 1956,
      "선발": 1957,
      "주의": 1958,
      "낙": 1959,
      "제외": 1960,
      "그룹": 1961,
      "##산을": 1962,
      "욕": 1963,
      "##qu": 1964,
      "##적을": 1965,
      "가져": 1966,
      "##eth": 1967,
      "TV": 1968,
      "옮": 1969,
      "뇌": 1970,
      "##보다는": 1971,
      "책임": 1972,
      "##우는": 1973,
      "##est": 1974,
      "##프로": 1975,
      "##ia": 1976,
      "MBC": 1977,
      "##에서의": 1978,
      "대통령이": 1979,
      "시간을": 1980,
      "##orm": 1981,
      "공공": 1982,
      "##지지": 1983,
      "필요하다": 1984,
      "자동차": 1985,
      "달러": 1986,
      "##함을": 1987,
      "##대학": 1988,
      "##른다": 1989,
      "촉": 1990,
      "쉬": 1991,
      "메뉴": 1992,
      "전혀": 1993,
      "옆": 1994,
      "옥": 1995,
      "##성에": 1996,
      "보였다": 1997,
      "억": 1998,
      "주목": 1999,
      "주인": 2000,
      "##느냐": 2001,
      "##두고": 2002,
      "##res": 2003,
      "##드시": 2004,
      "사무": 2005,
      "##운동": 2006,
      "그때": 2007,
      "##정에": 2008,
      "속에서": 2009,
      "##투데이": 2010,
      "35": 2011,
      "##복지": 2012,
      "최신": 2013,
      "졸": 2014,
      "##이스": 2015,
      "구매": 2016,
      "2018": 2017,
      "잘못": 2018,
      "희망": 2019,
      "##경기": 2020,
      "##emb": 2021,
      "##겼다": 2022,
      "비판": 2023,
      "총집": 2024,
      "KBS": 2025,
      "속에": 2026,
      "멤버": 2027,
      "출신": 2028,
      "##히려": 2029,
      "덧": 2030,
      "가능성이": 2031,
      "##리즈": 2032,
      "홍보": 2033,
      "홈페이": 2034,
      "##자와": 2035,
      "2014": 2036,
      "쿠": 2037,
      "주는": 2038,
      "인물": 2039,
      "교통": 2040,
      "SNS": 2041,
      "사람의": 2042,
      "협력": 2043,
      "왼": 2044,
      "##심을": 2045,
      "##씨는": 2046,
      "성과": 2047,
      "해서": 2048,
      "한번": 2049,
      "02": 2050,
      "##일을": 2051,
      "괴": 2052,
      "우려": 2053,
      "의료": 2054,
      "사라": 2055,
      "이끌": 2056,
      "반면": 2057,
      "넓": 2058,
      "특징": 2059,
      "중심으로": 2060,
      "총집결": 2061,
      "사람들은": 2062,
      "나무": 2063,
      "##격을": 2064,
      "##주고": 2065,
      "활성": 2066,
      "##만의": 2067,
      "비슷": 2068,
      "##림픽": 2069,
      "##작권": 2070,
      "캠": 2071,
      "혹은": 2072,
      "##번째": 2073,
      "비해": 2074,
      "간의": 2075,
      "전자": 2076,
      "엘": 2077,
      "본격": 2078,
      "##체를": 2079,
      "##erv": 2080,
      "지지": 2081,
      "36": 2082,
      "시설": 2083,
      "불가": 2084,
      "주로": 2085,
      "회사": 2086,
      "##아가": 2087,
      "시험": 2088,
      "##했다는": 2089,
      "##성의": 2090,
      "##ak": 2091,
      "강원": 2092,
      "오히려": 2093,
      "전시": 2094,
      "##이지만": 2095,
      "던": 2096,
      "얼마나": 2097,
      "감사": 2098,
      "것입니다": 2099,
      "##고를": 2100,
      "##ens": 2101,
      "타이": 2102,
      "##자들은": 2103,
      "이상의": 2104,
      "대해서": 2105,
      "맥": 2106,
      "##앨범": 2107,
      "##더니": 2108,
      "그것은": 2109,
      "##어를": 2110,
      "가능하다": 2111,
      "경우에는": 2112,
      "우리나라": 2113,
      "어린이": 2114,
      "끊": 2115,
      "소프트": 2116,
      "지도": 2117,
      "젊은": 2118,
      "##중한": 2119,
      "##원으로": 2120,
      "##리와": 2121,
      "##try": 2122,
      "##동산": 2123,
      "나누": 2124,
      "겪": 2125,
      "시간이": 2126,
      "힘을": 2127,
      "실제로": 2128,
      "예술": 2129,
      "##본부": 2130,
      "##됩니다": 2131,
      "일으": 2132,
      "##분이": 2133,
      "##하기로": 2134,
      "70": 2135,
      "##학생": 2136,
      "어려운": 2137,
      "##장으로": 2138,
      "##기와": 2139,
      "제보를": 2140,
      "교수": 2141,
      "언론": 2142,
      "반드시": 2143,
      "징": 2144,
      "##화가": 2145,
      "묘": 2146,
      "반대": 2147,
      "##이버": 2148,
      "처리": 2149,
      "##이에": 2150,
      "혜": 2151,
      "##다운": 2152,
      "위해서": 2153,
      "##yd": 2154,
      "##ill": 2155,
      "##수록": 2156,
      "강력": 2157,
      "많다": 2158,
      "재판": 2159,
      "옵": 2160,
      "말한다": 2161,
      "연속": 2162,
      "언급": 2163,
      "종합": 2164,
      "st": 2165,
      "러시아": 2166,
      "##점이": 2167,
      "논의": 2168,
      "통한": 2169,
      "선생": 2170,
      "액": 2171,
      "정의": 2172,
      "단순": 2173,
      "관심을": 2174,
      "문제를": 2175,
      "##되며": 2176,
      "전해": 2177,
      "기다립니다": 2178,
      "혐의": 2179,
      "##art": 2180,
      "##량이": 2181,
      "##과는": 2182,
      "기획": 2183,
      "뮤": 2184,
      "강조했다": 2185,
      "하늘": 2186,
      "우승": 2187,
      "##이익": 2188,
      "32": 2189,
      "질문": 2190,
      "담당": 2191,
      "최고의": 2192,
      "인터넷": 2193,
      "뜨": 2194,
      "##국의": 2195,
      "가능한": 2196,
      "》": 2197,
      "걱": 2198,
      "《": 2199,
      "설립": 2200,
      "##단을": 2201,
      "##섰다": 2202,
      "##요일": 2203,
      "말씀": 2204,
      "주택": 2205,
      "밖": 2206,
      "그들은": 2207,
      "짓": 2208,
      "##하라": 2209,
      "내년": 2210,
      "못하고": 2211,
      "그동안": 2212,
      "온라인": 2213,
      "마찬": 2214,
      "찍": 2215,
      "가는": 2216,
      "##ft": 2217,
      "##시키는": 2218,
      "##근혜": 2219,
      "아마": 2220,
      "이곳": 2221,
      "##안전": 2222,
      "##어진": 2223,
      "##년대": 2224,
      "##트로": 2225,
      "##제의": 2226,
      "gt": 2227,
      "받을": 2228,
      "냉": 2229,
      "못했다": 2230,
      "모르": 2231,
      "아침": 2232,
      "##old": 2233,
      "##계획": 2234,
      "인생": 2235,
      "##업을": 2236,
      "축소": 2237,
      "오래": 2238,
      "되면": 2239,
      "##증권": 2240,
      "시절": 2241,
      "500": 2242,
      "##거래": 2243,
      "마찬가지": 2244,
      "파악": 2245,
      "위에": 2246,
      "사례": 2247,
      "##상은": 2248,
      "일어나": 2249,
      "##라면": 2250,
      "지켜": 2251,
      "##웠다": 2252,
      "있지": 2253,
      "기초": 2254,
      "느끼": 2255,
      "##중에": 2256,
      "전환": 2257,
      "끼": 2258,
      "업체": 2259,
      "되었": 2260,
      "##들어": 2261,
      "##차를": 2262,
      "비용": 2263,
      "##19": 2264,
      "80": 2265,
      "사망": 2266,
      "##ith": 2267,
      "##스와": 2268,
      "하다": 2269,
      "im": 2270,
      "납": 2271,
      "인도": 2272,
      "so": 2273,
      "표면": 2274,
      "계약": 2275,
      "높아": 2276,
      "플레이": 2277,
      "탐": 2278,
      "바이": 2279,
      "##스러운": 2280,
      "##건을": 2281,
      "소프트웨어": 2282,
      "국민의당": 2283,
      "##중결합": 2284,
      "덧붙": 2285,
      "##정의": 2286,
      "신경": 2287,
      "경우가": 2288,
      "대해서는": 2289,
      "co": 2290,
      "##조사": 2291,
      "죄": 2292,
      "##활동": 2293,
      "##보험": 2294,
      "보통": 2295,
      "##으면서": 2296,
      "##시킨": 2297,
      "##cl": 2298,
      "것이라고": 2299,
      "##없는": 2300,
      "진출": 2301,
      "달라": 2302,
      "하였다": 2303,
      "프로젝": 2304,
      "옷": 2305,
      "##서비스": 2306,
      "이다": 2307,
      "##만이": 2308,
      "고용": 2309,
      "좋다": 2310,
      "박근혜": 2311,
      "나와": 2312,
      "전문가": 2313,
      "##만을": 2314,
      "나를": 2315,
      "##금융": 2316,
      "그를": 2317,
      "##위는": 2318,
      "지난달": 2319,
      "##물의": 2320,
      "사람을": 2321,
      "St": 2322,
      "단일": 2323,
      "여전히": 2324,
      "휘": 2325,
      "##실을": 2326,
      "##ub": 2327,
      "없을": 2328,
      "##규모": 2329,
      "##길을": 2330,
      "##같이": 2331,
      "##준다": 2332,
      "단계": 2333,
      "느낌": 2334,
      "받는": 2335,
      "최소": 2336,
      "##지털": 2337,
      "##ated": 2338,
      "##간의": 2339,
      "수는": 2340,
      "##으로부터": 2341,
      "##품을": 2342,
      "X": 2343,
      "##관을": 2344,
      "예방": 2345,
      "##ews": 2346,
      "##분을": 2347,
      "훈련": 2348,
      "거쳐": 2349,
      "##되면서": 2350,
      "상세": 2351,
      "##ver": 2352,
      "##란다": 2353,
      "be": 2354,
      "빅": 2355,
      "것처럼": 2356,
      "들어가": 2357,
      "다음과": 2358,
      "적이": 2359,
      "##관이": 2360,
      "##신을": 2361,
      "공감": 2362,
      "써": 2363,
      "지급": 2364,
      "##학과": 2365,
      "설정": 2366,
      "쌓": 2367,
      "##자기": 2368,
      "##트는": 2369,
      "안에": 2370,
      "등록": 2371,
      "봐": 2372,
      "##분기": 2373,
      "구체": 2374,
      "손을": 2375,
      "대체": 2376,
      "대통령은": 2377,
      "맺": 2378,
      "##사항": 2379,
      "가슴": 2380,
      "##24": 2381,
      "##법을": 2382,
      "34": 2383,
      "##form": 2384,
      "##되면": 2385,
      "##구가": 2386,
      "##히는": 2387,
      "위해서는": 2388,
      "만드는": 2389,
      "##rogen": 2390,
      "남아": 2391,
      "짧": 2392,
      "##기고": 2393,
      "대답": 2394,
      "신규": 2395,
      "##지방": 2396,
      "여름": 2397,
      "##분에": 2398,
      "불구": 2399,
      "인식": 2400,
      "쓸": 2401,
      "은행": 2402,
      "변경": 2403,
      "##료를": 2404,
      "##자에": 2405,
      "사회적": 2406,
      "It": 2407,
      "예산": 2408,
      "대형": 2409,
      "}": 2410,
      "##증을": 2411,
      "보유": 2412,
      "중인": 2413,
      "##겠다는": 2414,
      "In": 2415,
      "자주": 2416,
      "회전": 2417,
      "##ement": 2418,
      "보험": 2419,
      "##이야": 2420,
      "##리카": 2421,
      "부정": 2422,
      "자신을": 2423,
      "트위": 2424,
      "##치가": 2425,
      "##켰다": 2426,
      "소리": 2427,
      "##려는": 2428,
      "전기": 2429,
      "##시오": 2430,
      "an": 2431,
      "##위가": 2432,
      "##구의": 2433,
      "##ont": 2434,
      "##관에서": 2435,
      "류": 2436,
      "마치": 2437,
      "벽": 2438,
      "옛": 2439,
      "소재": 2440,
      "바탕": 2441,
      "미디어": 2442,
      "##어도": 2443,
      "##어가": 2444,
      "에너지": 2445,
      "아내": 2446,
      "##bs": 2447,
      "제기": 2448,
      "과정에서": 2449,
      "##주를": 2450,
      "lt": 2451,
      "제조": 2452,
      "##제는": 2453,
      "것에": 2454,
      "##레스": 2455,
      "의한": 2456,
      "33": 2457,
      "부동산": 2458,
      "196": 2459,
      "활용할": 2460,
      "제가": 2461,
      "Mo": 2462,
      "##케팅": 2463,
      "있었던": 2464,
      "모습이": 2465,
      "전투": 2466,
      "콜": 2467,
      "out": 2468,
      "나타나": 2469,
      "쓴": 2470,
      "회복": 2471,
      "##일에": 2472,
      "맞아": 2473,
      "수밖에": 2474,
      "향후": 2475,
      "##11": 2476,
      "왔": 2477,
      "##공사": 2478,
      "##arb": 2479,
      "연기": 2480,
      "청소년": 2481,
      "##이란": 2482,
      "##ld": 2483,
      "변호": 2484,
      "대표는": 2485,
      "굴": 2486,
      "##적이고": 2487,
      "##민주당": 2488,
      "것과": 2489,
      "##ist": 2490,
      "건축": 2491,
      "동아": 2492,
      "단체": 2493,
      "이름을": 2494,
      "습": 2495,
      "논란": 2496,
      "탑": 2497,
      "##내고": 2498,
      "##eat": 2499,
      "##주택": 2500,
      "##였던": 2501,
      "##istry": 2502,
      "항상": 2503,
      "##보면": 2504,
      "##ates": 2505,
      "요청": 2506,
      "프랑스": 2507,
      "싱": 2508,
      "활동을": 2509,
      "작성": 2510,
      "##세기": 2511,
      "##군의": 2512,
      "197": 2513,
      "아파트": 2514,
      "흑": 2515,
      "제한": 2516,
      "훌": 2517,
      "대화": 2518,
      "독자": 2519,
      "까": 2520,
      "불러": 2521,
      "차량": 2522,
      "남편": 2523,
      "내용을": 2524,
      "고민": 2525,
      "독립": 2526,
      "사는": 2527,
      "##지와": 2528,
      "음식": 2529,
      "##ari": 2530,
      "경남": 2531,
      "구속": 2532,
      "##같은": 2533,
      "완성": 2534,
      "우리의": 2535,
      "하기": 2536,
      "하나의": 2537,
      "왼쪽": 2538,
      "##도에": 2539,
      "##our": 2540,
      "Ad": 2541,
      "대통령의": 2542,
      "대중": 2543,
      "맨": 2544,
      "참고": 2545,
      "##zo": 2546,
      "이사": 2547,
      "나타났다": 2548,
      "트위터": 2549,
      "##이의": 2550,
      "보이는": 2551,
      "##ata": 2552,
      "##리기": 2553,
      "세월": 2554,
      "확실": 2555,
      "##체육": 2556,
      "which": 2557,
      "훨": 2558,
      "싶은": 2559,
      "##거운": 2560,
      "##반기": 2561,
      "##마을": 2562,
      "45": 2563,
      "##정부": 2564,
      "소설": 2565,
      "KB": 2566,
      "ac": 2567,
      "바다": 2568,
      "##세계": 2569,
      "이때": 2570,
      "##감이": 2571,
      "##주가": 2572,
      "검토": 2573,
      "외교": 2574,
      "##리며": 2575,
      "##인트": 2576,
      "카드": 2577,
      "만약": 2578,
      "채널": 2579,
      "펼쳐": 2580,
      "능력": 2581,
      "스트": 2582,
      "케": 2583,
      "데뷔": 2584,
      "##어로": 2585,
      "##함으로써": 2586,
      "웹": 2587,
      "##up": 2588,
      "혼자": 2589,
      "##사일": 2590,
      "he": 2591,
      "봄": 2592,
      "지하": 2593,
      "##우스": 2594,
      "미국의": 2595,
      "인터뷰": 2596,
      "수요": 2597,
      "그냥": 2598,
      "경북": 2599,
      "##als": 2600,
      "사이에": 2601,
      "##진을": 2602,
      "##ether": 2603,
      "00": 2604,
      "만족": 2605,
      "##카오": 2606,
      "포함된": 2607,
      "가입": 2608,
      "앞에서": 2609,
      "문의": 2610,
      "앞에": 2611,
      "장면": 2612,
      "j": 2613,
      "완전히": 2614,
      "몸을": 2615,
      "수소": 2616,
      "울산": 2617,
      "실패": 2618,
      "세종": 2619,
      "##방송": 2620,
      "공유": 2621,
      "유일": 2622,
      "##단은": 2623,
      "정부의": 2624,
      "체결": 2625,
      "##관은": 2626,
      "흡": 2627,
      "약속": 2628,
      "연출": 2629,
      "도로": 2630,
      "##PA": 2631,
      "##질을": 2632,
      "##율이": 2633,
      "군사": 2634,
      "디지털": 2635,
      "##행을": 2636,
      "##지요": 2637,
      "밑": 2638,
      "이들은": 2639,
      "##ary": 2640,
      "##atic": 2641,
      "접근": 2642,
      "년": 2643,
      "개념": 2644,
      "둘러": 2645,
      "##장애": 2646,
      "정보를": 2647,
      "내보": 2648,
      "돈을": 2649,
      "기타": 2650,
      "점을": 2651,
      "##인과": 2652,
      "##소가": 2653,
      "그것을": 2654,
      "프리미": 2655,
      "##평가": 2656,
      "다가": 2657,
      "##ener": 2658,
      "##화된": 2659,
      "리더": 2660,
      "강남": 2661,
      "타고": 2662,
      "com": 2663,
      "꺼": 2664,
      "##시의": 2665,
      "홀": 2666,
      "회의": 2667,
      "저작권": 2668,
      "겸": 2669,
      "##스럽게": 2670,
      "##니아": 2671,
      "##단의": 2672,
      "청와대": 2673,
      "하락": 2674,
      "그녀의": 2675,
      "뒷": 2676,
      "##정으로": 2677,
      "##실에서": 2678,
      "more": 2679,
      "바른": 2680,
      "##ult": 2681,
      "도움이": 2682,
      "향해": 2683,
      "##이션": 2684,
      "비롯해": 2685,
      "##아서": 2686,
      "장기": 2687,
      "##러스": 2688,
      "##겠습니다": 2689,
      "##과학": 2690,
      "일자리": 2691,
      "##하다는": 2692,
      "더불어민주당": 2693,
      "영역": 2694,
      "근로": 2695,
      "배열": 2696,
      "##니스": 2697,
      "코스": 2698,
      "파일을": 2699,
      "##ff": 2700,
      "##구나": 2701,
      "스토": 2702,
      "보이": 2703,
      "38": 2704,
      "만화": 2705,
      "수사": 2706,
      "inter": 2707,
      "수입": 2708,
      "주식": 2709,
      "민주": 2710,
      "강한": 2711,
      "##았던": 2712,
      "##점에서": 2713,
      "##시가": 2714,
      "떠나": 2715,
      "지금까지": 2716,
      "서비스를": 2717,
      "당연": 2718,
      "74": 2719,
      "혁신": 2720,
      "왔다": 2721,
      "없고": 2722,
      "전반": 2723,
      "동일": 2724,
      "이재": 2725,
      "이들": 2726,
      "##달러": 2727,
      "적절": 2728,
      "이것은": 2729,
      "생각을": 2730,
      "훨씬": 2731,
      "##dit": 2732,
      "힘들": 2733,
      "앨범": 2734,
      "중소기업": 2735,
      "##위로": 2736,
      "시대": 2737,
      "예를": 2738,
      "##고는": 2739,
      "똑": 2740,
      "##워크": 2741,
      "눈을": 2742,
      "창업": 2743,
      "겨울": 2744,
      "그럼": 2745,
      "##표에": 2746,
      "가정": 2747,
      "##수로": 2748,
      "다르": 2749,
      "불안": 2750,
      "눈에": 2751,
      "##사에서": 2752,
      "차례": 2753,
      "이르": 2754,
      "유통": 2755,
      "회장": 2756,
      "잊": 2757,
      "##목을": 2758,
      "Im": 2759,
      "겁": 2760,
      "농업": 2761,
      "입장": 2762,
      "##세가": 2763,
      "전화": 2764,
      "##선거": 2765,
      "주인공": 2766,
      "됐": 2767,
      "뿌": 2768,
      "가르": 2769,
      "민간": 2770,
      "2013": 2771,
      "with": 2772,
      "소유": 2773,
      "정부가": 2774,
      "되지": 2775,
      "들고": 2776,
      "##상으로": 2777,
      "##clud": 2778,
      "##협회": 2779,
      "also": 2780,
      "벤": 2781,
      "##이라도": 2782,
      "##씨가": 2783,
      "객": 2784,
      "##관광": 2785,
      "##시킬": 2786,
      "신고": 2787,
      "##호를": 2788,
      "비롯한": 2789,
      "필요가": 2790,
      "한다고": 2791,
      "##단이": 2792,
      "##하나": 2793,
      "사전": 2794,
      "##12": 2795,
      "##ption": 2796,
      "##명은": 2797,
      "300": 2798,
      "케이": 2799,
      "주고": 2800,
      "##원과": 2801,
      "탄소": 2802,
      "##계의": 2803,
      "##님이": 2804,
      "폴": 2805,
      "##했는데": 2806,
      "전남": 2807,
      "##대회": 2808,
      "##무리": 2809,
      "37": 2810,
      "부문": 2811,
      "##어들": 2812,
      "##자에게": 2813,
      "##겠다고": 2814,
      "문학": 2815,
      "그들의": 2816,
      "##ard": 2817,
      "##ures": 2818,
      "건물": 2819,
      "##한국당": 2820,
      "작용": 2821,
      "##해도": 2822,
      "{": 2823,
      "절대": 2824,
      "보니": 2825,
      "중이다": 2826,
      "없었": 2827,
      "바꾸": 2828,
      "의원은": 2829,
      "소통": 2830,
      "##제공": 2831,
      "내부": 2832,
      "##먼트": 2833,
      "의사": 2834,
      "##rom": 2835,
      "##시를": 2836,
      "빠져": 2837,
      "메뉴를": 2838,
      "토론": 2839,
      "##정당": 2840,
      "##퓨터": 2841,
      "rel": 2842,
      "없다는": 2843,
      "사항": 2844,
      "–": 2845,
      "택": 2846,
      "것이었다": 2847,
      "사업을": 2848,
      "지키": 2849,
      "중단": 2850,
      "샤": 2851,
      "생각이": 2852,
      "includ": 2853,
      "앞두고": 2854,
      "밝혀": 2855,
      "인한": 2856,
      "늦": 2857,
      "대회": 2858,
      "탄핵": 2859,
      "나오는": 2860,
      "배치": 2861,
      "제안": 2862,
      "달려": 2863,
      "잠시": 2864,
      "##선이": 2865,
      "##학년": 2866,
      "##cri": 2867,
      "##있다": 2868,
      "거야": 2869,
      "supp": 2870,
      "##ep": 2871,
      "##한다면": 2872,
      "상호": 2873,
      "불구하고": 2874,
      "방침": 2875,
      "##렀다": 2876,
      "하면서": 2877,
      "##당한": 2878,
      "##건설": 2879,
      "##18": 2880,
      "확정": 2881,
      "##회사": 2882,
      "##체의": 2883,
      "##님의": 2884,
      "##ctive": 2885,
      "덧붙였다": 2886,
      "인근": 2887,
      "살펴볼": 2888,
      "조건": 2889,
      "am": 2890,
      "특수": 2891,
      "mod": 2892,
      "##인으로": 2893,
      "##리한": 2894,
      "##경찰": 2895,
      "도전": 2896,
      "갑자기": 2897,
      "##oc": 2898,
      "않으면": 2899,
      "민족": 2900,
      "영상을": 2901,
      "신뢰": 2902,
      "##체가": 2903,
      "연예": 2904,
      "원래": 2905,
      "충분히": 2906,
      "dim": 2907,
      "Q": 2908,
      "명의": 2909,
      "소중한": 2910,
      "종류": 2911,
      "##카드": 2912,
      "##ong": 2913,
      "##월부터": 2914,
      "sur": 2915,
      "##들로": 2916,
      "der": 2917,
      "##군은": 2918,
      "여기에": 2919,
      "이벤트": 2920,
      "보수": 2921,
      "하는데": 2922,
      "기여": 2923,
      "실천": 2924,
      "##formation": 2925,
      "중에": 2926,
      "이익": 2927,
      "운세": 2928,
      "카카오": 2929,
      "자유한국당": 2930,
      "##ast": 2931,
      "그려": 2932,
      "##별로": 2933,
      "마케팅": 2934,
      "홈페이지": 2935,
      "Des": 2936,
      "##아야": 2937,
      "most": 2938,
      "##구는": 2939,
      "해석": 2940,
      "##중앙": 2941,
      "못하는": 2942,
      "뽑": 2943,
      "##ethyl": 2944,
      "배경": 2945,
      "시도": 2946,
      "항공": 2947,
      "종교": 2948,
      "##비가": 2949,
      "##진은": 2950,
      "의혹": 2951,
      "선물": 2952,
      "메이": 2953,
      "월드": 2954,
      "2000": 2955,
      "bel": 2956,
      "90": 2957,
      "듣고": 2958,
      "##듯이": 2959,
      "##이면": 2960,
      "##ess": 2961,
      "##ide": 2962,
      "자리를": 2963,
      "##40": 2964,
      "측은": 2965,
      "저는": 2966,
      "2012": 2967,
      "디자인": 2968,
      "출발": 2969,
      "관심이": 2970,
      "##수소": 2971,
      "##진이": 2972,
      "동물": 2973,
      "둔": 2974,
      "##eta": 2975,
      "굳": 2976,
      "특검": 2977,
      "##위의": 2978,
      "##세대": 2979,
      "고개를": 2980,
      "발언": 2981,
      "시리즈": 2982,
      "##하다고": 2983,
      "생각해": 2984,
      "평창": 2985,
      "##병원": 2986,
      "기회를": 2987,
      "giv": 2988,
      "놀라": 2989,
      "39": 2990,
      "##닷컴": 2991,
      "옵션을": 2992,
      "data": 2993,
      "##가고": 2994,
      "##시험": 2995,
      "불과": 2996,
      "##원자": 2997,
      "가득": 2998,
      "잇": 2999,
      "##니는": 3000,
      "아래와": 3001,
      "There": 3002,
      "##조차": 3003,
      "바탕으로": 3004,
      "처음으로": 3005,
      "##EN": 3006,
      "낮은": 3007,
      "##무원": 3008,
      "##화에": 3009,
      "여러분의": 3010,
      "hold": 3011,
      "##ment": 3012,
      "gener": 3013,
      "##한테": 3014,
      "특정": 3015,
      "짐": 3016,
      "이미지는": 3017,
      "프로젝트": 3018,
      "##점으로": 3019,
      "점검": 3020,
      "원하는": 3021,
      "고통": 3022,
      "##계에": 3023,
      "##ered": 3024,
      "저녁": 3025,
      "달성": 3026,
      "##쪽으로": 3027,
      "복지": 3028,
      "구조는": 3029,
      "제출": 3030,
      "도착": 3031,
      "##년을": 3032,
      "##종의": 3033,
      "##소에": 3034,
      "뿐만": 3035,
      "영어": 3036,
      "쏟": 3037,
      "##arbon": 3038,
      "일은": 3039,
      "##ER": 3040,
      "##rang": 3041,
      "꼬": 3042,
      "엑": 3043,
      "세상": 3044,
      "있다면": 3045,
      "support": 3046,
      "##하고자": 3047,
      "광고": 3048,
      "##우고": 3049,
      "관련해": 3050,
      "##형을": 3051,
      "말해": 3052,
      "##17": 3053,
      "측면": 3054,
      "사용하는": 3055,
      "목적": 3056,
      "##해진": 3057,
      "조정": 3058,
      "범죄": 3059,
      "##무를": 3060,
      "엄청": 3061,
      "길을": 3062,
      "지식": 3063,
      "수원": 3064,
      "##ware": 3065,
      "non": 3066,
      "전북": 3067,
      "지배": 3068,
      "##fac": 3069,
      "섭": 3070,
      "관련된": 3071,
      "매년": 3072,
      "콘텐츠": 3073,
      "걱정": 3074,
      "화학적": 3075,
      "##화의": 3076,
      "##월에": 3077,
      "일단": 3078,
      "Wa": 3079,
      "관찰": 3080,
      "바란다": 3081,
      "##gether": 3082,
      "얘기": 3083,
      "여기서": 3084,
      "상세하게": 3085,
      "완벽": 3086,
      "충남": 3087,
      "알려졌다": 3088,
      "vari": 3089,
      "호텔": 3090,
      "프리미엄": 3091,
      "기울": 3092,
      "之": 3093,
      "##자료": 3094,
      "긍": 3095,
      "그린": 3096,
      "네이버": 3097,
      "김영": 3098,
      "헌법": 3099,
      "피부": 3100,
      "##모형": 3101,
      "##발전": 3102,
      "위치한": 3103,
      "스타일": 3104,
      "##소득": 3105,
      "원칙": 3106,
      "결과를": 3107,
      "model": 3108,
      "大": 3109,
      "대책": 3110,
      "졸업": 3111,
      "information": 3112,
      "고양": 3113,
      "##iled": 3114,
      "##드의": 3115,
      "성격": 3116,
      "##14": 3117,
      "균": 3118,
      "컴퓨터": 3119,
      "나머": 3120,
      "feat": 3121,
      "지원된다": 3122,
      "상황에서": 3123,
      "마무리": 3124,
      "Hyd": 3125,
      "획": 3126,
      "2010": 3127,
      "학습": 3128,
      "원내": 3129,
      "펀": 3130,
      "한국의": 3131,
      "털": 3132,
      "together": 3133,
      "가수": 3134,
      "conne": 3135,
      "표시": 3136,
      "블랙": 3137,
      "##금지": 3138,
      "값": 3139,
      "##명으로": 3140,
      "모형을": 3141,
      "꾸준": 3142,
      "##ant": 3143,
      "##전문": 3144,
      "아름다운": 3145,
      "회원": 3146,
      "파일로": 3147,
      "오랜": 3148,
      "자랑": 3149,
      "쳐": 3150,
      "##테인": 3151,
      "pack": 3152,
      "든": 3153,
      "##럴드": 3154,
      "도움을": 3155,
      "Van": 3156,
      "##간에": 3157,
      "##이라면": 3158,
      "벌어": 3159,
      "지속적으로": 3160,
      "##인들이": 3161,
      "##간다": 3162,
      "##로를": 3163,
      "##ctivity": 3164,
      "image": 3165,
      "후에": 3166,
      "##bserv": 3167,
      "그것이": 3168,
      "various": 3169,
      "창출": 3170,
      "related": 3171,
      "충북": 3172,
      "오픈": 3173,
      "반복": 3174,
      "심각": 3175,
      "법률": 3176,
      "시각화": 3177,
      "##ordin": 3178,
      "꼽": 3179,
      "##시대": 3180,
      "##ftware": 3181,
      "##cription": 3182,
      "여의": 3183,
      "arrang": 3184,
      "given": 3185,
      "내보내는": 3186,
      "인상": 3187,
      "초기": 3188,
      "##받은": 3189,
      "전년": 3190,
      "##active": 3191,
      "단독": 3192,
      "AI": 3193,
      "작가": 3194,
      "원자의": 3195,
      "걷": 3196,
      "##ditional": 3197,
      "공정": 3198,
      "채용": 3199,
      "observ": 3200,
      "##겠지만": 3201,
      "맞는": 3202,
      "효율": 3203,
      "통과": 3204,
      "개정": 3205,
      "위하여": 3206,
      "##예술": 3207,
      "이유는": 3208,
      "generation": 3209,
      "##력과": 3210,
      "##15": 3211,
      "##년생": 3212,
      "소방": 3213,
      "surfac": 3214,
      "의견을": 3215,
      "결정된다": 3216,
      "##연합": 3217,
      "끌어": 3218,
      "##군이": 3219,
      "에서는": 3220,
      "##ive": 3221,
      "Carbon": 3222,
      "below": 3223,
      "##리오": 3224,
      "features": 3225,
      "Structure": 3226,
      "includes": 3227,
      "문제는": 3228,
      "##AN": 3229,
      "arrangement": 3230,
      "##유의": 3231,
      "Images": 3232,
      "zo": 3233,
      "##지면서": 3234,
      "데르": 3235,
      "software": 3236,
      "하이": 3237,
      "상담": 3238,
      "사용할": 3239,
      "분자는": 3240,
      "##16": 3241,
      "했지만": 3242,
      "coordin": 3243,
      "부여": 3244,
      "비밀": 3245,
      "국립": 3246,
      "files": 3247,
      "연결성": 3248,
      "헬": 3249,
      "deta": 3250,
      "Description": 3251,
      "수술": 3252,
      "##낸다": 3253,
      "supported": 3254,
      "캡": 3255,
      "반응형": 3256,
      "배열과": 3257,
      "사드": 3258,
      "##시스템": 3259,
      "분자구조": 3260,
      "rotation": 3261,
      "dimens": 3262,
      "detailed": 3263,
      "##lecular": 3264,
      "명령": 3265,
      "Additional": 3266,
      "##하려는": 3267,
      "observation": 3268,
      "Molecular": 3269,
      "발스": 3270,
      "packages": 3271,
      "##도와": 3272,
      "interactive": 3273,
      "단지": 3274,
      "•": 3275,
      "소프트웨어에서": 3276,
      "connectivity": 3277,
      "chemistry": 3278,
      "##피언": 3279,
      "zoom": 3280,
      "좌표에": 3281,
      "##전에서": 3282,
      "원자들": 3283,
      "dimensional": 3284,
      "스페": 3285,
      "surfaces": 3286,
      "정부는": 3287,
      "Visualization": 3288,
      "coordinates": 3289,
      "Waals": 3290,
      "분자에는": 3291,
      "화학결합이": 3292,
      "화학결합으로": 3293,
      "##수소결합": 3294,
      "분자모형": 3295,
      "깊은": 3296,
      "비수소결합": 3297,
      "생각한다": 3298,
      "##는가": 3299,
      "화제": 3300,
      "멋": 3301,
      "##지게": 3302,
      "근거": 3303,
      "##년까지": 3304,
      "Hydrogen": 3305,
      "전개": 3306,
      "it": 3307,
      "맹": 3308,
      "투입": 3309,
      "##해주": 3310,
      "추천": 3311,
      "##난다": 3312,
      "memb": 3313,
      "머리": 3314,
      "##에선": 3315,
      "관객": 3316,
      "태양": 3317,
      "조합": 3318,
      "##트의": 3319,
      "주도": 3320,
      "새로": 3321,
      "##25": 3322,
      "웨": 3323,
      "불법": 3324,
      "정리": 3325,
      "공부": 3326,
      "셈": 3327,
      "바뀌": 3328,
      "상황을": 3329,
      "##계가": 3330,
      "걸쳐": 3331,
      "빨리": 3332,
      "강력한": 3333,
      "##만으로": 3334,
      "마음이": 3335,
      "소득": 3336,
      "이데일리": 3337,
      "##보기": 3338,
      "##식품": 3339,
      "위협": 3340,
      "##심히": 3341,
      "사상": 3342,
      "자아": 3343,
      "있으므로": 3344,
      "하게": 3345,
      "싫": 3346,
      "##작용": 3347,
      "##챔피언": 3348,
      "인간의": 3349,
      "##문학": 3350,
      "뉴욕": 3351,
      "대출": 3352,
      "##ect": 3353,
      "비중": 3354,
      "척": 3355,
      "정규": 3356,
      "##사고": 3357,
      "셀": 3358,
      "그리스": 3359,
      "##해를": 3360,
      "##경을": 3361,
      "취업": 3362,
      "##트워크": 3363,
      "##ear": 3364,
      "##선의": 3365,
      "실행": 3366,
      "놓고": 3367,
      "##든지": 3368,
      "##협의": 3369,
      "##ST": 3370,
      "##만화": 3371,
      "했던": 3372,
      "일어": 3373,
      "전용": 3374,
      "##전이": 3375,
      "##if": 3376,
      "잡아": 3377,
      "자본": 3378,
      "기준으로": 3379,
      "##플레이": 3380,
      "##지기": 3381,
      "##반응": 3382,
      "##많은": 3383,
      "때까지": 3384,
      "나선": 3385,
      "##스토": 3386,
      "부회": 3387,
      "##프라": 3388,
      "Kore": 3389,
      "느껴": 3390,
      "나왔다": 3391,
      "포토": 3392,
      "##시키고": 3393,
      "##었습니다": 3394,
      "##자치": 3395,
      "국회의": 3396,
      "컬": 3397,
      "##율은": 3398,
      "투표": 3399,
      "##하겠습니다": 3400,
      "근무": 3401,
      "첨": 3402,
      "곤": 3403,
      "##언론": 3404,
      "##되기": 3405,
      "바른정당": 3406,
      "합의": 3407,
      "##보았다": 3408,
      "de": 3409,
      "비슷한": 3410,
      "특별한": 3411,
      "상징": 3412,
      "이유로": 3413,
      "아울": 3414,
      "##제에": 3415,
      "뛰어": 3416,
      "칭": 3417,
      "##ok": 3418,
      "외국인": 3419,
      "##습니까": 3420,
      "검사": 3421,
      "후반": 3422,
      "들었다": 3423,
      "메시": 3424,
      "갤": 3425,
      "##구에": 3426,
      "위로": 3427,
      "##13": 3428,
      "상당히": 3429,
      "EPA": 3430,
      "국방": 3431,
      "통신": 3432,
      "##리어": 3433,
      "##일까": 3434,
      "##기준": 3435,
      "최초로": 3436,
      "◇": 3437,
      "방법을": 3438,
      "열리는": 3439,
      "##기능": 3440,
      "##께서": 3441,
      "화장": 3442,
      "##og": 3443,
      "##스코": 3444,
      "제거": 3445,
      "##스테": 3446,
      "##소는": 3447,
      "##어버": 3448,
      "##론을": 3449,
      "갈등": 3450,
      "눈길을": 3451,
      "##률이": 3452,
      "추정": 3453,
      "밥": 3454,
      "##atable": 3455,
      "앞으로도": 3456,
      "싶다": 3457,
      "보건": 3458,
      "차별": 3459,
      "##제품": 3460,
      "단일결합": 3461,
      "할인": 3462,
      "rotatable": 3463,
      "##ans": 3464,
      "아프": 3465,
      "##IA": 3466,
      "##일이": 3467,
      "##놓고": 3468,
      "누가": 3469,
      "##율을": 3470,
      "##음이": 3471,
      "##ra": 3472,
      "공모": 3473,
      "48": 3474,
      "것이라는": 3475,
      "혜택": 3476,
      "효과를": 3477,
      "긍정": 3478,
      "기록했다": 3479,
      "##ial": 3480,
      "분양": 3481,
      "##다른": 3482,
      "##려면": 3483,
      "##력은": 3484,
      "발굴": 3485,
      "소녀": 3486,
      "설계": 3487,
      "식품": 3488,
      "##라운드": 3489,
      "##았고": 3490,
      "55": 3491,
      "제도": 3492,
      "##문이": 3493,
      "씨는": 3494,
      "자녀": 3495,
      "##교통": 3496,
      "참석한": 3497,
      "##부와": 3498,
      "이탈": 3499,
      "멈": 3500,
      "아들": 3501,
      "형성된다": 3502,
      "숲": 3503,
      "##드가": 3504,
      "##게임": 3505,
      "##뿐만": 3506,
      "##금이": 3507,
      "포항": 3508,
      "JT": 3509,
      "일정": 3510,
      "늘어": 3511,
      "상대로": 3512,
      "42": 3513,
      "따뜻": 3514,
      "정기": 3515,
      "44": 3516,
      "권한": 3517,
      "구분": 3518,
      "임상": 3519,
      "개혁": 3520,
      "사람들": 3521,
      "열고": 3522,
      "활성화": 3523,
      "연습": 3524,
      "##안에": 3525,
      "포함한": 3526,
      "리그": 3527,
      "득": 3528,
      "##드로": 3529,
      "방송된": 3530,
      "##년에는": 3531,
      "모집": 3532,
      "##바이": 3533,
      "모아": 3534,
      "##메라": 3535,
      "곳에": 3536,
      "##ue": 3537,
      "슈퍼": 3538,
      "##문의": 3539,
      "연계": 3540,
      "미리": 3541,
      "입장을": 3542,
      "##말로": 3543,
      "생명": 3544,
      "##만한": 3545,
      "삶을": 3546,
      "가서": 3547,
      "실험": 3548,
      "선언": 3549,
      "있으면": 3550,
      "칠": 3551,
      "소화": 3552,
      "궁금": 3553,
      "수많은": 3554,
      "뒤에": 3555,
      "부탁": 3556,
      "##단계": 3557,
      "불편": 3558,
      "과정을": 3559,
      "##드라마": 3560,
      "맞춰": 3561,
      "동의": 3562,
      "##이기도": 3563,
      "열렸다": 3564,
      "맑": 3565,
      "##end": 3566,
      "##즈를": 3567,
      "호흡": 3568,
      "##60": 3569,
      "대로": 3570,
      "KT": 3571,
      "사랑을": 3572,
      "##쪽에": 3573,
      "##터테인": 3574,
      "ex": 3575,
      "##호가": 3576,
      "##나가": 3577,
      "##아요": 3578,
      "qu": 3579,
      "or": 3580,
      "불가능": 3581,
      "위반": 3582,
      "##치지": 3583,
      "##ies": 3584,
      "##가에": 3585,
      "저작권자": 3586,
      "나온다": 3587,
      "김정": 3588,
      "점에서": 3589,
      "ring": 3590,
      "##동차": 3591,
      "##und": 3592,
      "le": 3593,
      "##량은": 3594,
      "참석해": 3595,
      "아버지": 3596,
      "흔들": 3597,
      "이른": 3598,
      "말하는": 3599,
      "두려": 3600,
      "이내": 3601,
      "아울러": 3602,
      "이란": 3603,
      "##hen": 3604,
      "##연을": 3605,
      "출전": 3606,
      "안내": 3607,
      "서울시": 3608,
      "##경영": 3609,
      "##어는": 3610,
      "철저": 3611,
      "다이": 3612,
      "갖추": 3613,
      "JTBC": 3614,
      "사람들의": 3615,
      "##생을": 3616,
      "##이로": 3617,
      "최선을": 3618,
      "프레": 3619,
      "##권의": 3620,
      "##재를": 3621,
      "만한": 3622,
      "membered": 3623,
      "아는": 3624,
      "비즈": 3625,
      "##트가": 3626,
      "커피": 3627,
      "##만에": 3628,
      "없다고": 3629,
      "2011": 3630,
      "지역의": 3631,
      "있어야": 3632,
      "열심히": 3633,
      "##력의": 3634,
      "##대책": 3635,
      "등은": 3636,
      "점점": 3637,
      "##미를": 3638,
      "유치": 3639,
      "##서가": 3640,
      "##점은": 3641,
      "##적이다": 3642,
      "프로그램을": 3643,
      "외부": 3644,
      "##크로": 3645,
      "중국의": 3646,
      "##에만": 3647,
      "앉아": 3648,
      "벗어나": 3649,
      "194": 3650,
      "보이고": 3651,
      "까지": 3652,
      "##지면": 3653,
      "대하여": 3654,
      "돕": 3655,
      "##억원을": 3656,
      "진짜": 3657,
      "지금은": 3658,
      "본문": 3659,
      "##비는": 3660,
      "##스티": 3661,
      "##ice": 3662,
      "이외": 3663,
      "책을": 3664,
      "화면": 3665,
      "널": 3666,
      "끝에": 3667,
      "ch": 3668,
      "그래도": 3669,
      "you": 3670,
      "##안이": 3671,
      "말고": 3672,
      "편의": 3673,
      "구입": 3674,
      "말에": 3675,
      "간단": 3676,
      "남성": 3677,
      "##부장": 3678,
      "##방을": 3679,
      "##시켰다": 3680,
      "##을까": 3681,
      "##all": 3682,
      "##받고": 3683,
      "십": 3684,
      "진행된": 3685,
      "민주당": 3686,
      "##점에": 3687,
      "융": 3688,
      "##화는": 3689,
      "195": 3690,
      "人": 3691,
      "빠른": 3692,
      "##민의": 3693,
      "흐름": 3694,
      "##식으로": 3695,
      "##ab": 3696,
      "##가락": 3697,
      "##사한": 3698,
      "몽": 3699,
      "알게": 3700,
      "##ight": 3701,
      "만들기": 3702,
      "고리": 3703,
      "##km": 3704,
      "##호는": 3705,
      "증거": 3706,
      "도와": 3707,
      "북한의": 3708,
      "보장": 3709,
      "생긴": 3710,
      "인공": 3711,
      "##one": 3712,
      "##청은": 3713,
      "스마트폰": 3714,
      "확인할": 3715,
      "주제로": 3716,
      "아빠": 3717,
      "##받는": 3718,
      "##노동": 3719,
      "베이": 3720,
      "아무리": 3721,
      "文": 3722,
      "##역을": 3723,
      "##자들에게": 3724,
      "##아이": 3725,
      "##소의": 3726,
      "아니면": 3727,
      "①": 3728,
      "##23": 3729,
      "##인에": 3730,
      "43": 3731,
      "직업": 3732,
      "나도": 3733,
      "##전의": 3734,
      "실현": 3735,
      "물었다": 3736,
      "브라": 3737,
      "나머지": 3738,
      "오늘의": 3739,
      "통일": 3740,
      "그곳": 3741,
      "##대에서": 3742,
      "수용": 3743,
      "게다가": 3744,
      "##xy": 3745,
      "뭔": 3746,
      "이승": 3747,
      "규정": 3748,
      "끝나": 3749,
      "예능": 3750,
      "##대상": 3751,
      "지구": 3752,
      "\\": 3753,
      "포기": 3754,
      "제일": 3755,
      "크리스": 3756,
      "쓰는": 3757,
      "삶의": 3758,
      "여의도": 3759,
      "주장했다": 3760,
      "##식에": 3761,
      "##서관": 3762,
      "새롭게": 3763,
      "안타": 3764,
      "마법": 3765,
      "이번에": 3766,
      "저장": 3767,
      "구독": 3768,
      "낭": 3769,
      "않도록": 3770,
      "춘": 3771,
      "활약": 3772,
      "세상을": 3773,
      "대변": 3774,
      "##석이": 3775,
      "##항공": 3776,
      "##스에": 3777,
      "사실상": 3778,
      "아동": 3779,
      "짜": 3780,
      "마침": 3781,
      "##식은": 3782,
      "##학적": 3783,
      "마찬가지로": 3784,
      "붉": 3785,
      "정당": 3786,
      "사진을": 3787,
      "명이": 3788,
      "##리스트": 3789,
      "의미를": 3790,
      "##리게": 3791,
      "전망이다": 3792,
      "이처럼": 3793,
      "주관": 3794,
      "##보자": 3795,
      "아니었다": 3796,
      "챔피언": 3797,
      "쌍": 3798,
      "확산": 3799,
      "sh": 3800,
      "다소": 3801,
      "##트남": 3802,
      "향상": 3803,
      "때마다": 3804,
      "많아": 3805,
      "얼굴을": 3806,
      "누군": 3807,
      "축구": 3808,
      "##류를": 3809,
      "클래": 3810,
      "파이": 3811,
      "##질이": 3812,
      "가까운": 3813,
      "김성": 3814,
      "부르": 3815,
      "말이다": 3816,
      "쏟아": 3817,
      "##차가": 3818,
      "동료": 3819,
      "감독은": 3820,
      "##IN": 3821,
      "##시즌": 3822,
      "초반": 3823,
      "기업의": 3824,
      "혐의로": 3825,
      "국토": 3826,
      "의심": 3827,
      "만들었다": 3828,
      "##80": 3829,
      "##국이": 3830,
      "그들이": 3831,
      "from": 3832,
      "됩니다": 3833,
      "바닥": 3834,
      "평화": 3835,
      "##보를": 3836,
      "##예요": 3837,
      "##과정": 3838,
      "기술을": 3839,
      "##량의": 3840,
      "인수": 3841,
      "이용해": 3842,
      "##랫폼": 3843,
      "##조를": 3844,
      "##조합": 3845,
      "집에": 3846,
      "이정": 3847,
      "입을": 3848,
      "##영화": 3849,
      "##진흥": 3850,
      "승리": 3851,
      "##텔레": 3852,
      "방식으로": 3853,
      "오른쪽": 3854,
      "봤": 3855,
      "##이었던": 3856,
      "거부": 3857,
      "재정": 3858,
      "사장": 3859,
      "모여": 3860,
      "서울경제": 3861,
      "심리": 3862,
      "이웃": 3863,
      "완료": 3864,
      "무엇보다": 3865,
      "상처": 3866,
      "##시고": 3867,
      "골프": 3868,
      "##했으나": 3869,
      "부인": 3870,
      "##iple": 3871,
      "##지에서": 3872,
      "##단에": 3873,
      "지원을": 3874,
      "전날": 3875,
      "##력으로": 3876,
      "◆": 3877,
      "낳": 3878,
      "Se": 3879,
      "IT": 3880,
      "##파크": 3881,
      "당신이": 3882,
      "##거든": 3883,
      "##석은": 3884,
      "어깨": 3885,
      "##뮤니": 3886,
      "딱": 3887,
      "##키는": 3888,
      "괜": 3889,
      "##남도": 3890,
      "맞춤": 3891,
      "##ave": 3892,
      "1000": 3893,
      "사과": 3894,
      "mult": 3895,
      "가로": 3896,
      "발달": 3897,
      "모르는": 3898,
      "관광객": 3899,
      "##식의": 3900,
      "##증이": 3901,
      "이론": 3902,
      "##명한": 3903,
      "인스타": 3904,
      "子": 3905,
      "길이": 3906,
      "##공원": 3907,
      "##ian": 3908,
      "Z": 3909,
      "밖에": 3910,
      "이슈": 3911,
      "띄": 3912,
      "분류": 3913,
      "한반": 3914,
      "##올림픽": 3915,
      "결코": 3916,
      "65": 3917,
      "유리": 3918,
      "취임": 3919,
      "##ix": 3920,
      "예측": 3921,
      "##ie": 3922,
      "보관": 3923,
      "소리를": 3924,
      "규모의": 3925,
      "보이지": 3926,
      "##티브": 3927,
      "그러면서": 3928,
      "복용": 3929,
      "발매": 3930,
      "누구나": 3931,
      "중에서": 3932,
      "##서에": 3933,
      "죽음": 3934,
      "보여주": 3935,
      "유도": 3936,
      "##ther": 3937,
      "##산의": 3938,
      "시작으로": 3939,
      "##테크": 3940,
      "챙": 3941,
      "##와는": 3942,
      "##신이": 3943,
      "뜻을": 3944,
      "##률을": 3945,
      "극복": 3946,
      "등과": 3947,
      "허용": 3948,
      "발생한": 3949,
      "문을": 3950,
      "〉": 3951,
      "나갈": 3952,
      "상상": 3953,
      "만들고": 3954,
      "먹고": 3955,
      "##인들의": 3956,
      "신용": 3957,
      "약간": 3958,
      "관계를": 3959,
      "높이": 3960,
      "듯한": 3961,
      "자극": 3962,
      "##년이": 3963,
      "##cm": 3964,
      "하자": 3965,
      "최저": 3966,
      "山": 3967,
      "탁": 3968,
      "베트남": 3969,
      "②": 3970,
      "##22": 3971,
      "거듭": 3972,
      "센": 3973,
      "봉사": 3974,
      "##회견": 3975,
      "연장": 3976,
      "##ov": 3977,
      "폭발": 3978,
      "##산물": 3979,
      "쫓": 3980,
      "주거": 3981,
      "##자들을": 3982,
      "파괴": 3983,
      "시작한": 3984,
      "사태": 3985,
      "당부": 3986,
      "##활동을": 3987,
      "●": 3988,
      "계산": 3989,
      "글을": 3990,
      "떠올": 3991,
      "##uring": 3992,
      "일상": 3993,
      "，": 3994,
      "##액은": 3995,
      "협의": 3996,
      "운전": 3997,
      "이래": 3998,
      "상황이": 3999,
      "내놓": 4000,
      "찾는": 4001,
      "사로": 4002,
      "뛰어난": 4003,
      "신문": 4004,
      "##신청": 4005,
      "##금은": 4006,
      "##년의": 4007,
      "걸어": 4008,
      "##제와": 4009,
      "효과가": 4010,
      "평소": 4011,
      "##대행": 4012,
      "앱": 4013,
      "원내대표": 4014,
      "49": 4015,
      "흘러": 4016,
      "■": 4017,
      "참조": 4018,
      "끈": 4019,
      "그럴": 4020,
      "언어": 4021,
      "이것이": 4022,
      "multiple": 4023,
      "##조건": 4024,
      "흉": 4025,
      "거짓": 4026,
      "대단": 4027,
      "##자원": 4028,
      "남은": 4029,
      "살고": 4030,
      "조절": 4031,
      "##인터": 4032,
      "올려": 4033,
      "##었지만": 4034,
      "받아들": 4035,
      "적극적으로": 4036,
      "##ee": 4037,
      "실적": 4038,
      "네트워크": 4039,
      "##였고": 4040,
      "아르": 4041,
      "##타임": 4042,
      "여러분": 4043,
      "확장": 4044,
      "능력을": 4045,
      "판단되는": 4046,
      "현지시간": 4047,
      "있는지": 4048,
      "물리": 4049,
      "들여": 4050,
      "2008": 4051,
      "체계": 4052,
      "영업이익": 4053,
      "적은": 4054,
      "##OP": 4055,
      "거주": 4056,
      "검은": 4057,
      "창조": 4058,
      "75": 4059,
      "임대": 4060,
      "주말": 4061,
      "##석을": 4062,
      "400": 4063,
      "46": 4064,
      "해양": 4065,
      "비행": 4066,
      "제공하는": 4067,
      "##oun": 4068,
      "최순": 4069,
      "x": 4070,
      "놈": 4071,
      "오르": 4072,
      "임명": 4073,
      "##드러": 4074,
      "나섰다": 4075,
      "##북도": 4076,
      "기자회견": 4077,
      "##진의": 4078,
      "화재": 4079,
      "인증": 4080,
      "##까지는": 4081,
      "앵": 4082,
      "중요하다": 4083,
      "##표를": 4084,
      "런": 4085,
      "한화": 4086,
      "자율": 4087,
      "김현": 4088,
      "열어": 4089,
      "다중결합": 4090,
      "##전략": 4091,
      "US": 4092,
      "##ign": 4093,
      "않게": 4094,
      "우주": 4095,
      "거기": 4096,
      "##하려고": 4097,
      "##권이": 4098,
      "이로": 4099,
      "계열": 4100,
      "편집": 4101,
      "##터테인먼트": 4102,
      "##국은": 4103,
      "##구역": 4104,
      "굉": 4105,
      "〈": 4106,
      "이달": 4107,
      "입고": 4108,
      "김동": 4109,
      "##ell": 4110,
      "웃음을": 4111,
      "대규모": 4112,
      "##주시면": 4113,
      "빠르게": 4114,
      "화려": 4115,
      "인스타그램": 4116,
      "##AR": 4117,
      "나이": 4118,
      "후보는": 4119,
      "2007": 4120,
      "##님은": 4121,
      "그만": 4122,
      "##철수": 4123,
      "나타날": 4124,
      "묵": 4125,
      "시는": 4126,
      "역대": 4127,
      "acid": 4128,
      "방어": 4129,
      "##상품": 4130,
      "탓": 4131,
      "돌아가": 4132,
      "넥": 4133,
      "##ll": 4134,
      "로봇": 4135,
      "대표적인": 4136,
      "##모를": 4137,
      "흰": 4138,
      "말은": 4139,
      "깜": 4140,
      "발행": 4141,
      "##함이": 4142,
      "##뱅크": 4143,
      "제품을": 4144,
      "미술": 4145,
      "일반적으로": 4146,
      "##치의": 4147,
      "복잡": 4148,
      "##방법": 4149,
      "생각하는": 4150,
      "##액을": 4151,
      "임시": 4152,
      "수립": 4153,
      "개봉": 4154,
      "47": 4155,
      "중간": 4156,
      "가리": 4157,
      "꾸준히": 4158,
      "쥐": 4159,
      "경향": 4160,
      "##재단": 4161,
      "선고": 4162,
      "미니": 4163,
      "##히고": 4164,
      "##ex": 4165,
      "완전": 4166,
      "사로잡": 4167,
      "##약품": 4168,
      "요즘": 4169,
      "아직도": 4170,
      "찰": 4171,
      "##ON": 4172,
      "tr": 4173,
      "무시": 4174,
      "실시간": 4175,
      "정치적": 4176,
      "정도의": 4177,
      "발휘": 4178,
      "안보": 4179,
      "##서의": 4180,
      "병원": 4181,
      "감염": 4182,
      "자격": 4183,
      "##면을": 4184,
      "그녀가": 4185,
      "세상의": 4186,
      "##차례": 4187,
      "##지어": 4188,
      "경우는": 4189,
      "##ust": 4190,
      "노인": 4191,
      "##mm": 4192,
      "##결과": 4193,
      "힘이": 4194,
      "시기": 4195,
      "어찌": 4196,
      "그렇지": 4197,
      "자산": 4198,
      "알려져": 4199,
      "##었는데": 4200,
      "증권": 4201,
      "##선은": 4202,
      "##조정": 4203,
      "##보니": 4204,
      "차이가": 4205,
      "다섯": 4206,
      "##자들": 4207,
      "경우도": 4208,
      "병용": 4209,
      "##승을": 4210,
      "##수와": 4211,
      "못할": 4212,
      "##스에서": 4213,
      "자세한": 4214,
      "##분야": 4215,
      "##비아": 4216,
      "자원": 4217,
      "##소로": 4218,
      "##심이": 4219,
      "의무": 4220,
      "썼": 4221,
      "지적했다": 4222,
      "것인가": 4223,
      "맞추": 4224,
      "육성": 4225,
      "에이": 4226,
      "디자": 4227,
      "##어져": 4228,
      "최순실": 4229,
      "덜": 4230,
      "##만원을": 4231,
      "김종": 4232,
      "세월호": 4233,
      "돌려": 4234,
      "노력을": 4235,
      "즐길": 4236,
      "721": 4237,
      "무기": 4238,
      "숫": 4239,
      "##대전": 4240,
      "##TN": 4241,
      "기계": 4242,
      "아닐": 4243,
      "미사일": 4244,
      "##씨의": 4245,
      "과연": 4246,
      "##하겠다는": 4247,
      "##제도": 4248,
      "카메라": 4249,
      "공개했다": 4250,
      "올림픽": 4251,
      "Th": 4252,
      "애플": 4253,
      "##영은": 4254,
      "둥": 4255,
      "창원": 4256,
      "패션": 4257,
      "벼": 4258,
      "섭취": 4259,
      "커뮤니": 4260,
      "센터": 4261,
      "##부문": 4262,
      "당신의": 4263,
      "직장": 4264,
      "##학을": 4265,
      "##지구": 4266,
      "##가로": 4267,
      "있었고": 4268,
      "로마": 4269,
      "##체는": 4270,
      "##se": 4271,
      "내일": 4272,
      "아이디어": 4273,
      "가치나": 4274,
      "##아버": 4275,
      "조용": 4276,
      "##받습니다": 4277,
      "관람": 4278,
      "활발": 4279,
      "해소": 4280,
      "상관": 4281,
      "tv": 4282,
      "##형의": 4283,
      "※": 4284,
      "미세": 4285,
      "어울": 4286,
      "초청": 4287,
      "영양": 4288,
      "##단지": 4289,
      "fn": 4290,
      "##omatic": 4291,
      "비난": 4292,
      "##동의": 4293,
      "2009": 4294,
      "거리": 4295,
      "##주로": 4296,
      "야구": 4297,
      "교수는": 4298,
      "##말을": 4299,
      "받지": 4300,
      "표준": 4301,
      "벨": 4302,
      "힐": 4303,
      "뮤지": 4304,
      "##질환": 4305,
      "머리를": 4306,
      "갔": 4307,
      "##ork": 4308,
      "이들의": 4309,
      "##동아": 4310,
      "##FC": 4311,
      "훌륭": 4312,
      "물을": 4313,
      "주가": 4314,
      "보내주시면": 4315,
      "화제성이": 4316,
      "피해를": 4317,
      "##주민": 4318,
      "있을까": 4319,
      "분노": 4320,
      "150": 4321,
      "업계": 4322,
      "말할": 4323,
      "감정": 4324,
      "##ions": 4325,
      "김민": 4326,
      "깔": 4327,
      "##치게": 4328,
      "충청": 4329,
      "높다": 4330,
      "한미": 4331,
      "##소에서": 4332,
      "##르크": 4333,
      "뉴시스가": 4334,
      "##바로": 4335,
      "##지며": 4336,
      "담은": 4337,
      "##판을": 4338,
      "7470": 4339,
      "안에서": 4340,
      "반영하겠습니다": 4341,
      "대기": 4342,
      "공감언론": 4343,
      "쌀": 4344,
      "제보받습니다": 4345,
      "##명에": 4346,
      "中": 4347,
      "플랫폼": 4348,
      "국무": 4349,
      "오늘날": 4350,
      "주문": 4351,
      "##PG": 4352,
      "자체가": 4353,
      "그게": 4354,
      "끄": 4355,
      "얻을": 4356,
      "일본의": 4357,
      "##하였고": 4358,
      "삼성전자": 4359,
      "경기를": 4360,
      "##면에": 4361,
      "##ik": 4362,
      "193": 4363,
      "입력": 4364,
      "싶어": 4365,
      "가을": 4366,
      "during": 4367,
      "넘는": 4368,
      "##라우": 4369,
      "무역": 4370,
      "변화를": 4371,
      "아이템": 4372,
      "돌파": 4373,
      "준다": 4374,
      "힘든": 4375,
      "실질": 4376,
      "was": 4377,
      "집행": 4378,
      "##공항": 4379,
      "##속도로": 4380,
      "##효과": 4381,
      "핀": 4382,
      "에는": 4383,
      "##투여": 4384,
      "##하이": 4385,
      "##ark": 4386,
      "지상": 4387,
      "분리": 4388,
      "##사람": 4389,
      "가치를": 4390,
      "##기지": 4391,
      "##ber": 4392,
      "맞이": 4393,
      "그러한": 4394,
      "모두가": 4395,
      "띠": 4396,
      "파트": 4397,
      "##ame": 4398,
      "굉장": 4399,
      "적절한": 4400,
      "엄청난": 4401,
      "두산": 4402,
      "받았": 4403,
      "##비용": 4404,
      "53": 4405,
      "##다니": 4406,
      "반응을": 4407,
      "##치로": 4408,
      "다루": 4409,
      "지닌": 4410,
      "약물": 4411,
      "##시티": 4412,
      "만난": 4413,
      "낸": 4414,
      "쓰고": 4415,
      "임금": 4416,
      "촉구": 4417,
      "좁": 4418,
      "고정": 4419,
      "비상": 4420,
      "이탈리아": 4421,
      "유명한": 4422,
      "##기획": 4423,
      "→": 4424,
      "경상": 4425,
      "Re": 4426,
      "방향족": 4427,
      "##수한": 4428,
      "회장은": 4429,
      "##질의": 4430,
      "측정": 4431,
      "##선수": 4432,
      "겁니다": 4433,
      "같았다": 4434,
      "가까이": 4435,
      "제공한다": 4436,
      "몬": 4437,
      "등에서": 4438,
      "없습니다": 4439,
      "그렇다면": 4440,
      "하나로": 4441,
      "##치면": 4442,
      "자리에서": 4443,
      "##하니": 4444,
      "수정": 4445,
      "##90": 4446,
      "##했기": 4447,
      "방침이다": 4448,
      "차단": 4449,
      "##보호": 4450,
      "연간": 4451,
      "빚": 4452,
      "##신의": 4453,
      "애니": 4454,
      "Copyrights": 4455,
      "획득": 4456,
      "발표했다": 4457,
      "보안": 4458,
      "어떠": 4459,
      "생태": 4460,
      "2006": 4461,
      "삭": 4462,
      "##조의": 4463,
      "##협력": 4464,
      "특성": 4465,
      "계획을": 4466,
      "##군요": 4467,
      "##리라": 4468,
      "##계약": 4469,
      "취재": 4470,
      "들려": 4471,
      "aromatic": 4472,
      "추구": 4473,
      "방안을": 4474,
      "##마저": 4475,
      "##직원": 4476,
      "##봉사": 4477,
      "##이사": 4478,
      "잡고": 4479,
      "##발을": 4480,
      "성능": 4481,
      "52": 4482,
      "복합": 4483,
      "캠페": 4484,
      "모른다": 4485,
      "그러면": 4486,
      "당신은": 4487,
      "원을": 4488,
      "농촌": 4489,
      "##TA": 4490,
      "##당을": 4491,
      "##하면서도": 4492,
      "신속": 4493,
      "텐": 4494,
      "##사무": 4495,
      "언제나": 4496,
      "정확한": 4497,
      "새벽": 4498,
      "##일간": 4499,
      "##포를": 4500,
      "##당이": 4501,
      "##각을": 4502,
      "##률은": 4503,
      "##러분의": 4504,
      "##상태": 4505,
      "고령": 4506,
      "동반": 4507,
      "생존": 4508,
      "꽤": 4509,
      "예고": 4510,
      "소비자": 4511,
      "News": 4512,
      "성과를": 4513,
      "예비": 4514,
      "교육을": 4515,
      "##직한": 4516,
      "출범": 4517,
      "##수도": 4518,
      "라인": 4519,
      "명예": 4520,
      "엉": 4521,
      "國": 4522,
      "##줬다": 4523,
      "##ED": 4524,
      "전부": 4525,
      "뚜": 4526,
      "IC": 4527,
      "신설": 4528,
      "공사": 4529,
      "희생": 4530,
      "##mg": 4531,
      "##가구": 4532,
      "##데이터": 4533,
      "긴장": 4534,
      "비록": 4535,
      "##ass": 4536,
      "상위": 4537,
      "내용은": 4538,
      "물러": 4539,
      "##IC": 4540,
      "사람들을": 4541,
      "있으나": 4542,
      "안철수": 4543,
      "늘어나": 4544,
      "앤": 4545,
      "포인트": 4546,
      "약을": 4547,
      "##화와": 4548,
      "들이": 4549,
      "내게": 4550,
      "대사": 4551,
      "머물": 4552,
      "##OR": 4553,
      "풍부": 4554,
      "##성장": 4555,
      "一": 4556,
      "##트리": 4557,
      "항목": 4558,
      "지시": 4559,
      "탄생": 4560,
      "방안": 4561,
      "강원도": 4562,
      "할머니": 4563,
      "집단": 4564,
      "##었을": 4565,
      "그에": 4566,
      "##님을": 4567,
      "##부모": 4568,
      "눈이": 4569,
      "쇼핑": 4570,
      "산업혁": 4571,
      "일이다": 4572,
      "##술을": 4573,
      "갖춘": 4574,
      "후원": 4575,
      "##결을": 4576,
      "질환": 4577,
      "교체": 4578,
      "후회": 4579,
      "##면서도": 4580,
      "죽은": 4581,
      "##보가": 4582,
      "보조": 4583,
      "##SP": 4584,
      "사실이": 4585,
      "그에게": 4586,
      "자리에": 4587,
      "공개된": 4588,
      "##관의": 4589,
      "##담을": 4590,
      "직후": 4591,
      "둘째": 4592,
      "##의원": 4593,
      "##EO": 4594,
      "의식": 4595,
      "##력에": 4596,
      "칸": 4597,
      "테이": 4598,
      "노출": 4599,
      "개별": 4600,
      "깊이": 4601,
      "인구": 4602,
      "씨가": 4603,
      "재산": 4604,
      "##드리": 4605,
      "본다": 4606,
      "뉴스엔": 4607,
      "즉시": 4608,
      "##ge": 4609,
      "##제보": 4610,
      "작년": 4611,
      "인기를": 4612,
      "행사를": 4613,
      "##으니까": 4614,
      "김태": 4615,
      "곽": 4616,
      "##대와": 4617,
      "##월까지": 4618,
      "문서": 4619,
      "##사진": 4620,
      "##라의": 4621,
      "재배포금지": 4622,
      "pl": 4623,
      "##니터": 4624,
      "##검사": 4625,
      "나왔": 4626,
      "##만은": 4627,
      "점이": 4628,
      "그러므로": 4629,
      "##act": 4630,
      "시상": 4631,
      "이용한": 4632,
      "##번호": 4633,
      "##기까지": 4634,
      "##자산": 4635,
      "##숨을": 4636,
      "생각했다": 4637,
      "손에": 4638,
      "##미가": 4639,
      "이제는": 4640,
      "잉": 4641,
      "타이틀": 4642,
      "짧은": 4643,
      "횡": 4644,
      "덮": 4645,
      "진입": 4646,
      "점차": 4647,
      "그저": 4648,
      "스포츠조선": 4649,
      "##군을": 4650,
      "사람들에게": 4651,
      "배출": 4652,
      "##영상": 4653,
      "레드": 4654,
      "멀리": 4655,
      "이끌어": 4656,
      "font": 4657,
      "##마이": 4658,
      "진행된다": 4659,
      "##당은": 4660,
      "세워": 4661,
      "##ress": 4662,
      "했습니다": 4663,
      "대표가": 4664,
      "공무원": 4665,
      "떨어진": 4666,
      "##망을": 4667,
      "평가를": 4668,
      "쾌": 4669,
      "근육": 4670,
      "##동이": 4671,
      "셋": 4672,
      "여론": 4673,
      "꿈을": 4674,
      "나아가": 4675,
      "41": 4676,
      "규제": 4677,
      "때도": 4678,
      "##조직": 4679,
      "##OM": 4680,
      "##버스": 4681,
      "##특별": 4682,
      "##수에": 4683,
      "스킬": 4684,
      "##적으로는": 4685,
      "압박": 4686,
      "춤": 4687,
      "옮겨": 4688,
      "##세의": 4689,
      "주차": 4690,
      "03": 4691,
      "가상": 4692,
      "##프로그램": 4693,
      "sp": 4694,
      "섞": 4695,
      "##법에": 4696,
      "있음을": 4697,
      "무료만화": 4698,
      "59": 4699,
      "덕분에": 4700,
      "산소": 4701,
      "예상된다": 4702,
      "quot": 4703,
      "장애인": 4704,
      "2005": 4705,
      "상황에": 4706,
      "유엔": 4707,
      "전주": 4708,
      "기부": 4709,
      "##라스": 4710,
      "##어의": 4711,
      "##미터": 4712,
      "아니고": 4713,
      "있어요": 4714,
      "최우": 4715,
      "주최": 4716,
      "##국을": 4717,
      "빙": 4718,
      "##선에": 4719,
      "했는데": 4720,
      "분위기를": 4721,
      "비정": 4722,
      "##실에": 4723,
      "질문에": 4724,
      "카페": 4725,
      "##공간": 4726,
      "발사": 4727,
      "선사": 4728,
      "##년도": 4729,
      "개편": 4730,
      "##우가": 4731,
      "##다란": 4732,
      "묶": 4733,
      "임신": 4734,
      "##man": 4735,
      "##리트": 4736,
      "##로의": 4737,
      "##rop": 4738,
      "종목": 4739,
      "##포구": 4740,
      "##가족": 4741,
      "##성도": 4742,
      "다니": 4743,
      "##명과": 4744,
      "훈": 4745,
      "곳이": 4746,
      "중구": 4747,
      "고향": 4748,
      "버스": 4749,
      "필수": 4750,
      "54": 4751,
      "이중": 4752,
      "##상황": 4753,
      "찌": 4754,
      "##당의": 4755,
      "소리가": 4756,
      "합리": 4757,
      "##포트": 4758,
      "##권에": 4759,
      "##테이": 4760,
      "스탠": 4761,
      "녀": 4762,
      "물건": 4763,
      "##야구": 4764,
      "복귀": 4765,
      "올랐다": 4766,
      "##사랑": 4767,
      "56": 4768,
      "형태로": 4769,
      "매주": 4770,
      "##자동차": 4771,
      "떼": 4772,
      "##ouble": 4773,
      "조기": 4774,
      "##ident": 4775,
      "##차는": 4776,
      "열었다": 4777,
      "매일경제": 4778,
      "##전은": 4779,
      "핫": 4780,
      "옳": 4781,
      "발표한": 4782,
      "깨끗": 4783,
      "드물": 4784,
      "##부로": 4785,
      "개막": 4786,
      "##것도": 4787,
      "유니": 4788,
      "물어": 4789,
      "별로": 4790,
      "뒤로": 4791,
      "##ance": 4792,
      "곁": 4793,
      "##색을": 4794,
      "느낄": 4795,
      "캡처": 4796,
      "들어서": 4797,
      "구현": 4798,
      "##비의": 4799,
      "##이니": 4800,
      "알려진": 4801,
      "마주": 4802,
      "##유를": 4803,
      "그러자": 4804,
      "아무런": 4805,
      "청구": 4806,
      "기존의": 4807,
      "##uc": 4808,
      "##26": 4809,
      "##받아": 4810,
      "64": 4811,
      "것이고": 4812,
      "진단": 4813,
      "저항": 4814,
      "일에": 4815,
      "괜찮": 4816,
      "어쩌": 4817,
      "##락을": 4818,
      "지휘": 4819,
      "##설을": 4820,
      "조작": 4821,
      "때에는": 4822,
      "초대": 4823,
      "마감": 4824,
      "뜨거운": 4825,
      "기회": 4826,
      "##십시오": 4827,
      "평생": 4828,
      "tvN": 4829,
      "나쁜": 4830,
      "##27": 4831,
      "최대한": 4832,
      "##피스": 4833,
      "냄": 4834,
      "멜": 4835,
      "##가능": 4836,
      "긴급": 4837,
      "불교": 4838,
      "풀어": 4839,
      "##홀에서": 4840,
      "1997": 4841,
      "했고": 4842,
      "앙": 4843,
      "뮤직": 4844,
      "이들이": 4845,
      "신한": 4846,
      "집을": 4847,
      "대기업": 4848,
      "##종합": 4849,
      "근본": 4850,
      "##동에": 4851,
      "요소": 4852,
      "돋": 4853,
      "구성된": 4854,
      "##마를": 4855,
      "적합": 4856,
      "떨어져": 4857,
      "PC": 4858,
      "뿐이다": 4859,
      "##기기": 4860,
      "##카이": 4861,
      "연주": 4862,
      "경험을": 4863,
      "에게": 4864,
      "##형이": 4865,
      "가졌다": 4866,
      "##되어야": 4867,
      "마음에": 4868,
      "김재": 4869,
      "아쉬": 4870,
      "영웅": 4871,
      "크다": 4872,
      "좋지": 4873,
      "접수": 4874,
      "KBO": 4875,
      "##되었고": 4876,
      "##개혁": 4877,
      "뼈": 4878,
      "절반": 4879,
      "무엇을": 4880,
      "##상과": 4881,
      "먹는": 4882,
      "나올": 4883,
      "질병": 4884,
      "##더라": 4885,
      "어렵다": 4886,
      "부처": 4887,
      "##아의": 4888,
      "##리면": 4889,
      "무한": 4890,
      "##28": 4891,
      "정비": 4892,
      "##공업": 4893,
      "창의": 4894,
      "건너": 4895,
      "##연이": 4896,
      "##체험": 4897,
      "NC": 4898,
      "##하여야": 4899,
      "주어": 4900,
      "아시아경제": 4901,
      "보자": 4902,
      "모니터": 4903,
      "##io": 4904,
      "동원": 4905,
      "유저": 4906,
      "종료": 4907,
      "있겠": 4908,
      "방문해": 4909,
      "##타를": 4910,
      "##해졌다": 4911,
      "##les": 4912,
      "will": 4913,
      "##ind": 4914,
      "##호의": 4915,
      "내용이": 4916,
      "Sp": 4917,
      "##해져": 4918,
      "하겠다": 4919,
      "##성으로": 4920,
      "체육": 4921,
      "##함에": 4922,
      "수석": 4923,
      "따로": 4924,
      "당연히": 4925,
      "명확": 4926,
      "##치에": 4927,
      "double": 4928,
      "조심": 4929,
      "얻어": 4930,
      "##물로": 4931,
      "##현은": 4932,
      "굉장히": 4933,
      "최초의": 4934,
      "##아시아": 4935,
      "텍": 4936,
      "##월드": 4937,
      "##로서의": 4938,
      "좋아하는": 4939,
      "고급": 4940,
      "만남": 4941,
      "친환경": 4942,
      "붉은": 4943,
      "##실로": 4944,
      "##민이": 4945,
      "Korea": 4946,
      "따뜻한": 4947,
      "##셨다": 4948,
      "인사를": 4949,
      "외에도": 4950,
      "##위원장": 4951,
      "소환": 4952,
      "##희는": 4953,
      "##시다": 4954,
      "57": 4955,
      "##최신": 4956,
      "쇠": 4957,
      "진정한": 4958,
      "##인들은": 4959,
      "말았다": 4960,
      "혼란": 4961,
      "심사": 4962,
      "##소리": 4963,
      "－": 4964,
      "젖": 4965,
      "자금": 4966,
      "공포": 4967,
      "##리티": 4968,
      "아이가": 4969,
      "생각하고": 4970,
      "##라가": 4971,
      "##오고": 4972,
      "행복한": 4973,
      "##공동": 4974,
      "##개가": 4975,
      "맞춤형": 4976,
      "기회가": 4977,
      "##가격": 4978,
      "##혔다": 4979,
      "183": 4980,
      "시선을": 4981,
      "##전쟁": 4982,
      "2002": 4983,
      "##케이션": 4984,
      "있으니": 4985,
      "##일에는": 4986,
      "58": 4987,
      "##국제": 4988,
      "신체": 4989,
      "의미가": 4990,
      "분명히": 4991,
      "응답": 4992,
      "월드컵": 4993,
      "##olor": 4994,
      "대해서도": 4995,
      "##재판": 4996,
      "go": 4997,
      "##복을": 4998,
      "유기": 4999,
      "##방의": 5000,
      "##물에": 5001,
      "건립": 5002,
      "##일은": 5003,
      "##민은": 5004,
      "아닌가": 5005,
      "경기에서": 5006,
      "다행": 5007,
      "모습으로": 5008,
      "스피": 5009,
      "##int": 5010,
      "떠오": 5011,
      "사람에게": 5012,
      "사진제공": 5013,
      "##배를": 5014,
      "##ome": 5015,
      "갔다": 5016,
      "당선": 5017,
      "이성": 5018,
      "진행한다": 5019,
      "##EC": 5020,
      "##졌고": 5021,
      "남북": 5022,
      "그건": 5023,
      "작품을": 5024,
      "재무": 5025,
      "지역에": 5026,
      "##서트": 5027,
      "적극적인": 5028,
      "목표로": 5029,
      "약의": 5030,
      "와서": 5031,
      "편안": 5032,
      "시장은": 5033,
      "마디": 5034,
      "##우를": 5035,
      "경찰은": 5036,
      "##미는": 5037,
      "남녀": 5038,
      "日": 5039,
      "쓰러": 5040,
      "CJ": 5041,
      "기원": 5042,
      "##정과": 5043,
      "매수": 5044,
      "잠실": 5045,
      "##지사": 5046,
      "틈": 5047,
      "##경은": 5048,
      "있었는데": 5049,
      "나중에": 5050,
      "##인에게": 5051,
      "그랬": 5052,
      "구체적인": 5053,
      "##ib": 5054,
      "철학": 5055,
      "당장": 5056,
      "##ace": 5057,
      "한정": 5058,
      "동생": 5059,
      "지속적인": 5060,
      "현황": 5061,
      "##하겠다고": 5062,
      "너무나": 5063,
      "##물관": 5064,
      "사이의": 5065,
      "내에": 5066,
      "부분을": 5067,
      "##책을": 5068,
      "갤럭": 5069,
      "##사업을": 5070,
      "운용": 5071,
      "##언을": 5072,
      "간담": 5073,
      "입은": 5074,
      "가능성을": 5075,
      "반도": 5076,
      "앵커": 5077,
      "##친다": 5078,
      "三": 5079,
      "개설": 5080,
      "방법으로": 5081,
      "경계": 5082,
      "##감독": 5083,
      "담아": 5084,
      "##류의": 5085,
      "해주": 5086,
      "수비": 5087,
      "쉽지": 5088,
      "책임을": 5089,
      "모으": 5090,
      "##전자신문": 5091,
      "비교적": 5092,
      "취약": 5093,
      "##ire": 5094,
      "수록": 5095,
      "##하다가": 5096,
      "생성": 5097,
      "##음에도": 5098,
      "이기": 5099,
      "성적": 5100,
      "##화점": 5101,
      "mso": 5102,
      "##out": 5103,
      "채권": 5104,
      "##ish": 5105,
      "도망": 5106,
      "튀": 5107,
      "##속에": 5108,
      "작업을": 5109,
      "##씨를": 5110,
      "제외한": 5111,
      "셈이다": 5112,
      "축하": 5113,
      "서서": 5114,
      "##나마": 5115,
      "품질": 5116,
      "비즈니스": 5117,
      "王": 5118,
      "파트너": 5119,
      "밴": 5120,
      "me": 5121,
      "##등급": 5122,
      "선임": 5123,
      "뚫": 5124,
      "날아": 5125,
      "박정": 5126,
      "##ime": 5127,
      "콩": 5128,
      "감독이": 5129,
      "2004": 5130,
      "이중결합": 5131,
      "잠재": 5132,
      "검색": 5133,
      "##보이는": 5134,
      "만일": 5135,
      "전면": 5136,
      "##경이": 5137,
      "일제": 5138,
      "##사인": 5139,
      "##법인": 5140,
      "##프를": 5141,
      "나타나는": 5142,
      "##클럽": 5143,
      "##공을": 5144,
      "제목": 5145,
      "심각한": 5146,
      "르": 5147,
      "##스포츠뉴스": 5148,
      "통화": 5149,
      "김진": 5150,
      "커다란": 5151,
      "##DA": 5152,
      "에너": 5153,
      "부분이": 5154,
      "스크": 5155,
      "보급": 5156,
      "맑은": 5157,
      "##처리": 5158,
      "##물은": 5159,
      "출판": 5160,
      "취하고": 5161,
      "합류": 5162,
      "주었다": 5163,
      "Un": 5164,
      "##지수": 5165,
      "윈": 5166,
      "생겨": 5167,
      "쏘": 5168,
      "본격적인": 5169,
      "##받을": 5170,
      "밖으로": 5171,
      "##보며": 5172,
      "형사": 5173,
      "경제적": 5174,
      "즐거": 5175,
      "행동을": 5176,
      "##조가": 5177,
      "유발": 5178,
      "올렸다": 5179,
      "상반기": 5180,
      "끊임": 5181,
      "요리": 5182,
      "응원": 5183,
      "말한": 5184,
      "드래": 5185,
      "##안은": 5186,
      "③": 5187,
      "##니어": 5188,
      "Tr": 5189,
      "이행": 5190,
      "##유가": 5191,
      "닭": 5192,
      "연극": 5193,
      "설득": 5194,
      "것이라": 5195,
      "##안의": 5196,
      "성남": 5197,
      "##29": 5198,
      "목적으로": 5199,
      "##실이": 5200,
      "네가": 5201,
      "##크를": 5202,
      "세포": 5203,
      "방지": 5204,
      "라이브": 5205,
      "##산시": 5206,
      "##IT": 5207,
      "방향으로": 5208,
      "##지능": 5209,
      "##스턴": 5210,
      "공통": 5211,
      "조각": 5212,
      "뒤를": 5213,
      "##체계": 5214,
      "##분석": 5215,
      "밝힌": 5216,
      "하였": 5217,
      "##내기": 5218,
      "##세포": 5219,
      "불리는": 5220,
      "취득": 5221,
      "재료": 5222,
      "##해가": 5223,
      "##웨이": 5224,
      "##수수": 5225,
      "생활을": 5226,
      "넓은": 5227,
      "이용할": 5228,
      "충격": 5229,
      "##지자": 5230,
      "곳에서": 5231,
      "##종을": 5232,
      "채택": 5233,
      "웃음": 5234,
      "##란드": 5235,
      "듀": 5236,
      "성인": 5237,
      "한국경제": 5238,
      "매매": 5239,
      "##호텔": 5240,
      "섹": 5241,
      "입주": 5242,
      "##문에": 5243,
      "수업": 5244,
      "넣어": 5245,
      "##개로": 5246,
      "펜": 5247,
      "소송": 5248,
      "공약": 5249,
      "이영": 5250,
      "63": 5251,
      "옹": 5252,
      "쪽으로": 5253,
      "행위": 5254,
      "##ase": 5255,
      "유일한": 5256,
      "담긴": 5257,
      "수학": 5258,
      "##액이": 5259,
      "갤럭시": 5260,
      "멸": 5261,
      "##연구원": 5262,
      "##시부터": 5263,
      "amp": 5264,
      "삼성전": 5265,
      "##미디어": 5266,
      "번역": 5267,
      "##천시": 5268,
      "참여한": 5269,
      "##독교": 5270,
      "무너": 5271,
      "##센터에서": 5272,
      "##세에": 5273,
      "##치료": 5274,
      "##사건": 5275,
      "때가": 5276,
      "보아": 5277,
      "조사를": 5278,
      "참석했다": 5279,
      "동작": 5280,
      "이유가": 5281,
      "양성": 5282,
      "주지": 5283,
      "취급": 5284,
      "동기": 5285,
      "무대": 5286,
      "펴": 5287,
      "의원이": 5288,
      "변호사": 5289,
      "마침내": 5290,
      "곳곳": 5291,
      "못해": 5292,
      "상대적으로": 5293,
      "인재": 5294,
      "블루": 5295,
      "독특": 5296,
      "##튜브": 5297,
      "학생들이": 5298,
      "##이즈": 5299,
      "##억원으로": 5300,
      "받는다": 5301,
      "지니": 5302,
      "란": 5303,
      "##연맹": 5304,
      "우수한": 5305,
      "흔히": 5306,
      "강남구": 5307,
      "이른바": 5308,
      "##팀은": 5309,
      "한반도": 5310,
      "##시킨다": 5311,
      "##르기": 5312,
      "그날": 5313,
      "멘": 5314,
      "##ng": 5315,
      "많았다": 5316,
      "목차": 5317,
      "##받았다": 5318,
      "##영이": 5319,
      "##봤다": 5320,
      "일찍": 5321,
      "##로가": 5322,
      "심지어": 5323,
      "##lect": 5324,
      "치열": 5325,
      "대화를": 5326,
      "##끄러": 5327,
      "##amp": 5328,
      "##하였으며": 5329,
      "##AL": 5330,
      "초과": 5331,
      "위기": 5332,
      "##파이": 5333,
      "##News": 5334,
      "##200": 5335,
      "##ily": 5336,
      "있었지만": 5337,
      "##ational": 5338,
      "아예": 5339,
      "2003": 5340,
      "IP": 5341,
      "99": 5342,
      "##마자": 5343,
      "스토리": 5344,
      "상장": 5345,
      "햇": 5346,
      "나눔": 5347,
      "재능": 5348,
      "청주": 5349,
      "##아는": 5350,
      "경고": 5351,
      "##나게": 5352,
      "것인지": 5353,
      "어떠한": 5354,
      "學": 5355,
      "물질": 5356,
      "어제": 5357,
      "가게": 5358,
      "발생하는": 5359,
      "벌써": 5360,
      "황금": 5361,
      "합격": 5362,
      "DB": 5363,
      "마지막으로": 5364,
      "빵": 5365,
      "단순히": 5366,
      "무릎": 5367,
      "진행됐다": 5368,
      "옛날": 5369,
      "라디오": 5370,
      "지자": 5371,
      "장비": 5372,
      "하반기": 5373,
      "경우에": 5374,
      "문제에": 5375,
      "윌": 5376,
      "보여주는": 5377,
      "##국민": 5378,
      "북한이": 5379,
      "싱글": 5380,
      "사랑의": 5381,
      "sa": 5382,
      "파워": 5383,
      "##색의": 5384,
      "근처": 5385,
      "첫째": 5386,
      "닫": 5387,
      "오랫": 5388,
      "##당에서": 5389,
      "나눠": 5390,
      "아나": 5391,
      "이것을": 5392,
      "선배": 5393,
      "널리": 5394,
      "##페이스": 5395,
      "촛": 5396,
      "몰아": 5397,
      "##국에": 5398,
      "##체에": 5399,
      "##lic": 5400,
      "김지": 5401,
      "##모델": 5402,
      "190": 5403,
      "##여명이": 5404,
      "##레이드": 5405,
      "##orld": 5406,
      "밟": 5407,
      "감안": 5408,
      "명칭": 5409,
      "##내며": 5410,
      "식으로": 5411,
      "이상이": 5412,
      "120": 5413,
      "당부했다": 5414,
      "공항": 5415,
      "대법": 5416,
      "##향을": 5417,
      "##하시": 5418,
      "서경": 5419,
      "정책을": 5420,
      "##양의": 5421,
      "오브": 5422,
      "##야말로": 5423,
      "것이며": 5424,
      "##이상": 5425,
      "##았습니다": 5426,
      "선호": 5427,
      "웅": 5428,
      "##집을": 5429,
      "가야": 5430,
      "##해지는": 5431,
      "##매수": 5432,
      "어른": 5433,
      "이틀": 5434,
      "내고": 5435,
      "아무도": 5436,
      "거예요": 5437,
      "그녀를": 5438,
      "시범": 5439,
      "거대한": 5440,
      "현재의": 5441,
      "##까요": 5442,
      "내에서": 5443,
      "##건축": 5444,
      "받게": 5445,
      "##트에": 5446,
      "오랫동안": 5447,
      "무대를": 5448,
      "OS": 5449,
      "대처": 5450,
      "85": 5451,
      "일자": 5452,
      "##조는": 5453,
      "작곡": 5454,
      "저지": 5455,
      "가면": 5456,
      "마친": 5457,
      "낼": 5458,
      "치료를": 5459,
      "구간": 5460,
      "강릉": 5461,
      "기분": 5462,
      "일어난": 5463,
      "추가로": 5464,
      "##축구": 5465,
      "상태에서": 5466,
      "살인": 5467,
      "감각": 5468,
      "##이와": 5469,
      "근대": 5470,
      "이상반응": 5471,
      "부상": 5472,
      "정유": 5473,
      "이건": 5474,
      "비가": 5475,
      "오리": 5476,
      "끌고": 5477,
      "이민": 5478,
      "외에": 5479,
      "특허": 5480,
      "잎": 5481,
      "보았다": 5482,
      "뮤지컬": 5483,
      "저희": 5484,
      "##per": 5485,
      "전력": 5486,
      "닿": 5487,
      "수도권": 5488,
      "AP": 5489,
      "향한": 5490,
      "##산이": 5491,
      "자살": 5492,
      "##기구": 5493,
      "홈런": 5494,
      "영원": 5495,
      "하더라도": 5496,
      "##운영": 5497,
      "##란히": 5498,
      "대북": 5499,
      "옷을": 5500,
      "맡은": 5501,
      "##바닥": 5502,
      "인용": 5503,
      "have": 5504,
      "##다시": 5505,
      "깨달": 5506,
      "국회의원": 5507,
      "내세": 5508,
      "호남": 5509,
      "天": 5510,
      "정권": 5511,
      "정착": 5512,
      "95": 5513,
      "미래를": 5514,
      "축제": 5515,
      "미세먼": 5516,
      "04": 5517,
      "66": 5518,
      "호소": 5519,
      "As": 5520,
      "##연구소": 5521,
      "six": 5522,
      "장난": 5523,
      "##IS": 5524,
      "그만큼": 5525,
      "기업이": 5526,
      "운행": 5527,
      "출석": 5528,
      "동일한": 5529,
      "##하의": 5530,
      "강의": 5531,
      "입학": 5532,
      "##나다": 5533,
      "말로": 5534,
      "으": 5535,
      "증명": 5536,
      "이미지를": 5537,
      "사랑하는": 5538,
      "KIA": 5539,
      "이종": 5540,
      "못한다": 5541,
      "혜택을": 5542,
      "유사": 5543,
      "위의": 5544,
      "##면적": 5545,
      "방법은": 5546,
      "홍콩": 5547,
      "코리아": 5548,
      "답변": 5549,
      "몸이": 5550,
      "아이를": 5551,
      "사건을": 5552,
      "아무것도": 5553,
      "##럴드경제": 5554,
      "가끔": 5555,
      "훌륭한": 5556,
      "논란이": 5557,
      "처벌": 5558,
      "옆에": 5559,
      "폐지": 5560,
      "##화로": 5561,
      "주력": 5562,
      "스위": 5563,
      "##ake": 5564,
      "데이": 5565,
      "승리를": 5566,
      "건강한": 5567,
      "받아들이": 5568,
      "##냐는": 5569,
      "##쇼핑": 5570,
      "부과": 5571,
      "지진": 5572,
      "시장에서": 5573,
      "##나요": 5574,
      "지혜": 5575,
      "억제": 5576,
      "이름이": 5577,
      "。": 5578,
      "##임이": 5579,
      "위에서": 5580,
      "종로": 5581,
      "빅데이터": 5582,
      "어려움을": 5583,
      "##대출": 5584,
      "촛불": 5585,
      "사실은": 5586,
      "깜짝": 5587,
      "##식에서": 5588,
      "영혼": 5589,
      "통제": 5590,
      "##식과": 5591,
      "나타난": 5592,
      "##ook": 5593,
      "자네": 5594,
      "가고": 5595,
      "도쿄": 5596,
      "##콘텐츠": 5597,
      "##리자": 5598,
      "보러": 5599,
      "대학생": 5600,
      "##준표": 5601,
      "자치": 5602,
      "고대": 5603,
      "##거리는": 5604,
      "엠": 5605,
      "소년": 5606,
      "된다는": 5607,
      "신중": 5608,
      "##건강": 5609,
      "##공단": 5610,
      "##세는": 5611,
      "활용한": 5612,
      "아이돌": 5613,
      "자가": 5614,
      "넷": 5615,
      "##여서": 5616,
      "교환": 5617,
      "##광역": 5618,
      "CEO": 5619,
      "##놓은": 5620,
      "##관에": 5621,
      "##ES": 5622,
      "##에게서": 5623,
      "##일의": 5624,
      "운영하는": 5625,
      "대장": 5626,
      "Com": 5627,
      "##로스": 5628,
      "올바": 5629,
      "기대된다": 5630,
      "05": 5631,
      "먹을": 5632,
      "##함과": 5633,
      "comp": 5634,
      "道": 5635,
      "신선": 5636,
      "##제한": 5637,
      "##ug": 5638,
      "##시했다": 5639,
      "매력을": 5640,
      "규칙": 5641,
      "매력": 5642,
      "후보가": 5643,
      "분위기": 5644,
      "##연히": 5645,
      "공격을": 5646,
      "##성한": 5647,
      "결과가": 5648,
      "키워": 5649,
      "없지만": 5650,
      "찾기": 5651,
      "MC": 5652,
      "하나가": 5653,
      "##OU": 5654,
      "마리": 5655,
      "##절을": 5656,
      "재난": 5657,
      "##재가": 5658,
      "##방에": 5659,
      "##로그": 5660,
      "Sh": 5661,
      "속으로": 5662,
      "##직을": 5663,
      "##사들이": 5664,
      "빗": 5665,
      "부족한": 5666,
      "##평균": 5667,
      "##메이션": 5668,
      "경기가": 5669,
      "##주년": 5670,
      "린": 5671,
      "사내": 5672,
      "하나는": 5673,
      "사이에서": 5674,
      "자는": 5675,
      "##실한": 5676,
      "유형": 5677,
      "선도": 5678,
      "##온다": 5679,
      "혈액": 5680,
      "느꼈": 5681,
      "패턴": 5682,
      "화가": 5683,
      "대리": 5684,
      "협약": 5685,
      "67": 5686,
      "쉬운": 5687,
      "현장에서": 5688,
      "##심의": 5689,
      "Ar": 5690,
      "내는": 5691,
      "무게": 5692,
      "인권": 5693,
      "##하려면": 5694,
      "나오고": 5695,
      "##타민": 5696,
      "톱": 5697,
      "붕": 5698,
      "##대비": 5699,
      "시장의": 5700,
      "지역에서": 5701,
      "천안": 5702,
      "정체": 5703,
      "문자": 5704,
      "##에게도": 5705,
      "##resident": 5706,
      "되기": 5707,
      "##층의": 5708,
      "수집": 5709,
      "딜": 5710,
      "화려한": 5711,
      "조치": 5712,
      "##FA": 5713,
      "##류가": 5714,
      "활용해": 5715,
      "##CC": 5716,
      "선생님": 5717,
      "들은": 5718,
      "기소": 5719,
      "일시": 5720,
      "김상": 5721,
      "음식을": 5722,
      "fam": 5723,
      "아이들이": 5724,
      "소식을": 5725,
      "칭찬": 5726,
      "무엇인가": 5727,
      "##전거": 5728,
      "수준의": 5729,
      "시사": 5730,
      "##되었으며": 5731,
      "삽": 5732,
      "환자의": 5733,
      "##가와": 5734,
      "만날": 5735,
      "매달": 5736,
      "##nt": 5737,
      "점은": 5738,
      "##나이": 5739,
      "방법이": 5740,
      "이유를": 5741,
      "##방이": 5742,
      "계약을": 5743,
      "수수": 5744,
      "##여행": 5745,
      "통계": 5746,
      "##름이": 5747,
      "기록한": 5748,
      "결승": 5749,
      "테러": 5750,
      "말도": 5751,
      "Co": 5752,
      "혐의를": 5753,
      "##세로": 5754,
      "본래": 5755,
      "포즈를": 5756,
      "강제": 5757,
      "이용하여": 5758,
      "##주에": 5759,
      "인프라": 5760,
      "##투자증권": 5761,
      "se": 5762,
      "보지": 5763,
      "mat": 5764,
      "##무역": 5765,
      "다르다": 5766,
      "입증": 5767,
      "바꿔": 5768,
      "렌": 5769,
      "파견": 5770,
      "가구": 5771,
      "핸": 5772,
      "##네요": 5773,
      "왜냐": 5774,
      "의존": 5775,
      "법정": 5776,
      "게재": 5777,
      "없었던": 5778,
      "인공지능": 5779,
      "##35": 5780,
      "샌": 5781,
      "이슬": 5782,
      "01": 5783,
      "기독교": 5784,
      "얻은": 5785,
      "##업계": 5786,
      "등이다": 5787,
      "##리에서": 5788,
      "통상": 5789,
      "달아": 5790,
      "이야기가": 5791,
      "시스템을": 5792,
      "세상에": 5793,
      "##인터넷": 5794,
      "$": 5795,
      "거두": 5796,
      "##이닝": 5797,
      "냄새": 5798,
      "기반으로": 5799,
      "##자금": 5800,
      "고백": 5801,
      "변화가": 5802,
      "600": 5803,
      "##브리": 5804,
      "##졌습니다": 5805,
      "차이": 5806,
      "기상": 5807,
      "여부를": 5808,
      "해당하는": 5809,
      "빼앗": 5810,
      "곳으로": 5811,
      "선진": 5812,
      "팽": 5813,
      "무엇이": 5814,
      "댄": 5815,
      "이명": 5816,
      "##연의": 5817,
      "적응": 5818,
      "도덕": 5819,
      "공을": 5820,
      "##종이": 5821,
      "홍준표": 5822,
      "반대로": 5823,
      "머니": 5824,
      "바이오": 5825,
      "부사": 5826,
      "고등학교": 5827,
      "PD": 5828,
      "##주기": 5829,
      "전설": 5830,
      "者": 5831,
      "목소리를": 5832,
      "개요": 5833,
      "유의": 5834,
      "##tt": 5835,
      "창작": 5836,
      "나아": 5837,
      "##르지": 5838,
      "이게": 5839,
      "리얼": 5840,
      "몸에": 5841,
      "내린": 5842,
      "집에서": 5843,
      "51": 5844,
      "##일로": 5845,
      "##발표": 5846,
      "##계올림픽": 5847,
      "줄어": 5848,
      "##즈의": 5849,
      "함유": 5850,
      "生": 5851,
      "끝까지": 5852,
      "아우": 5853,
      "건조": 5854,
      "84": 5855,
      "상업": 5856,
      "##소방": 5857,
      "##었다고": 5858,
      "공장": 5859,
      "##재는": 5860,
      "##안타": 5861,
      "##리다": 5862,
      "갖는": 5863,
      "사기": 5864,
      "멈추": 5865,
      "##잖아": 5866,
      "##스키": 5867,
      "기쁨": 5868,
      "He": 5869,
      "##능력": 5870,
      "유승": 5871,
      "장르": 5872,
      "토지": 5873,
      "개방": 5874,
      "목표를": 5875,
      "목소리가": 5876,
      "선두": 5877,
      "뭔가": 5878,
      "##기사": 5879,
      "不": 5880,
      "국회에서": 5881,
      "Wh": 5882,
      "FC": 5883,
      "서초": 5884,
      "시내": 5885,
      "끝난": 5886,
      "Al": 5887,
      "##후보": 5888,
      "진보": 5889,
      "현금": 5890,
      "보낸": 5891,
      "##까지도": 5892,
      "선박": 5893,
      "68": 5894,
      "전형": 5895,
      "분야에서": 5896,
      "털어": 5897,
      "##해주는": 5898,
      "##보건": 5899,
      "초등학교": 5900,
      "위안": 5901,
      "##소한": 5902,
      "유튜브": 5903,
      "국내외": 5904,
      "상품을": 5905,
      "##렬한": 5906,
      "##학의": 5907,
      "때부터": 5908,
      "##협의회": 5909,
      "수능": 5910,
      "링": 5911,
      "##AT": 5912,
      "이르는": 5913,
      "오프": 5914,
      "##xygen": 5915,
      "res": 5916,
      "##ning": 5917,
      "##생산": 5918,
      "지금의": 5919,
      "잘못된": 5920,
      "##치며": 5921,
      "시작된": 5922,
      "##AS": 5923,
      "유전": 5924,
      "등도": 5925,
      "기대를": 5926,
      "서울중앙": 5927,
      "매각": 5928,
      "##들이다": 5929,
      "##교육청": 5930,
      "이같이": 5931,
      "파티": 5932,
      "아프리카": 5933,
      "##등록": 5934,
      "##고도": 5935,
      "##일러": 5936,
      "연재": 5937,
      "##진과": 5938,
      "직무": 5939,
      "기대한다": 5940,
      "충돌": 5941,
      "손가락": 5942,
      "절차": 5943,
      "동남": 5944,
      "##현이": 5945,
      "추억": 5946,
      "점이다": 5947,
      "CBS": 5948,
      "관계가": 5949,
      "##법이": 5950,
      "업무를": 5951,
      "시장에": 5952,
      "##전으로": 5953,
      "mg": 5954,
      "##시민": 5955,
      "꺾": 5956,
      "not": 5957,
      "생생": 5958,
      "##관과": 5959,
      "보존": 5960,
      "격려": 5961,
      "연령": 5962,
      "자료를": 5963,
      "##널드": 5964,
      "믿고": 5965,
      "##anc": 5966,
      "##중의": 5967,
      "시대의": 5968,
      "##ite": 5969,
      "1990": 5970,
      "뷰": 5971,
      "꺼내": 5972,
      "포함해": 5973,
      "찾을": 5974,
      "sy": 5975,
      "사람도": 5976,
      "넣고": 5977,
      "그걸": 5978,
      "생기": 5979,
      "관측": 5980,
      "덩": 5981,
      "Oxygen": 5982,
      "신분": 5983,
      "내리": 5984,
      "정식": 5985,
      "실무": 5986,
      "고위": 5987,
      "##ve": 5988,
      "##재생": 5989,
      "▷": 5990,
      "##양을": 5991,
      "장식": 5992,
      "2001": 5993,
      "##거든요": 5994,
      "vs": 5995,
      "##베이": 5996,
      "그와": 5997,
      "줄어들": 5998,
      "전부터": 5999,
      "##름을": 6000,
      "산림": 6001,
      "##격한": 6002,
      "상당한": 6003,
      "집으로": 6004,
      "어르": 6005,
      "학부모": 6006,
      "넘치는": 6007,
      "닥": 6008,
      "무려": 6009,
      "현상": 6010,
      "탑재": 6011,
      "##ember": 6012,
      "겨우": 6013,
      "수십": 6014,
      "연말": 6015,
      "##영의": 6016,
      "닮": 6017,
      "정확히": 6018,
      "개입": 6019,
      "##법은": 6020,
      "ag": 6021,
      "끓": 6022,
      "##사이트": 6023,
      "멋진": 6024,
      "한층": 6025,
      "시장을": 6026,
      "상태로": 6027,
      "Pro": 6028,
      "지원하는": 6029,
      "이주": 6030,
      "담겨": 6031,
      "계속해서": 6032,
      "실내": 6033,
      "의하면": 6034,
      "YTN": 6035,
      "이상을": 6036,
      "셰": 6037,
      "테마": 6038,
      "int": 6039,
      "저렴": 6040,
      "단순한": 6041,
      "상황이다": 6042,
      "##선으로": 6043,
      "압도": 6044,
      "##패를": 6045,
      "##하기를": 6046,
      "적어도": 6047,
      "##스탄": 6048,
      "좌우": 6049,
      "합동": 6050,
      "발전을": 6051,
      "동아일보": 6052,
      "##mer": 6053,
      "때의": 6054,
      "아버지가": 6055,
      "##적의": 6056,
      "##시로": 6057,
      "##르트": 6058,
      "말하고": 6059,
      "무렵": 6060,
      "에어": 6061,
      "프로듀": 6062,
      "구글": 6063,
      "스테": 6064,
      "스페인": 6065,
      "꼼": 6066,
      "금리": 6067,
      "푸른": 6068,
      "만들어진": 6069,
      "대통령과": 6070,
      "독특한": 6071,
      "열린다": 6072,
      "그러니까": 6073,
      "마치고": 6074,
      "부장": 6075,
      "솔로": 6076,
      "쳐다": 6077,
      "가난": 6078,
      "의하여": 6079,
      "06": 6080,
      "생물": 6081,
      "대립": 6082,
      "법인": 6083,
      "##행정": 6084,
      "per": 6085,
      "운영하고": 6086,
      "좀더": 6087,
      "東": 6088,
      "특유의": 6089,
      "##중인": 6090,
      "##eb": 6091,
      "강하게": 6092,
      "上": 6093,
      "##채널": 6094,
      "##숙한": 6095,
      "차원에서": 6096,
      "신라": 6097,
      "맡아": 6098,
      "박사": 6099,
      "제공하고": 6100,
      "테스트": 6101,
      "제약": 6102,
      "##임금": 6103,
      "얘기를": 6104,
      "체포": 6105,
      "통하여": 6106,
      "##시와": 6107,
      "##면의": 6108,
      "이수": 6109,
      "집계": 6110,
      "유용": 6111,
      "##ale": 6112,
      "날씨": 6113,
      "##서울경제": 6114,
      "밝히": 6115,
      "역사를": 6116,
      "동해": 6117,
      "아닙": 6118,
      "오직": 6119,
      "##시코": 6120,
      "풀이": 6121,
      "##루션": 6122,
      "대륙": 6123,
      "##누리": 6124,
      "교사": 6125,
      "본격적으로": 6126,
      "family": 6127,
      "##SI": 6128,
      "##토록": 6129,
      "공직": 6130,
      "읍": 6131,
      "##미나": 6132,
      "여겨": 6133,
      "##하지는": 6134,
      "흡수": 6135,
      "이지": 6136,
      "않아도": 6137,
      "##ry": 6138,
      "공기": 6139,
      "계기로": 6140,
      "영등": 6141,
      "주기": 6142,
      "최강": 6143,
      "무서": 6144,
      "##려서": 6145,
      "그렇다고": 6146,
      "##고기": 6147,
      "천천": 6148,
      "##45": 6149,
      "법무": 6150,
      "나름": 6151,
      "##ester": 6152,
      "어두": 6153,
      "한다면": 6154,
      "즐기는": 6155,
      "이번에는": 6156,
      "##민주": 6157,
      "혹시": 6158,
      "롤": 6159,
      "악화": 6160,
      "손으로": 6161,
      "##프는": 6162,
      "고구": 6163,
      "書": 6164,
      "있는가": 6165,
      "##일과": 6166,
      "##서와": 6167,
      "등급": 6168,
      "##시키기": 6169,
      "##ach": 6170,
      "곳은": 6171,
      "반발": 6172,
      "제주도": 6173,
      "완벽한": 6174,
      "질소": 6175,
      "자기가": 6176,
      "밝혔습니다": 6177,
      "쟁": 6178,
      "무사": 6179,
      "##석의": 6180,
      "용인": 6181,
      "장소": 6182,
      "77": 6183,
      "증상이": 6184,
      "##ould": 6185,
      "보인": 6186,
      "당황": 6187,
      "음성": 6188,
      "##림을": 6189,
      "광역": 6190,
      "되돌": 6191,
      "Fr": 6192,
      "런던": 6193,
      "회사의": 6194,
      "검증": 6195,
      "질문을": 6196,
      "회계": 6197,
      "##았지만": 6198,
      "##상담": 6199,
      "세부": 6200,
      "김용": 6201,
      "레벨": 6202,
      "맞은": 6203,
      "관련한": 6204,
      "않습니다": 6205,
      "원인": 6206,
      "##해지고": 6207,
      "##하세요": 6208,
      "진행하고": 6209,
      "##보다도": 6210,
      "일반적인": 6211,
      "합병": 6212,
      "민주주의": 6213,
      "보며": 6214,
      "##있게": 6215,
      "서버": 6216,
      "마시": 6217,
      "하니": 6218,
      "올해는": 6219,
      "감정을": 6220,
      "##국가": 6221,
      "증가한": 6222,
      "##이던": 6223,
      "표기": 6224,
      "왜냐하면": 6225,
      "기아": 6226,
      "##매를": 6227,
      "##상공": 6228,
      "㈜": 6229,
      "예약": 6230,
      "누적": 6231,
      "##월에는": 6232,
      "경주": 6233,
      "클럽": 6234,
      "가맹": 6235,
      "##장한": 6236,
      "##군에": 6237,
      "##설팅": 6238,
      "##겨진": 6239,
      "드러냈다": 6240,
      "지어": 6241,
      "자연스럽게": 6242,
      "○": 6243,
      "##해서는": 6244,
      "##BN": 6245,
      "##연은": 6246,
      "비타민": 6247,
      "쏠": 6248,
      "##서로": 6249,
      "교과": 6250,
      "곧바로": 6251,
      "이벤트를": 6252,
      "전라": 6253,
      "73": 6254,
      "내지": 6255,
      "관내": 6256,
      "##뉴스통신": 6257,
      "올리": 6258,
      "자신에게": 6259,
      "관계자": 6260,
      "준비를": 6261,
      "##미사일": 6262,
      "##평을": 6263,
      "대우": 6264,
      "金": 6265,
      "출입": 6266,
      "##하므로": 6267,
      "##밀한": 6268,
      "미치는": 6269,
      "기재": 6270,
      "##권은": 6271,
      "흙": 6272,
      "완화": 6273,
      "##터리": 6274,
      "##례를": 6275,
      "방송된다": 6276,
      "##물질": 6277,
      "##BM": 6278,
      "his": 6279,
      "천천히": 6280,
      "바람에": 6281,
      "대폭": 6282,
      "2020": 6283,
      "보상": 6284,
      "평범": 6285,
      "##전과": 6286,
      "보완": 6287,
      "##심으로": 6288,
      "능력이": 6289,
      "##마의": 6290,
      "##버린": 6291,
      "##후의": 6292,
      "##은행은": 6293,
      "타임": 6294,
      "有": 6295,
      "##엔터테인먼트": 6296,
      "##탄을": 6297,
      "1980": 6298,
      "사냥": 6299,
      "여기로": 6300,
      "##ET": 6301,
      "그렇지만": 6302,
      "징역": 6303,
      "메모": 6304,
      "버튼": 6305,
      "##가스": 6306,
      "##통을": 6307,
      "##터를": 6308,
      "##문제": 6309,
      "##문은": 6310,
      "족": 6311,
      "크고": 6312,
      "중심의": 6313,
      "##수익": 6314,
      "듯이": 6315,
      "off": 6316,
      "▶": 6317,
      "##기념": 6318,
      "##부터는": 6319,
      "영입": 6320,
      "##연한": 6321,
      "##개국": 6322,
      "가스": 6323,
      "##이므로": 6324,
      "일주": 6325,
      "##혁신": 6326,
      "선출": 6327,
      "인력": 6328,
      "않기": 6329,
      "상태를": 6330,
      "##port": 6331,
      "모색": 6332,
      "김경": 6333,
      "끊임없이": 6334,
      "컬러": 6335,
      "##세트": 6336,
      "않지만": 6337,
      "시원": 6338,
      "살해": 6339,
      "##ms": 6340,
      "미소를": 6341,
      "##해질": 6342,
      "장학": 6343,
      "##즈는": 6344,
      "형태의": 6345,
      "고등": 6346,
      "결정을": 6347,
      "뻔": 6348,
      "흥미": 6349,
      "반도체": 6350,
      "기운": 6351,
      "펀드": 6352,
      "##하신": 6353,
      "법칙": 6354,
      "마르": 6355,
      "##ob": 6356,
      "소감을": 6357,
      "##였습니다": 6358,
      "충분한": 6359,
      "굽": 6360,
      "문제로": 6361,
      "앞둔": 6362,
      "메이저": 6363,
      "##iss": 6364,
      "화성": 6365,
      "불꽃": 6366,
      "교류": 6367,
      "눈물을": 6368,
      "이투데이": 6369,
      "브리": 6370,
      "했다고": 6371,
      "##대사": 6372,
      "숭": 6373,
      "보도자료": 6374,
      "확실히": 6375,
      "無": 6376,
      "편리": 6377,
      "69": 6378,
      "헌법재판": 6379,
      "사용한": 6380,
      "노후": 6381,
      "붙잡": 6382,
      "속의": 6383,
      "##부에서": 6384,
      "않으": 6385,
      "거기에": 6386,
      "내다": 6387,
      "얻고": 6388,
      "없게": 6389,
      "##IP": 6390,
      "유효": 6391,
      "하던": 6392,
      "事": 6393,
      "패배": 6394,
      "##플러스": 6395,
      "##차로": 6396,
      "##신은": 6397,
      "드물게": 6398,
      "대체로": 6399,
      "얼굴이": 6400,
      "게시": 6401,
      "61": 6402,
      "reg": 6403,
      "붙여": 6404,
      "##담당": 6405,
      "공연을": 6406,
      "##종은": 6407,
      "어리": 6408,
      "않았던": 6409,
      "##ost": 6410,
      "##회의에서": 6411,
      "그들": 6412,
      "영광": 6413,
      "##단과": 6414,
      "전파": 6415,
      "만든다": 6416,
      "의지를": 6417,
      "연락": 6418,
      "##관계를": 6419,
      "아름다": 6420,
      "##싱턴": 6421,
      "김기": 6422,
      "찾은": 6423,
      "그들을": 6424,
      "ad": 6425,
      "##스런": 6426,
      "un": 6427,
      "##ory": 6428,
      "IS": 6429,
      "샘": 6430,
      "##고가": 6431,
      "개인의": 6432,
      "##의료": 6433,
      "동네": 6434,
      "New": 6435,
      "##해온": 6436,
      "안전한": 6437,
      "##심한": 6438,
      "차를": 6439,
      "단위": 6440,
      "전화를": 6441,
      "일도": 6442,
      "어쩔": 6443,
      "##판에": 6444,
      "개헌": 6445,
      "자전거": 6446,
      "##무는": 6447,
      "소아": 6448,
      "수준으로": 6449,
      "##스티벌": 6450,
      "스튜": 6451,
      "투어": 6452,
      "결론": 6453,
      "데려": 6454,
      "싸움": 6455,
      "방해": 6456,
      "위대한": 6457,
      "##과장": 6458,
      "##색이": 6459,
      "##상에서": 6460,
      "종종": 6461,
      "애니메이션": 6462,
      "할아버": 6463,
      "낯": 6464,
      "함께하는": 6465,
      "기온": 6466,
      "##점의": 6467,
      "디스": 6468,
      "##해왔다": 6469,
      "차지했다": 6470,
      "##령을": 6471,
      "가격이": 6472,
      "##았을": 6473,
      "##AD": 6474,
      "제보는": 6475,
      "사용한다": 6476,
      "방향을": 6477,
      "목숨을": 6478,
      "한자": 6479,
      "겉": 6480,
      "부활": 6481,
      "has": 6482,
      "소장": 6483,
      "##스포": 6484,
      "장관은": 6485,
      "가공": 6486,
      "##ations": 6487,
      "부분은": 6488,
      "꿀": 6489,
      "인지": 6490,
      "이었다": 6491,
      "##절한": 6492,
      "가계": 6493,
      "##길이": 6494,
      "##모가": 6495,
      "##이한": 6496,
      "연방": 6497,
      "느낀": 6498,
      "청춘": 6499,
      "시가": 6500,
      "##기계": 6501,
      "조금씩": 6502,
      "변동": 6503,
      "불어": 6504,
      "전공": 6505,
      "78": 6506,
      "접촉": 6507,
      "선보였다": 6508,
      "중도": 6509,
      "##져야": 6510,
      "심한": 6511,
      "심장": 6512,
      "베스트": 6513,
      "올라가": 6514,
      "도달": 6515,
      "모습은": 6516,
      "좋겠다": 6517,
      "##에너지": 6518,
      "들어갔다": 6519,
      "예수": 6520,
      "##음에": 6521,
      "##연금": 6522,
      "세대": 6523,
      "##됐습니다": 6524,
      "##렸고": 6525,
      "걸그룹": 6526,
      "사법": 6527,
      "##해양": 6528,
      "취소": 6529,
      "없애": 6530,
      "싫어": 6531,
      "진행했다": 6532,
      "##사이": 6533,
      "##단으로": 6534,
      "발생할": 6535,
      "느낌을": 6536,
      "정신을": 6537,
      "식물": 6538,
      "up": 6539,
      "부르는": 6540,
      "##레이션": 6541,
      "##마스": 6542,
      "##그래": 6543,
      "##배우": 6544,
      "도내": 6545,
      "##번에": 6546,
      "##주와": 6547,
      "어둠": 6548,
      "보도했다": 6549,
      "##였지만": 6550,
      "##대문": 6551,
      "언니": 6552,
      "지역사회": 6553,
      "시간에": 6554,
      "사장은": 6555,
      "공략": 6556,
      "##나의": 6557,
      "출처": 6558,
      "##감한": 6559,
      "다음달": 6560,
      "행사는": 6561,
      "사회의": 6562,
      "##끼리": 6563,
      "친구가": 6564,
      "신임": 6565,
      "판결": 6566,
      "몰려": 6567,
      "##재로": 6568,
      "깨닫": 6569,
      "##농업": 6570,
      "GS": 6571,
      "앞장": 6572,
      "천연": 6573,
      "보여준다": 6574,
      "여성의": 6575,
      "##됐다고": 6576,
      "교회": 6577,
      "술을": 6578,
      "보여러분의": 6579,
      "##키지": 6580,
      "바르": 6581,
      "table": 6582,
      "확립": 6583,
      "같아": 6584,
      "눈빛": 6585,
      "박영": 6586,
      "나라의": 6587,
      "##수산": 6588,
      "##되자": 6589,
      "##하에": 6590,
      "계기가": 6591,
      "주소": 6592,
      "배려": 6593,
      "##위원회는": 6594,
      "안으로": 6595,
      "대표팀": 6596,
      "아스": 6597,
      "우울": 6598,
      "객관": 6599,
      "오빠": 6600,
      "시의": 6601,
      "최소화": 6602,
      "뚜렷": 6603,
      "검찰은": 6604,
      "76": 6605,
      "은퇴": 6606,
      "밀어": 6607,
      "나누어": 6608,
      "사업에": 6609,
      "나에게": 6610,
      "있었습니다": 6611,
      "이스": 6612,
      "##워서": 6613,
      "겹": 6614,
      "##천만": 6615,
      "##fter": 6616,
      "##시안": 6617,
      "##으로서의": 6618,
      "농협": 6619,
      "##AM": 6620,
      "늘어난": 6621,
      "800": 6622,
      "##달라고": 6623,
      "연관": 6624,
      "많고": 6625,
      "차가": 6626,
      "내내": 6627,
      "머니투데이": 6628,
      "##방향": 6629,
      "##해진다": 6630,
      "##체로": 6631,
      "노래를": 6632,
      "나타내는": 6633,
      "##디아": 6634,
      "OSEN": 6635,
      "##액의": 6636,
      "진화": 6637,
      "빠진": 6638,
      "##었다는": 6639,
      "진정": 6640,
      "##려야": 6641,
      "##혈압": 6642,
      "철도": 6643,
      "이름은": 6644,
      "범위": 6645,
      "처음에는": 6646,
      "김해": 6647,
      "무척": 6648,
      "##감과": 6649,
      "##마는": 6650,
      "NH": 6651,
      "우리를": 6652,
      "몬스터": 6653,
      "도널드": 6654,
      "do": 6655,
      "당사": 6656,
      "올린": 6657,
      "물이": 6658,
      "##증의": 6659,
      "1999": 6660,
      "매장": 6661,
      "남부": 6662,
      "지금도": 6663,
      "낚": 6664,
      "돈이": 6665,
      "마음으로": 6666,
      "김수": 6667,
      "Le": 6668,
      "뭉": 6669,
      "사람과": 6670,
      "1998": 6671,
      "단백": 6672,
      "우려가": 6673,
      "의미한다": 6674,
      "소요": 6675,
      "등장하는": 6676,
      "없기": 6677,
      "##복제": 6678,
      "읽어": 6679,
      "우리에게": 6680,
      "다르게": 6681,
      "테이블": 6682,
      "쓰레": 6683,
      "##사용": 6684,
      "##ph": 6685,
      "좋을": 6686,
      "##드와": 6687,
      "法": 6688,
      "연애": 6689,
      "수치": 6690,
      "08": 6691,
      "커뮤니티": 6692,
      "##ade": 6693,
      "09": 6694,
      "일종의": 6695,
      "내렸다": 6696,
      "##서도": 6697,
      "유대": 6698,
      "##RE": 6699,
      "##살을": 6700,
      "정지": 6701,
      "뒤집": 6702,
      "제정": 6703,
      "뭘": 6704,
      "##뉴시스": 6705,
      "##36": 6706,
      "큐": 6707,
      "스케": 6708,
      "##데이트": 6709,
      "##해요": 6710,
      "뻗": 6711,
      "본인": 6712,
      "Mar": 6713,
      "##축제": 6714,
      "이름으로": 6715,
      "감독의": 6716,
      "몇몇": 6717,
      "않을까": 6718,
      "공화": 6719,
      "##생명": 6720,
      "스트레": 6721,
      "맞게": 6722,
      "메시지를": 6723,
      "휴대": 6724,
      "④": 6725,
      "출연해": 6726,
      "경험이": 6727,
      "##달라": 6728,
      "##힌다": 6729,
      "당초": 6730,
      "89": 6731,
      "이해할": 6732,
      "무리": 6733,
      "수여": 6734,
      "눌": 6735,
      "##kg": 6736,
      "##운용": 6737,
      "분포": 6738,
      "##커스": 6739,
      "더블": 6740,
      "핑": 6741,
      "마라": 6742,
      "##훼손": 6743,
      "Br": 6744,
      "가볍": 6745,
      "5000": 6746,
      "62": 6747,
      "##용품": 6748,
      "백성": 6749,
      "88": 6750,
      "유아": 6751,
      "而": 6752,
      "##학습": 6753,
      "휩": 6754,
      "대결": 6755,
      "며칠": 6756,
      "김대": 6757,
      "동부": 6758,
      "방향족결합": 6759,
      "선수들이": 6760,
      "부품": 6761,
      "##ID": 6762,
      "##실은": 6763,
      "떡": 6764,
      "중부": 6765,
      "##경에": 6766,
      "비서": 6767,
      "##음악": 6768,
      "앓": 6769,
      "##치기": 6770,
      "냈다": 6771,
      "그럼에도": 6772,
      "중지": 6773,
      "사건이": 6774,
      "국가의": 6775,
      "원작": 6776,
      "분야의": 6777,
      "##나와": 6778,
      "일환": 6779,
      "화장품": 6780,
      "참여해": 6781,
      "##도한": 6782,
      "##했어요": 6783,
      "평안": 6784,
      "끌었다": 6785,
      "마스터": 6786,
      "##ert": 6787,
      "종사": 6788,
      "모니터링": 6789,
      "멍": 6790,
      "##구로": 6791,
      "카카오톡": 6792,
      "dis": 6793,
      "이익을": 6794,
      "##가루": 6795,
      "면접": 6796,
      "시대에": 6797,
      "##iph": 6798,
      "짝": 6799,
      "되도록": 6800,
      "대만": 6801,
      "##도에서": 6802,
      "州": 6803,
      "중의": 6804,
      "생각할": 6805,
      "긍정적인": 6806,
      "以": 6807,
      "운동을": 6808,
      "액션": 6809,
      "리더십": 6810,
      "올바른": 6811,
      "##스트로": 6812,
      "닦": 6813,
      "##OC": 6814,
      "게임을": 6815,
      "갖게": 6816,
      "##ames": 6817,
      "##았는데": 6818,
      "##관련": 6819,
      "##수준": 6820,
      "##억원의": 6821,
      "##ane": 6822,
      "진행되는": 6823,
      "이전에": 6824,
      "##분간": 6825,
      "곳을": 6826,
      "##겁게": 6827,
      "##라서": 6828,
      "구역": 6829,
      "지하철": 6830,
      "때에": 6831,
      "컸": 6832,
      "##원들이": 6833,
      "깃": 6834,
      "지분": 6835,
      "##병을": 6836,
      "98": 6837,
      "##들과의": 6838,
      "##점과": 6839,
      "##계층": 6840,
      "도움": 6841,
      "##골을": 6842,
      "지연": 6843,
      "부서": 6844,
      "Nit": 6845,
      "현재까지": 6846,
      "##OL": 6847,
      "낫": 6848,
      "래": 6849,
      "72": 6850,
      "##하라고": 6851,
      "##거렸다": 6852,
      "CC": 6853,
      "매경": 6854,
      "##ony": 6855,
      "할지": 6856,
      "##te": 6857,
      "##수사": 6858,
      "전신": 6859,
      "##목이": 6860,
      "##시장에서": 6861,
      "##경쟁": 6862,
      "세계를": 6863,
      "##이었고": 6864,
      "블록": 6865,
      "##ung": 6866,
      "보냈다": 6867,
      "##시한": 6868,
      "호주": 6869,
      "데리고": 6870,
      "기자회견을": 6871,
      "##ree": 6872,
      "시작한다": 6873,
      "Con": 6874,
      "코스피": 6875,
      "들어간": 6876,
      "노무": 6877,
      "공공기관": 6878,
      "충족": 6879,
      "변신": 6880,
      "돌아오": 6881,
      "##프가": 6882,
      "##roup": 6883,
      "##천군": 6884,
      "배제": 6885,
      "투수": 6886,
      "씨의": 6887,
      "권한대행": 6888,
      "##감은": 6889,
      "##었으며": 6890,
      "미안": 6891,
      "헤어": 6892,
      "their": 6893,
      "##왕의": 6894,
      "##트와": 6895,
      "파리": 6896,
      "##건의": 6897,
      "##형은": 6898,
      "##크는": 6899,
      "##건이": 6900,
      "편성": 6901,
      "목록": 6902,
      "만나는": 6903,
      "출산": 6904,
      "담고": 6905,
      "워싱턴": 6906,
      "##우의": 6907,
      "：": 6908,
      "##oh": 6909,
      "##에요": 6910,
      "되는데": 6911,
      "NSP": 6912,
      "멕": 6913,
      "제공할": 6914,
      "넥센": 6915,
      "나라를": 6916,
      "연구원은": 6917,
      "##NA": 6918,
      "##ank": 6919,
      "씻": 6920,
      "금강": 6921,
      "존중": 6922,
      "모래": 6923,
      "전세계": 6924,
      "접속": 6925,
      "가동": 6926,
      "그림을": 6927,
      "낮아": 6928,
      "this": 6929,
      "일치": 6930,
      "잠깐": 6931,
      "##OT": 6932,
      "포스트": 6933,
      "부채": 6934,
      "놓치면": 6935,
      "##개선": 6936,
      "허가": 6937,
      "公": 6938,
      "##포르": 6939,
      "##린이": 6940,
      "탈출": 6941,
      "##산화": 6942,
      "##마가": 6943,
      "되며": 6944,
      "식사": 6945,
      "단기": 6946,
      "가시": 6947,
      "위장": 6948,
      "필리": 6949,
      "##진한": 6950,
      "보일": 6951,
      "개최했다": 6952,
      "진지": 6953,
      "##됐고": 6954,
      "콘서트": 6955,
      "##봐야": 6956,
      "##미술": 6957,
      "어르신": 6958,
      "##경의": 6959,
      "거라고": 6960,
      "이은": 6961,
      "노하": 6962,
      "##시켰": 6963,
      "가질": 6964,
      "목포": 6965,
      "솔직": 6966,
      "신인": 6967,
      "무조건": 6968,
      "##기만": 6969,
      "참여하는": 6970,
      "않는다는": 6971,
      "##화학": 6972,
      "기분이": 6973,
      "비교해": 6974,
      "##idth": 6975,
      "크레": 6976,
      "##당에": 6977,
      "들어오": 6978,
      "들면": 6979,
      "땀": 6980,
      "수영": 6981,
      "부딪": 6982,
      "구멍": 6983,
      "되었고": 6984,
      "##리즘": 6985,
      "부드러": 6986,
      "너희": 6987,
      "전원": 6988,
      "특징이다": 6989,
      "메인": 6990,
      "무단복제": 6991,
      "##미널": 6992,
      "업데이트": 6993,
      "캐나다": 6994,
      "한때": 6995,
      "소외": 6996,
      "전해졌다": 6997,
      "명을": 6998,
      "한쪽": 6999,
      "걸려": 7000,
      "부터": 7001,
      "성장을": 7002,
      "97": 7003,
      "똑같은": 7004,
      "지역을": 7005,
      "##냐고": 7006,
      "어쨌": 7007,
      "해설": 7008,
      "로맨": 7009,
      "용산": 7010,
      "돌아온": 7011,
      "1995": 7012,
      "##메이": 7013,
      "면역": 7014,
      "##항을": 7015,
      "바로가": 7016,
      "##여야": 7017,
      "착용": 7018,
      "재미있는": 7019,
      "행사에": 7020,
      "워크": 7021,
      "당뇨": 7022,
      "피고": 7023,
      "##형으로": 7024,
      "주제": 7025,
      "층": 7026,
      "아마도": 7027,
      "##본다": 7028,
      "화보": 7029,
      "대표하는": 7030,
      "것보다": 7031,
      "250": 7032,
      "말라": 7033,
      "180": 7034,
      "##점검": 7035,
      "이용하는": 7036,
      "##타운": 7037,
      "시기에": 7038,
      "##하기에": 7039,
      "갖추고": 7040,
      "##기록": 7041,
      "계란": 7042,
      "지명": 7043,
      "즐거운": 7044,
      "시장이": 7045,
      "인간이": 7046,
      "##99": 7047,
      "##we": 7048,
      "안정적인": 7049,
      "첨단": 7050,
      "풍부한": 7051,
      "지방족": 7052,
      "호응": 7053,
      "성분": 7054,
      "종로구": 7055,
      "##선에서": 7056,
      "단속": 7057,
      "##랍니다": 7058,
      "물에": 7059,
      "장착": 7060,
      "살펴보면": 7061,
      "다녀": 7062,
      "묘사": 7063,
      "로드": 7064,
      "##POP": 7065,
      "조치를": 7066,
      "##재의": 7067,
      "최소한": 7068,
      "기후": 7069,
      "환경을": 7070,
      "##조원": 7071,
      "아버지는": 7072,
      "##ina": 7073,
      "공산": 7074,
      "##아트": 7075,
      "후속": 7076,
      "##전한": 7077,
      "##ube": 7078,
      "경제정보": 7079,
      "##소설": 7080,
      "##우기": 7081,
      "##네시아": 7082,
      "##iphatic": 7083,
      "aliphatic": 7084,
      "##lor": 7085,
      "확실한": 7086,
      "서민": 7087,
      "##들에게는": 7088,
      "자아냈다": 7089,
      "##됐으며": 7090,
      "파이낸": 7091,
      "사유": 7092,
      "데일리": 7093,
      "고객의": 7094,
      "대개": 7095,
      "사업은": 7096,
      "기록을": 7097,
      "밝은": 7098,
      "##학자": 7099,
      "달하는": 7100,
      "어디서": 7101,
      "다리": 7102,
      "점유": 7103,
      "##생활을": 7104,
      "비로": 7105,
      "07": 7106,
      "AR": 7107,
      "손님": 7108,
      "이어지는": 7109,
      "박성": 7110,
      "물건을": 7111,
      "에피": 7112,
      "공중": 7113,
      "##회장": 7114,
      "태어나": 7115,
      "유입": 7116,
      "##48": 7117,
      "밸": 7118,
      "##리면서": 7119,
      "##37": 7120,
      "##대화": 7121,
      "##시까지": 7122,
      "농민": 7123,
      "역사적": 7124,
      "##차전": 7125,
      "##미의": 7126,
      "##분께": 7127,
      "##ash": 7128,
      "들을": 7129,
      "##에서부터": 7130,
      "##놀이": 7131,
      "정답": 7132,
      "아니지만": 7133,
      "ab": 7134,
      "神": 7135,
      "웰": 7136,
      "##법으로": 7137,
      "부부": 7138,
      "세운": 7139,
      "나가는": 7140,
      "여행을": 7141,
      "대통령을": 7142,
      "1996": 7143,
      "이자": 7144,
      "서구": 7145,
      "年": 7146,
      "##된다는": 7147,
      "##31": 7148,
      "트리": 7149,
      "투자를": 7150,
      "##광역시": 7151,
      "이들을": 7152,
      "작동": 7153,
      "##겠지": 7154,
      "지은": 7155,
      "연휴": 7156,
      "증정": 7157,
      "상생": 7158,
      "거절": 7159,
      "불을": 7160,
      "##비로": 7161,
      "고마": 7162,
      "Ex": 7163,
      "한강": 7164,
      "흩": 7165,
      "아이의": 7166,
      "우승을": 7167,
      "##산에": 7168,
      "나타난다": 7169,
      "체크": 7170,
      "대답했다": 7171,
      "높이고": 7172,
      "##ition": 7173,
      "권력": 7174,
      "##판매": 7175,
      "##교육을": 7176,
      "서울대": 7177,
      "##조로": 7178,
      "수백": 7179,
      "플래": 7180,
      "하느": 7181,
      "이같은": 7182,
      "가치가": 7183,
      "의지": 7184,
      "##이너": 7185,
      "##센트": 7186,
      "##여자": 7187,
      "투명": 7188,
      "##적은": 7189,
      "##비와": 7190,
      "##고한": 7191,
      "직전": 7192,
      "방사": 7193,
      "궤": 7194,
      "데이터를": 7195,
      "드림": 7196,
      "임직원": 7197,
      "현재는": 7198,
      "변형": 7199,
      "않았지만": 7200,
      "예전": 7201,
      "뽐": 7202,
      "##짜리": 7203,
      "김주": 7204,
      "##총리": 7205,
      "##주었다": 7206,
      "전략을": 7207,
      "정확하게": 7208,
      "한국은": 7209,
      "미래에": 7210,
      "소속사": 7211,
      "##용으로": 7212,
      "사용자": 7213,
      "보여주고": 7214,
      "##되기도": 7215,
      "##cc": 7216,
      "환영": 7217,
      "승진": 7218,
      "꼴": 7219,
      "농가": 7220,
      "자발": 7221,
      "##로로": 7222,
      "기도": 7223,
      "세계적인": 7224,
      "타이어": 7225,
      "지침": 7226,
      "지표": 7227,
      "아이폰": 7228,
      "무관": 7229,
      "색깔": 7230,
      "오염": 7231,
      "##면으로": 7232,
      "이슬람": 7233,
      "##low": 7234,
      "##EL": 7235,
      "매입": 7236,
      "붙어": 7237,
      "융합": 7238,
      "##회와": 7239,
      "논리": 7240,
      "part": 7241,
      "죽을": 7242,
      "대상이": 7243,
      "다음에": 7244,
      "地": 7245,
      "업종": 7246,
      "전후": 7247,
      "유해": 7248,
      "理": 7249,
      "느끼는": 7250,
      "모자": 7251,
      "역을": 7252,
      "##위와": 7253,
      "이상한": 7254,
      "경찰에": 7255,
      "높였다": 7256,
      "온갖": 7257,
      "##물과": 7258,
      "내용의": 7259,
      "said": 7260,
      "##대체": 7261,
      "일정한": 7262,
      "컴백": 7263,
      "##실험": 7264,
      "다하겠다": 7265,
      "##로지": 7266,
      "다이어": 7267,
      "자세히": 7268,
      "모른": 7269,
      "##ene": 7270,
      "이나": 7271,
      "훔": 7272,
      "소형": 7273,
      "택시": 7274,
      "하나를": 7275,
      "##투어": 7276,
      "신입": 7277,
      "청소": 7278,
      "포도": 7279,
      "말했습니다": 7280,
      "종류의": 7281,
      "##5000": 7282,
      "서울중앙지": 7283,
      "##프레": 7284,
      "##드에": 7285,
      "##이었지만": 7286,
      "##수요": 7287,
      "연예뉴스": 7288,
      "##use": 7289,
      "텔레": 7290,
      "##호선": 7291,
      "##라엘": 7292,
      "즉각": 7293,
      "갚": 7294,
      "세계의": 7295,
      "날이": 7296,
      "세금": 7297,
      "싶었다": 7298,
      "부분에": 7299,
      "##행이": 7300,
      "##투표": 7301,
      "배가": 7302,
      "##줘야": 7303,
      "##주년을": 7304,
      "즐겨": 7305,
      "공무": 7306,
      "##법의": 7307,
      "집안": 7308,
      "드라이": 7309,
      "World": 7310,
      "##조에": 7311,
      "##산은": 7312,
      "법적": 7313,
      "대한민국의": 7314,
      "표정을": 7315,
      "##군과": 7316,
      "발을": 7317,
      "솟": 7318,
      "##래도": 7319,
      "##비에": 7320,
      "시나": 7321,
      "水": 7322,
      "율": 7323,
      "자신들의": 7324,
      "##요한": 7325,
      "팩": 7326,
      "##화문": 7327,
      "홀로": 7328,
      "가려": 7329,
      "##치와": 7330,
      "단단": 7331,
      "개그": 7332,
      "유닛": 7333,
      "추진하고": 7334,
      "재활": 7335,
      "사이버": 7336,
      "총괄": 7337,
      "방식을": 7338,
      "촉진": 7339,
      "미친": 7340,
      "year": 7341,
      "중반": 7342,
      "##바람": 7343,
      "아끼": 7344,
      "부담을": 7345,
      "이룬": 7346,
      "캘": 7347,
      "87": 7348,
      "연기를": 7349,
      "도발": 7350,
      "CD": 7351,
      "##55": 7352,
      "어쩌면": 7353,
      "편이다": 7354,
      "##종목": 7355,
      "##크가": 7356,
      "곰": 7357,
      "파이낸셜": 7358,
      "알렉": 7359,
      "부하": 7360,
      "멕시코": 7361,
      "인터뷰에서": 7362,
      "##다리": 7363,
      "장수": 7364,
      "금속": 7365,
      "☞": 7366,
      "##답게": 7367,
      "아카": 7368,
      "Nitrogen": 7369,
      "##트에서": 7370,
      "피아": 7371,
      "중에는": 7372,
      "##34": 7373,
      "과제": 7374,
      "턱": 7375,
      "원활": 7376,
      "엿": 7377,
      "바깥": 7378,
      "끝내": 7379,
      "노력하겠다": 7380,
      "트레이": 7381,
      "##현의": 7382,
      "코너": 7383,
      "팀이": 7384,
      "임원": 7385,
      "기다리고": 7386,
      "상임": 7387,
      "귀족": 7388,
      "진술": 7389,
      "신의": 7390,
      "존재하는": 7391,
      "않았고": 7392,
      "개발한": 7393,
      "이루어진": 7394,
      "신앙": 7395,
      "누리": 7396,
      "bl": 7397,
      "##회담": 7398,
      "##심사": 7399,
      "아닙니다": 7400,
      "##마토": 7401,
      "결의": 7402,
      "##잖아요": 7403,
      "지니고": 7404,
      "셋째": 7405,
      "##디션": 7406,
      "##공개": 7407,
      "늙": 7408,
      "##쾌한": 7409,
      "한참": 7410,
      "무료로": 7411,
      "댓": 7412,
      "##실장": 7413,
      "용량": 7414,
      "거론": 7415,
      "멀티": 7416,
      "##친구": 7417,
      "##추진": 7418,
      "보유한": 7419,
      "##자도": 7420,
      "##이게": 7421,
      "##박한": 7422,
      "##rim": 7423,
      "고려해": 7424,
      "##내용": 7425,
      "그다": 7426,
      "문화를": 7427,
      "토대로": 7428,
      "제재": 7429,
      "높이는": 7430,
      "태어": 7431,
      "한글": 7432,
      "방송을": 7433,
      "선택한": 7434,
      "##PGA": 7435,
      "II": 7436,
      "차기": 7437,
      "군은": 7438,
      "가벼": 7439,
      "신호": 7440,
      "원인이": 7441,
      "##지않": 7442,
      "##지인": 7443,
      "여부": 7444,
      "##스케": 7445,
      "일대": 7446,
      "듣는": 7447,
      "되면서": 7448,
      "##졌던": 7449,
      "비트": 7450,
      "지나치게": 7451,
      "也": 7452,
      "같습니다": 7453,
      "##바다": 7454,
      "가만": 7455,
      "kt": 7456,
      "모은": 7457,
      "##석에": 7458,
      "##oT": 7459,
      "##들었다": 7460,
      "다름": 7461,
      "##따라": 7462,
      "진료": 7463,
      "해방": 7464,
      "내외": 7465,
      "##체육관에서": 7466,
      "아티": 7467,
      "무언": 7468,
      "보유하고": 7469,
      "캔": 7470,
      "권리": 7471,
      "갓": 7472,
      "위험이": 7473,
      "##자본": 7474,
      "day": 7475,
      "규모가": 7476,
      "결과는": 7477,
      "된다고": 7478,
      "지출": 7479,
      "찾아가": 7480,
      "구체적으로": 7481,
      "##실의": 7482,
      "##팀이": 7483,
      "초등": 7484,
      "막을": 7485,
      "돌입": 7486,
      "태어난": 7487,
      "그나마": 7488,
      "미세먼지": 7489,
      "유래": 7490,
      "생각에": 7491,
      "요구하는": 7492,
      "어려워": 7493,
      "##라우드": 7494,
      "밀려": 7495,
      "후에는": 7496,
      "역량을": 7497,
      "선전": 7498,
      "아버지의": 7499,
      "선정된": 7500,
      "수준을": 7501,
      "아들이": 7502,
      "뿌리": 7503,
      "스페셜": 7504,
      "병용투여": 7505,
      "잡았다": 7506,
      "安": 7507,
      "균형": 7508,
      "지향": 7509,
      "에스": 7510,
      "이끄": 7511,
      "##BA": 7512,
      "##ence": 7513,
      "行": 7514,
      "79": 7515,
      "느낌이": 7516,
      "##메달": 7517,
      "타격": 7518,
      "강경": 7519,
      "##피아": 7520,
      "회장이": 7521,
      "성립": 7522,
      "시대를": 7523,
      "플라": 7524,
      "##ors": 7525,
      "##캐스트": 7526,
      "잊지": 7527,
      "응급": 7528,
      "벤처": 7529,
      "폐쇄": 7530,
      "##텔레콤": 7531,
      "못하게": 7532,
      "##고등학교": 7533,
      "아웃": 7534,
      "학생들의": 7535,
      "새끼": 7536,
      "의해서": 7537,
      "답했다": 7538,
      "개통": 7539,
      "##주세요": 7540,
      "두려워": 7541,
      "초래": 7542,
      "랜": 7543,
      "자라": 7544,
      "영화를": 7545,
      "##영업": 7546,
      "##님께": 7547,
      "빛을": 7548,
      "눈앞": 7549,
      "##타는": 7550,
      "아가": 7551,
      "##살이": 7552,
      "드러나": 7553,
      "둘러싼": 7554,
      "##뒀다": 7555,
      "##렸던": 7556,
      "치고": 7557,
      "엘리": 7558,
      "##하자면": 7559,
      "신부": 7560,
      "##금리": 7561,
      "##aw": 7562,
      "No": 7563,
      "알지": 7564,
      "##urn": 7565,
      "그것도": 7566,
      "제어": 7567,
      "중학교": 7568,
      "공간을": 7569,
      "이렇": 7570,
      "있음": 7571,
      "가량": 7572,
      "나타났": 7573,
      "겪고": 7574,
      "화이트": 7575,
      "##양이": 7576,
      "승인": 7577,
      "##eop": 7578,
      "고딕": 7579,
      "##조사를": 7580,
      "또다시": 7581,
      "공작": 7582,
      "##만으로도": 7583,
      "형식": 7584,
      "그간": 7585,
      "##회의를": 7586,
      "손해": 7587,
      "VR": 7588,
      "##생이": 7589,
      "##동은": 7590,
      "인하": 7591,
      "##ss": 7592,
      "복잡한": 7593,
      "이리": 7594,
      "팀의": 7595,
      "비정규": 7596,
      "인기가": 7597,
      "눈으로": 7598,
      "석유": 7599,
      "經": 7600,
      "SM": 7601,
      "주주": 7602,
      "최근에는": 7603,
      "De": 7604,
      "책은": 7605,
      "##초등학교": 7606,
      "##irst": 7607,
      "상태다": 7608,
      "업무협": 7609,
      "간호": 7610,
      "##져서": 7611,
      "진행할": 7612,
      "총장": 7613,
      "제외하고": 7614,
      "구별": 7615,
      "셔": 7616,
      "부지": 7617,
      "##악한": 7618,
      "조언": 7619,
      "잭": 7620,
      "종이": 7621,
      "너는": 7622,
      "성공한": 7623,
      "##소와": 7624,
      "조세": 7625,
      "的": 7626,
      "##any": 7627,
      "수리": 7628,
      "스티": 7629,
      "FI": 7630,
      "프로세": 7631,
      "살짝": 7632,
      "##ci": 7633,
      "##pen": 7634,
      "선수가": 7635,
      "##로도": 7636,
      "그러니": 7637,
      "때리는": 7638,
      "삼국": 7639,
      "여섯": 7640,
      "##쟁이": 7641,
      "en": 7642,
      "측면에서": 7643,
      "생각은": 7644,
      "처음부터": 7645,
      "##행위": 7646,
      "하여금": 7647,
      "##수지": 7648,
      "##outh": 7649,
      "##화한": 7650,
      "##OS": 7651,
      "팬들의": 7652,
      "레이싱": 7653,
      "맡고": 7654,
      "##티즌": 7655,
      "경쟁력": 7656,
      "신세계": 7657,
      "##100": 7658,
      "숨을": 7659,
      "##준은": 7660,
      "다짐": 7661,
      "권장": 7662,
      "인도네시아": 7663,
      "남겨": 7664,
      "남쪽": 7665,
      "##ick": 7666,
      "86": 7667,
      "서류": 7668,
      "일하는": 7669,
      "##테르": 7670,
      "##크의": 7671,
      "굳이": 7672,
      "말레이": 7673,
      "훈련을": 7674,
      "했을": 7675,
      "##ck": 7676,
      "이태": 7677,
      "스타트": 7678,
      "시에": 7679,
      "##행사": 7680,
      "본질": 7681,
      "비중이": 7682,
      "인턴": 7683,
      "下": 7684,
      "##하기는": 7685,
      "##ox": 7686,
      "도모": 7687,
      "뇌물": 7688,
      "##정도": 7689,
      "있을지": 7690,
      "##오를": 7691,
      "남자가": 7692,
      "心": 7693,
      "당일": 7694,
      "증상": 7695,
      "##통합": 7696,
      "지내": 7697,
      "곱": 7698,
      "##적한": 7699,
      "##프의": 7700,
      "높여": 7701,
      "이끄는": 7702,
      "침묵": 7703,
      "num": 7704,
      "明": 7705,
      "때문입니다": 7706,
      "영국의": 7707,
      "보편": 7708,
      "드는": 7709,
      "스포": 7710,
      "##순환": 7711,
      "아니라는": 7712,
      "실시한": 7713,
      "##받침": 7714,
      "##트라": 7715,
      "##트롤": 7716,
      "이스라엘": 7717,
      "드디어": 7718,
      "##주지": 7719,
      "##led": 7720,
      "동참": 7721,
      "##관으로": 7722,
      "기술이": 7723,
      "김선": 7724,
      "모르고": 7725,
      "헛": 7726,
      "##작업": 7727,
      "구독신청": 7728,
      "##우리": 7729,
      "위원장": 7730,
      "자식": 7731,
      "南": 7732,
      "여자가": 7733,
      "골든": 7734,
      "##마켓": 7735,
      "##ict": 7736,
      "##너스": 7737,
      "최우수": 7738,
      "폐기": 7739,
      "미만": 7740,
      "죽음을": 7741,
      "‧": 7742,
      "보면서": 7743,
      "##enter": 7744,
      "소련": 7745,
      "썼다": 7746,
      "3000": 7747,
      "미국이": 7748,
      "인쇄": 7749,
      "##교를": 7750,
      "##곡을": 7751,
      "형제": 7752,
      "##저작권": 7753,
      "##사례": 7754,
      "기록하며": 7755,
      "##파스": 7756,
      "##ose": 7757,
      "코스닥": 7758,
      "96": 7759,
      "구청": 7760,
      "이경": 7761,
      "실시했다": 7762,
      "읽는": 7763,
      "막아": 7764,
      "##긴다": 7765,
      "기쁘": 7766,
      "놓은": 7767,
      "##그러": 7768,
      "##답니다": 7769,
      "속도": 7770,
      "패러": 7771,
      "新": 7772,
      "릴": 7773,
      "오토": 7774,
      "Cl": 7775,
      "역량": 7776,
      "##령이": 7777,
      "지리": 7778,
      "가깝": 7779,
      "북쪽": 7780,
      "펼치고": 7781,
      "식민": 7782,
      "병사": 7783,
      "표정으로": 7784,
      "고객이": 7785,
      "여유": 7786,
      "생기는": 7787,
      "화합": 7788,
      "들어가는": 7789,
      "신동": 7790,
      "Cont": 7791,
      "의뢰": 7792,
      "##범죄": 7793,
      "##희가": 7794,
      "마음의": 7795,
      "700": 7796,
      "불확": 7797,
      "##보지": 7798,
      "의약품": 7799,
      "안동": 7800,
      "국토교통": 7801,
      "##96": 7802,
      "##망이": 7803,
      "읽고": 7804,
      "차지하는": 7805,
      "그렇다": 7806,
      "##철도": 7807,
      "##간담": 7808,
      "의견이": 7809,
      "TH": 7810,
      "##타워": 7811,
      "녹색": 7812,
      "##38": 7813,
      "틀림": 7814,
      "치러": 7815,
      "건의": 7816,
      "저하": 7817,
      "뛰어나": 7818,
      "지자체": 7819,
      "after": 7820,
      "바람이": 7821,
      "##시장은": 7822,
      "혁명": 7823,
      "끄덕": 7824,
      "컨설팅": 7825,
      "순환": 7826,
      "##소프트": 7827,
      "이대": 7828,
      "결제": 7829,
      "##등을": 7830,
      "성공했다": 7831,
      "대학교": 7832,
      "때로는": 7833,
      "##파의": 7834,
      "本": 7835,
      "##구청": 7836,
      "##erman": 7837,
      "수면": 7838,
      "윗": 7839,
      "##농협": 7840,
      "양국": 7841,
      "지불": 7842,
      "철저히": 7843,
      "##여성": 7844,
      "의도": 7845,
      "적지": 7846,
      "치명": 7847,
      "사용되는": 7848,
      "오지": 7849,
      "##95": 7850,
      "랭": 7851,
      "버리고": 7852,
      "이어질": 7853,
      "사실이다": 7854,
      "LA": 7855,
      "시민들이": 7856,
      "각각의": 7857,
      "##hip": 7858,
      "##가며": 7859,
      "살아남": 7860,
      "보증": 7861,
      "##버렸다": 7862,
      "##드린다": 7863,
      "서부": 7864,
      "민원": 7865,
      "당시의": 7866,
      "##판이": 7867,
      "특별히": 7868,
      "사진은": 7869,
      "타입": 7870,
      "학술": 7871,
      "간단한": 7872,
      "^": 7873,
      "짙": 7874,
      "##ax": 7875,
      "목소리": 7876,
      "##라리": 7877,
      "동맹": 7878,
      "cl": 7879,
      "음악을": 7880,
      "순수": 7881,
      "킹": 7882,
      "##ren": 7883,
      "##주행": 7884,
      "##시하는": 7885,
      "##놨다": 7886,
      "경쟁력을": 7887,
      "무대에": 7888,
      "##선과": 7889,
      "필리핀": 7890,
      "we": 7891,
      "나선다": 7892,
      "약은": 7893,
      "꿈꾸": 7894,
      "여야": 7895,
      "추적": 7896,
      "없으며": 7897,
      "##와서": 7898,
      "심의": 7899,
      "##이야기": 7900,
      "붕괴": 7901,
      "my": 7902,
      "##거리를": 7903,
      "##즈가": 7904,
      "지방자치": 7905,
      "##원장": 7906,
      "목소리로": 7907,
      "하드": 7908,
      "댓글": 7909,
      "떨어지는": 7910,
      "##풀이": 7911,
      "박지": 7912,
      "다음날": 7913,
      "동영상": 7914,
      "부작용": 7915,
      "역임": 7916,
      "현장을": 7917,
      "담배": 7918,
      "##포럼": 7919,
      "##키로": 7920,
      "모임": 7921,
      "어머니는": 7922,
      "단축": 7923,
      "평양": 7924,
      "##주인": 7925,
      "신장": 7926,
      "##98": 7927,
      "서식": 7928,
      "제국": 7929,
      "없어서": 7930,
      "나오지": 7931,
      "사회복지": 7932,
      "아저": 7933,
      "거친": 7934,
      "옵션": 7935,
      "어지": 7936,
      "##파일": 7937,
      "스탠드": 7938,
      "이루고": 7939,
      "고전": 7940,
      "##차의": 7941,
      "활성화를": 7942,
      "출생": 7943,
      "피의": 7944,
      "##TE": 7945,
      "매체": 7946,
      "##PC": 7947,
      "두번째": 7948,
      "현행": 7949,
      "##olog": 7950,
      "잡은": 7951,
      "결과에": 7952,
      "##이에요": 7953,
      "이외에도": 7954,
      "안심": 7955,
      "##land": 7956,
      "##교의": 7957,
      "협조": 7958,
      "동양": 7959,
      "갈라": 7960,
      "##월한": 7961,
      "새누리": 7962,
      "##스팅": 7963,
      "하거나": 7964,
      "안양": 7965,
      "움직임": 7966,
      "나누고": 7967,
      "절차를": 7968,
      "올랐": 7969,
      "##셔서": 7970,
      "IoT": 7971,
      "배를": 7972,
      "##욕을": 7973,
      "##됨에": 7974,
      "서양": 7975,
      "President": 7976,
      "미국과": 7977,
      "##견을": 7978,
      "도서": 7979,
      "금액": 7980,
      "삭제": 7981,
      "포스터": 7982,
      "##되는데": 7983,
      "EU": 7984,
      "일으키": 7985,
      "비율": 7986,
      "독서": 7987,
      "세계에서": 7988,
      "##수석": 7989,
      "더해": 7990,
      "강요": 7991,
      "오피스": 7992,
      "출근": 7993,
      "부적": 7994,
      "##행한": 7995,
      "때문이었다": 7996,
      "원정": 7997,
      "고성": 7998,
      "움직이는": 7999,
      "Part": 8000,
      "태평": 8001,
      "웬": 8002,
      "다수": 8003,
      "얻었다": 8004,
      "규모로": 8005,
      "한마": 8006,
      "김정은": 8007,
      "상무": 8008,
      "준공": 8009,
      "광주시": 8010,
      "##아웃": 8011,
      "모으고": 8012,
      "##진에": 8013,
      "ester": 8014,
      "드래곤": 8015,
      "과학기술": 8016,
      "했다는": 8017,
      "특성을": 8018,
      "추측": 8019,
      "네티즌": 8020,
      "펼쳤다": 8021,
      "##ild": 8022,
      "小": 8023,
      "발급": 8024,
      "##단다": 8025,
      "정작": 8026,
      "자유롭게": 8027,
      "선보인다": 8028,
      "인상을": 8029,
      "국가대표": 8030,
      "##반을": 8031,
      "비용을": 8032,
      "正": 8033,
      "엽": 8034,
      "평범한": 8035,
      "원의": 8036,
      "채워": 8037,
      "탓에": 8038,
      "##감에": 8039,
      "협상": 8040,
      "##동물": 8041,
      "산업혁명": 8042,
      "짐작": 8043,
      "카운": 8044,
      "이로써": 8045,
      "떠난": 8046,
      "감상": 8047,
      "나면": 8048,
      "##ext": 8049,
      "계절": 8050,
      "♥": 8051,
      "일어나는": 8052,
      "가격은": 8053,
      "반려": 8054,
      "간다": 8055,
      "몰라": 8056,
      "##데요": 8057,
      "##왔던": 8058,
      "##가요": 8059,
      "않으며": 8060,
      "##중심": 8061,
      "실시한다": 8062,
      "부회장": 8063,
      "##만원의": 8064,
      "##공연": 8065,
      "##tern": 8066,
      "##시청": 8067,
      "해상": 8068,
      "##저작권자": 8069,
      "터뜨": 8070,
      "해수": 8071,
      "##졌다고": 8072,
      "##사회의": 8073,
      "##코올": 8074,
      "구름": 8075,
      "평택": 8076,
      "주먹": 8077,
      "정도가": 8078,
      "##됐던": 8079,
      "높게": 8080,
      "도심": 8081,
      "성공을": 8082,
      "분위기가": 8083,
      "위치를": 8084,
      "몹": 8085,
      "##중이": 8086,
      "유일하게": 8087,
      "고구려": 8088,
      "##들로부터": 8089,
      "##라를": 8090,
      "대변인은": 8091,
      "갈수록": 8092,
      "커플": 8093,
      "나설": 8094,
      "에피소": 8095,
      "그야말로": 8096,
      "김희": 8097,
      "##안보": 8098,
      "재생": 8099,
      "이준": 8100,
      "##오프": 8101,
      "다스": 8102,
      "바람직": 8103,
      "보내는": 8104,
      "이혼": 8105,
      "네덜": 8106,
      "확신": 8107,
      "유력": 8108,
      "문화예술": 8109,
      "브레이": 8110,
      "이후에": 8111,
      "##센터는": 8112,
      "워너": 8113,
      "정해": 8114,
      "예외": 8115,
      "##ann": 8116,
      "##33": 8117,
      "되자": 8118,
      "도구": 8119,
      "기뻐": 8120,
      "확충": 8121,
      "주변에": 8122,
      "방영": 8123,
      "빠져나": 8124,
      "필요로": 8125,
      "##렸을": 8126,
      "氣": 8127,
      "아이들은": 8128,
      "팝": 8129,
      "平": 8130,
      "1970": 8131,
      "Ph": 8132,
      "비디오": 8133,
      "만났": 8134,
      "다니는": 8135,
      "유승민": 8136,
      "배당": 8137,
      "##고에": 8138,
      "주체": 8139,
      "참여할": 8140,
      "##편의": 8141,
      "그릇": 8142,
      "사용해": 8143,
      "##으려": 8144,
      "서술": 8145,
      "곳이다": 8146,
      "##면에서": 8147,
      "아이는": 8148,
      "진실": 8149,
      "후보자": 8150,
      "##eople": 8151,
      "SU": 8152,
      "힘입": 8153,
      "##악의": 8154,
      "but": 8155,
      "二": 8156,
      "둘러싸": 8157,
      "##타임스": 8158,
      "other": 8159,
      "가라": 8160,
      "내달": 8161,
      "연구를": 8162,
      "아기": 8163,
      "##창업": 8164,
      "것만": 8165,
      "##만원으로": 8166,
      "##느라": 8167,
      "AC": 8168,
      "게이": 8169,
      "감동": 8170,
      "와이": 8171,
      "살려": 8172,
      "리스크": 8173,
      "##르며": 8174,
      "##ics": 8175,
      "##스카": 8176,
      "원장": 8177,
      "##ler": 8178,
      "##enz": 8179,
      "이어졌다": 8180,
      "덴": 8181,
      "감추": 8182,
      "기본적인": 8183,
      "수요가": 8184,
      "얽": 8185,
      "클래식": 8186,
      "비로소": 8187,
      "베이징": 8188,
      "최고위원": 8189,
      "포착": 8190,
      "묻는": 8191,
      "일환으로": 8192,
      "성향": 8193,
      "해안": 8194,
      "포르": 8195,
      "박진": 8196,
      "박수": 8197,
      "집어": 8198,
      "其": 8199,
      "추세": 8200,
      "##교사": 8201,
      "크기": 8202,
      "도대체": 8203,
      "저소득": 8204,
      "엄마가": 8205,
      "##인도": 8206,
      "것일까": 8207,
      "음원": 8208,
      "서해": 8209,
      "##고의": 8210,
      "개척": 8211,
      "제작발표": 8212,
      "##RI": 8213,
      "보여준": 8214,
      "말이야": 8215,
      "매니": 8216,
      "굿": 8217,
      "제시한": 8218,
      "맡았다": 8219,
      "유동": 8220,
      "다수의": 8221,
      "##만명": 8222,
      "흠": 8223,
      "적발": 8224,
      "전역": 8225,
      "아무래도": 8226,
      "귀국": 8227,
      "않겠": 8228,
      "장을": 8229,
      "##계는": 8230,
      "##훈은": 8231,
      "창립": 8232,
      "말하면": 8233,
      "파이낸셜뉴스": 8234,
      "다채": 8235,
      "상향": 8236,
      "주사": 8237,
      "포스코": 8238,
      "유사한": 8239,
      "##reat": 8240,
      "##태를": 8241,
      "시달": 8242,
      "청문": 8243,
      "짚": 8244,
      "##럽게": 8245,
      "걸린": 8246,
      "methyl": 8247,
      "##드에서": 8248,
      "거리를": 8249,
      "만성": 8250,
      "##돼야": 8251,
      "##면이": 8252,
      "제이": 8253,
      "다를": 8254,
      "일이었다": 8255,
      "##저히": 8256,
      "bet": 8257,
      "광화문": 8258,
      "기본적으로": 8259,
      "##신경": 8260,
      "시간은": 8261,
      "간편": 8262,
      "수급": 8263,
      "##자들과": 8264,
      "포장": 8265,
      "슬픔": 8266,
      "누군가": 8267,
      "사전에": 8268,
      "사용하고": 8269,
      "화제를": 8270,
      "##스레": 8271,
      "##보증": 8272,
      "보게": 8273,
      "여수": 8274,
      "입장에서": 8275,
      "##왕이": 8276,
      "sec": 8277,
      "미국에서": 8278,
      "태도를": 8279,
      "##72": 8280,
      "##차에": 8281,
      "북핵": 8282,
      "##AC": 8283,
      "참고로": 8284,
      "일관": 8285,
      "쓰지": 8286,
      "․": 8287,
      "포털": 8288,
      "2019": 8289,
      "비정규직": 8290,
      "조용히": 8291,
      "##작을": 8292,
      "대량": 8293,
      "전체의": 8294,
      "태극": 8295,
      "長": 8296,
      "아메": 8297,
      "훼손": 8298,
      "마크": 8299,
      "고발": 8300,
      "위원장은": 8301,
      "재밌": 8302,
      "##건으로": 8303,
      "##의가": 8304,
      "##row": 8305,
      "길게": 8306,
      "냉장": 8307,
      "활동에": 8308,
      "##ulf": 8309,
      "재벌": 8310,
      "뱀": 8311,
      "성공적으로": 8312,
      "##우며": 8313,
      "##박물관": 8314,
      "제품의": 8315,
      "수주": 8316,
      "막기": 8317,
      "부른다": 8318,
      "##르의": 8319,
      "공동으로": 8320,
      "조명": 8321,
      "배달": 8322,
      "##ink": 8323,
      "팀을": 8324,
      "家": 8325,
      "워낙": 8326,
      "도중": 8327,
      "톨": 8328,
      "##내지": 8329,
      "있었기": 8330,
      "##자고": 8331,
      "##회관": 8332,
      "상처를": 8333,
      "조종": 8334,
      "##시피": 8335,
      "관여": 8336,
      "흥행": 8337,
      "##잡고": 8338,
      "이현": 8339,
      "##색으로": 8340,
      "br": 8341,
      "##하우스": 8342,
      "##orth": 8343,
      "앨": 8344,
      "te": 8345,
      "사항은": 8346,
      "##킨다": 8347,
      "이념": 8348,
      "##중공업": 8349,
      "찾고": 8350,
      "어쨌든": 8351,
      "고통을": 8352,
      "남의": 8353,
      "넘겨": 8354,
      "간접": 8355,
      "사용자가": 8356,
      "치매": 8357,
      "##폭력": 8358,
      "충전": 8359,
      "놓여": 8360,
      "##로이드": 8361,
      "과거의": 8362,
      "の": 8363,
      "##췄다": 8364,
      "치열한": 8365,
      "94": 8366,
      "개성": 8367,
      "대표이사": 8368,
      "고유": 8369,
      "##된다고": 8370,
      "베어": 8371,
      "위기를": 8372,
      "날카": 8373,
      "##거리며": 8374,
      "진행하는": 8375,
      "되찾": 8376,
      "##페이스북": 8377,
      "##시장의": 8378,
      "납부": 8379,
      "、": 8380,
      "땅을": 8381,
      "전자신문": 8382,
      "性": 8383,
      "##산과": 8384,
      "時": 8385,
      "크로": 8386,
      "수를": 8387,
      "출마": 8388,
      "##위에서": 8389,
      "##책임": 8390,
      "사물": 8391,
      "캠프": 8392,
      "맞서": 8393,
      "빌려": 8394,
      "##미지": 8395,
      "오늘은": 8396,
      "Be": 8397,
      "생애": 8398,
      "아니라고": 8399,
      "위기에": 8400,
      "노트": 8401,
      "언젠": 8402,
      "품목": 8403,
      "말하며": 8404,
      "케이블": 8405,
      "##중을": 8406,
      "##vent": 8407,
      "대외": 8408,
      "속도를": 8409,
      "고속도로": 8410,
      "희망을": 8411,
      "여성이": 8412,
      "해운": 8413,
      "도는": 8414,
      "불이": 8415,
      "했으나": 8416,
      "넌": 8417,
      "들여다": 8418,
      "단어": 8419,
      "시점": 8420,
      "고교": 8421,
      "뜻이다": 8422,
      "끌어올": 8423,
      "부대": 8424,
      "세트": 8425,
      "##도우": 8426,
      "하얀": 8427,
      "맞지": 8428,
      "##ublic": 8429,
      "응용": 8430,
      "수험": 8431,
      "동쪽": 8432,
      "##청이": 8433,
      "저도": 8434,
      "혼합": 8435,
      "급증": 8436,
      "적을": 8437,
      "CG": 8438,
      "소식": 8439,
      "스튜디오": 8440,
      "버렸다": 8441,
      "극본": 8442,
      "모았다": 8443,
      "티켓": 8444,
      "최다": 8445,
      "##러리": 8446,
      "##금의": 8447,
      "도서관": 8448,
      "텍스트": 8449,
      "##회말": 8450,
      "허리": 8451,
      "사업이": 8452,
      "##ah": 8453,
      "투쟁": 8454,
      "존경": 8455,
      "금호": 8456,
      "작가의": 8457,
      "궁극": 8458,
      "##분은": 8459,
      "세무": 8460,
      "마련됐다": 8461,
      "콘셉": 8462,
      "바닷": 8463,
      "야외": 8464,
      "외모": 8465,
      "상태가": 8466,
      "불가피": 8467,
      "못했던": 8468,
      "노선": 8469,
      "발효": 8470,
      "##침을": 8471,
      "다룬": 8472,
      "##구와": 8473,
      "##che": 8474,
      "들어갈": 8475,
      "생겼": 8476,
      "조지": 8477,
      "##생의": 8478,
      "연재물": 8479,
      "것들이": 8480,
      "편지를": 8481,
      "##주얼": 8482,
      "##에서만": 8483,
      "##화하는": 8484,
      "불리": 8485,
      "##포토": 8486,
      "페르": 8487,
      "##제약": 8488,
      "험": 8489,
      "동시": 8490,
      "흐르는": 8491,
      "하나님의": 8492,
      "##통상": 8493,
      "##결정": 8494,
      "싶지": 8495,
      "##연수": 8496,
      "진로": 8497,
      "##75": 8498,
      "##Cube": 8499,
      "기대하고": 8500,
      "##롭고": 8501,
      "##px": 8502,
      "##터가": 8503,
      "바로가저작권자": 8504,
      "바로가저작권자서울경제": 8505,
      "##화에서": 8506,
      "빨간": 8507,
      "적폐": 8508,
      "상의": 8509,
      "당한": 8510,
      "##이었습니다": 8511,
      "안타까": 8512,
      "전체를": 8513,
      "##와이": 8514,
      "사건의": 8515,
      "시작해": 8516,
      "##oint": 8517,
      "알리": 8518,
      "출국": 8519,
      "봐야": 8520,
      "이끌고": 8521,
      "알레": 8522,
      "故": 8523,
      "##호와": 8524,
      "같아요": 8525,
      "정원": 8526,
      "##마크": 8527,
      "덤": 8528,
      "##포먼": 8529,
      "정규직": 8530,
      "정우": 8531,
      "가능성도": 8532,
      "시청자들의": 8533,
      "##시리즈": 8534,
      "서쪽": 8535,
      "##벤처": 8536,
      "##리포": 8537,
      "##웠던": 8538,
      "if": 8539,
      "놀라운": 8540,
      "이상으로": 8541,
      "##범위": 8542,
      "점도": 8543,
      "##용량": 8544,
      "킬": 8545,
      "엑스포츠뉴스": 8546,
      "##기한": 8547,
      "증언": 8548,
      "##였는데": 8549,
      "##권과": 8550,
      "숙박": 8551,
      "##디는": 8552,
      "바라는": 8553,
      "갱": 8554,
      "구속영": 8555,
      "가속": 8556,
      "##공헌": 8557,
      "거다": 8558,
      "Δ": 8559,
      "브리핑": 8560,
      "##ction": 8561,
      "지능": 8562,
      "##백화점": 8563,
      "##프리": 8564,
      "쇼케이": 8565,
      "경향이": 8566,
      "##비전": 8567,
      "관해": 8568,
      "##님과": 8569,
      "수습": 8570,
      "생각하면": 8571,
      "##입니까": 8572,
      "##렸습니다": 8573,
      "##상승": 8574,
      "지었다": 8575,
      "##까지의": 8576,
      "##ater": 8577,
      "이병": 8578,
      "밭": 8579,
      "넘게": 8580,
      "유출": 8581,
      "말레이시아": 8582,
      "시인": 8583,
      "미국은": 8584,
      "선보인": 8585,
      "이며": 8586,
      "기대감을": 8587,
      "자이": 8588,
      "사용하여": 8589,
      "엔터테인먼트": 8590,
      "아닐까": 8591,
      "호기": 8592,
      "##운전": 8593,
      "자기의": 8594,
      "보건복지": 8595,
      "장치": 8596,
      "수상한": 8597,
      "시정": 8598,
      "##금으로": 8599,
      "##ium": 8600,
      "##국으로": 8601,
      "71": 8602,
      "마련했다": 8603,
      "갑작": 8604,
      "VO": 8605,
      "자꾸": 8606,
      "城": 8607,
      "합성": 8608,
      "윤리": 8609,
      "의결": 8610,
      "분할": 8611,
      "##문과": 8612,
      "찬성": 8613,
      "주간": 8614,
      "##lu": 8615,
      "뜬": 8616,
      "한국시간": 8617,
      "존재한다": 8618,
      "##니가": 8619,
      "its": 8620,
      "160": 8621,
      "후배": 8622,
      "분석했다": 8623,
      "##업무": 8624,
      "義": 8625,
      "캠페인": 8626,
      "##루를": 8627,
      "##시하고": 8628,
      "##pe": 8629,
      "高": 8630,
      "##론이": 8631,
      "추모": 8632,
      "##들고": 8633,
      "Korean": 8634,
      "di": 8635,
      "아나운": 8636,
      "테크": 8637,
      "익숙": 8638,
      "관절": 8639,
      "채무": 8640,
      "선제": 8641,
      "청약": 8642,
      "이집": 8643,
      "지지를": 8644,
      "피해가": 8645,
      "##되었던": 8646,
      "명품": 8647,
      "벗어": 8648,
      "힘입어": 8649,
      "까닭": 8650,
      "MK": 8651,
      "눈치": 8652,
      "##론의": 8653,
      "UN": 8654,
      "Gr": 8655,
      "중에서도": 8656,
      "물류": 8657,
      "##하라는": 8658,
      "시청률": 8659,
      "##ound": 8660,
      "##강을": 8661,
      "점포": 8662,
      "고도": 8663,
      "韓": 8664,
      "친구맺": 8665,
      "가기": 8666,
      "##머리": 8667,
      "뷰티": 8668,
      "브라질": 8669,
      "##일자": 8670,
      "패널": 8671,
      "北": 8672,
      "씨를": 8673,
      "노예": 8674,
      "조달": 8675,
      "갖춰": 8676,
      "작품은": 8677,
      "부각": 8678,
      "##실히": 8679,
      "얻는": 8680,
      "사고가": 8681,
      "지원한다": 8682,
      "##ttp": 8683,
      "머릿": 8684,
      "사이트": 8685,
      "width": 8686,
      "##으려고": 8687,
      "##공장": 8688,
      "전송": 8689,
      "병행": 8690,
      "실망": 8691,
      "이르기까지": 8692,
      "##inis": 8693,
      "유지하고": 8694,
      "득점": 8695,
      "##AP": 8696,
      "맛을": 8697,
      "##uary": 8698,
      "배포": 8699,
      "아티스트": 8700,
      "노무현": 8701,
      "분야에": 8702,
      "陽": 8703,
      "가볍게": 8704,
      "##46": 8705,
      "##TI": 8706,
      "차이를": 8707,
      "행운": 8708,
      "콤": 8709,
      "오래된": 8710,
      "##쉽게": 8711,
      "소규모": 8712,
      "중장": 8713,
      "고생": 8714,
      "##둘러": 8715,
      "李": 8716,
      "위험한": 8717,
      "나쁘": 8718,
      "협업": 8719,
      "짓고": 8720,
      "무의": 8721,
      "추진할": 8722,
      "아파": 8723,
      "가르쳐": 8724,
      "사업의": 8725,
      "대거": 8726,
      "##버그": 8727,
      "설문": 8728,
      "##베르": 8729,
      "흐름을": 8730,
      "놀이": 8731,
      "##컨대": 8732,
      "받으며": 8733,
      "자원봉사": 8734,
      "무선": 8735,
      "성취": 8736,
      "입찰": 8737,
      "##람회": 8738,
      "##데미": 8739,
      "##속보이는": 8740,
      "##었기": 8741,
      "##파스속보이는": 8742,
      "편입": 8743,
      "관할": 8744,
      "일어날": 8745,
      "일요일": 8746,
      "하천": 8747,
      "##우러": 8748,
      "정도는": 8749,
      "화를": 8750,
      "##용이": 8751,
      "인류": 8752,
      "##재료": 8753,
      "깎": 8754,
      "라이프": 8755,
      "##준비": 8756,
      "만나세요": 8757,
      "느끼고": 8758,
      "봅": 8759,
      "극대화": 8760,
      "정말로": 8761,
      "##NG": 8762,
      "한경": 8763,
      "##서비스를": 8764,
      "어머니가": 8765,
      "##맞은": 8766,
      "##열을": 8767,
      "##DB": 8768,
      "이하의": 8769,
      "현상이": 8770,
      "업그": 8771,
      "##예산": 8772,
      "기능이": 8773,
      "드러났다": 8774,
      "협력을": 8775,
      "간에": 8776,
      "ww": 8777,
      "##az": 8778,
      "##야만": 8779,
      "받기": 8780,
      "퍼포먼": 8781,
      "초점을": 8782,
      "경매": 8783,
      "다행히": 8784,
      "보이며": 8785,
      "나란히": 8786,
      "##예방": 8787,
      "##음은": 8788,
      "적합한": 8789,
      "경제신문": 8790,
      "주장을": 8791,
      "절감": 8792,
      "##세이": 8793,
      "났": 8794,
      "##DP": 8795,
      "북부": 8796,
      "##족의": 8797,
      "연대": 8798,
      "##워드": 8799,
      "수목": 8800,
      "동북": 8801,
      "잃어버": 8802,
      "국민이": 8803,
      "드리": 8804,
      "우리나라의": 8805,
      "듯하다": 8806,
      "쌓아": 8807,
      "부담이": 8808,
      "없으면": 8809,
      "페스티벌": 8810,
      "##일랜드": 8811,
      "웃었다": 8812,
      "결심": 8813,
      "##으로도": 8814,
      "##급여": 8815,
      "전경": 8816,
      "부러": 8817,
      "신생": 8818,
      "알았다": 8819,
      "조리": 8820,
      "귀여": 8821,
      "귀를": 8822,
      "##때로": 8823,
      "안고": 8824,
      "강화를": 8825,
      "변화에": 8826,
      "1994": 8827,
      "관심과": 8828,
      "춘천": 8829,
      "##회초": 8830,
      "사용하지": 8831,
      "배우는": 8832,
      "##소비": 8833,
      "##층에": 8834,
      "##보장": 8835,
      "##왕은": 8836,
      "보스": 8837,
      "김병": 8838,
      "##레인": 8839,
      "문제의": 8840,
      "실시하고": 8841,
      "##센터를": 8842,
      "##심판": 8843,
      "애초": 8844,
      "진주": 8845,
      "적정": 8846,
      "일방": 8847,
      "지나지": 8848,
      "##시설을": 8849,
      "##랑이": 8850,
      "심판": 8851,
      "투여를": 8852,
      "아래로": 8853,
      "분기": 8854,
      "김포": 8855,
      "두드러": 8856,
      "나이가": 8857,
      "##인들": 8858,
      "실력": 8859,
      "##규의": 8860,
      "매출액": 8861,
      "##oo": 8862,
      "유전자": 8863,
      "법을": 8864,
      "전까지": 8865,
      "백악": 8866,
      "成": 8867,
      "현실을": 8868,
      "관점에서": 8869,
      "##주간": 8870,
      "분들이": 8871,
      "디자이너": 8872,
      "##포인트": 8873,
      "완벽하게": 8874,
      "극단": 8875,
      "생리": 8876,
      "##하기가": 8877,
      "www": 8878,
      "##타로": 8879,
      "적어": 8880,
      "뽑아": 8881,
      "마포구": 8882,
      "하나인": 8883,
      "장관이": 8884,
      "구제": 8885,
      "수사를": 8886,
      "합쳐": 8887,
      "수산": 8888,
      "부정적인": 8889,
      "##ons": 8890,
      "몫": 8891,
      "포켓": 8892,
      "트로": 8893,
      "##ivers": 8894,
      "그중": 8895,
      "해체": 8896,
      "ph": 8897,
      "당신을": 8898,
      "전사": 8899,
      "유로": 8900,
      "시작하는": 8901,
      "##보라": 8902,
      "이어진": 8903,
      "상호작용": 8904,
      "##아지": 8905,
      "##디스": 8906,
      "##씨와": 8907,
      "##가치": 8908,
      "회의를": 8909,
      "##ike": 8910,
      "모를": 8911,
      "1991": 8912,
      "美": 8913,
      "##사업에": 8914,
      "pre": 8915,
      "실질적인": 8916,
      "론": 8917,
      "이사장": 8918,
      "국제뉴스": 8919,
      "German": 8920,
      "##었어요": 8921,
      "##위원회가": 8922,
      "교수가": 8923,
      "한국에": 8924,
      "재개": 8925,
      "본인이": 8926,
      "매도": 8927,
      "손상": 8928,
      "과학자": 8929,
      "##하셨": 8930,
      "爲": 8931,
      "믿을": 8932,
      "##vel": 8933,
      "고속": 8934,
      "인민": 8935,
      "참여를": 8936,
      "##국장": 8937,
      "알파": 8938,
      "110": 8939,
      "의장": 8940,
      "##공학": 8941,
      "계급": 8942,
      "스승": 8943,
      "몰랐": 8944,
      "육아": 8945,
      "롱": 8946,
      "##ae": 8947,
      "언덕": 8948,
      "경기에": 8949,
      "태국": 8950,
      "의혹을": 8951,
      "다해": 8952,
      "나은": 8953,
      "공주": 8954,
      "##디자인": 8955,
      "잃은": 8956,
      "##펀드": 8957,
      "생각하지": 8958,
      "시민들의": 8959,
      "조례": 8960,
      "口": 8961,
      "실업": 8962,
      "##투를": 8963,
      "거울": 8964,
      "무덤": 8965,
      "록": 8966,
      "##89": 8967,
      "가짜": 8968,
      "자문": 8969,
      "텐데": 8970,
      "지역은": 8971,
      "이적": 8972,
      "일부를": 8973,
      "해요": 8974,
      "경비": 8975,
      "시나리오": 8976,
      "스크린": 8977,
      "굵": 8978,
      "철저한": 8979,
      "스탠드에서도": 8980,
      "이어지고": 8981,
      "한해": 8982,
      "부드러운": 8983,
      "임상시험": 8984,
      "##홈런": 8985,
      "위험을": 8986,
      "石": 8987,
      "탑승": 8988,
      "행위를": 8989,
      "만나세요뉴시스": 8990,
      "##든가": 8991,
      "몰래": 8992,
      "그래픽": 8993,
      "복원": 8994,
      "##셔널": 8995,
      "##인들을": 8996,
      "알코올": 8997,
      "스타트업": 8998,
      "프로모": 8999,
      "얼굴에": 9000,
      "연설": 9001,
      "정수": 9002,
      "##림이": 9003,
      "발언을": 9004,
      "헨": 9005,
      "국정농": 9006,
      "사퇴": 9007,
      "알았": 9008,
      "해피": 9009,
      "모험": 9010,
      "##황을": 9011,
      "숨어": 9012,
      "해군": 9013,
      "꾀": 9014,
      "수확": 9015,
      "Ind": 9016,
      "수익을": 9017,
      "생길": 9018,
      "##참여": 9019,
      "이명박": 9020,
      "한가": 9021,
      "침해": 9022,
      "지원할": 9023,
      "한국과": 9024,
      "순으로": 9025,
      "##란을": 9026,
      "##65": 9027,
      "붓": 9028,
      "원전": 9029,
      "봐도": 9030,
      "마땅": 9031,
      "##타자": 9032,
      "제도를": 9033,
      "##코노": 9034,
      "장미": 9035,
      "##net": 9036,
      "##PS": 9037,
      "탱": 9038,
      "퇴직": 9039,
      "결정했다": 9040,
      "대다": 9041,
      "연상": 9042,
      "보내고": 9043,
      "##둥이": 9044,
      "구미": 9045,
      "##한경": 9046,
      "의외": 9047,
      "돌아왔다": 9048,
      "비유": 9049,
      "##정신": 9050,
      "녀석": 9051,
      "##pl": 9052,
      "미칠": 9053,
      "급여": 9054,
      "사고를": 9055,
      "##되거나": 9056,
      "타이틀곡": 9057,
      "점령": 9058,
      "인생을": 9059,
      "관련이": 9060,
      "거지": 9061,
      "대안": 9062,
      "육군": 9063,
      "피해자": 9064,
      "##톨릭": 9065,
      "재건축": 9066,
      "맘": 9067,
      "구조를": 9068,
      "알리는": 9069,
      "##사항을": 9070,
      "##현실": 9071,
      "##파가": 9072,
      "토요일": 9073,
      "不": 9074,
      "컨트롤": 9075,
      "##문으로": 9076,
      "130": 9077,
      "폭력": 9078,
      "찾아가는": 9079,
      "개발을": 9080,
      "##고속도로": 9081,
      "기준을": 9082,
      "상영": 9083,
      "##청문": 9084,
      "주변의": 9085,
      "등장한": 9086,
      "##없다": 9087,
      "켜": 9088,
      "##경향": 9089,
      "선정됐다": 9090,
      "혈압": 9091,
      "##방에서": 9092,
      "노란": 9093,
      "##41": 9094,
      "배경으로": 9095,
      "갈아": 9096,
      "月": 9097,
      "##희의": 9098,
      "영향으로": 9099,
      "후보의": 9100,
      "청렴": 9101,
      "##할지": 9102,
      "무엇인지": 9103,
      "##YP": 9104,
      "싱가": 9105,
      "부드": 9106,
      "났다": 9107,
      "친구맺기": 9108,
      "가만히": 9109,
      "##wo": 9110,
      "비판했다": 9111,
      "방탄": 9112,
      "가지는": 9113,
      "읽을": 9114,
      "인적": 9115,
      "##플러": 9116,
      "##졌다는": 9117,
      "착수": 9118,
      "국내에서": 9119,
      "##기에는": 9120,
      "신곡": 9121,
      "러브": 9122,
      "##퍼스": 9123,
      "제휴": 9124,
      "이겨": 9125,
      "세이": 9126,
      "차세대": 9127,
      "의사를": 9128,
      "총리": 9129,
      "양산": 9130,
      "끈다": 9131,
      "공원": 9132,
      "참으로": 9133,
      "##위원회를": 9134,
      "프린": 9135,
      "##ier": 9136,
      "##집니다": 9137,
      "##기에서": 9138,
      "스틸": 9139,
      "말씀을": 9140,
      "제임": 9141,
      "살아가는": 9142,
      "출신의": 9143,
      "match": 9144,
      "낮추": 9145,
      "왕이": 9146,
      "절대로": 9147,
      "한달": 9148,
      "배운": 9149,
      "서서히": 9150,
      "국정원": 9151,
      "때때로": 9152,
      "##ise": 9153,
      "급격": 9154,
      "new": 9155,
      "약한": 9156,
      "중독": 9157,
      "무력": 9158,
      "사무총": 9159,
      "pol": 9160,
      "自": 9161,
      "설명이다": 9162,
      "主": 9163,
      "복수": 9164,
      "회사는": 9165,
      "##온은": 9166,
      "급성": 9167,
      "땅에": 9168,
      "연수": 9169,
      "##oy": 9170,
      "아까": 9171,
      "이고": 9172,
      "##토리": 9173,
      "받아야": 9174,
      "삽입": 9175,
      "달라고": 9176,
      "갇": 9177,
      "어려울": 9178,
      "##토론": 9179,
      "않다는": 9180,
      "##복합": 9181,
      "김준": 9182,
      "간주": 9183,
      "일자리를": 9184,
      "##파를": 9185,
      "월화": 9186,
      "관리를": 9187,
      "한계": 9188,
      "소수": 9189,
      "1987": 9190,
      "마이크로": 9191,
      "방송에서": 9192,
      "투자의": 9193,
      "중국이": 9194,
      "교육과": 9195,
      "별도의": 9196,
      "##골프": 9197,
      "피로": 9198,
      "##런스": 9199,
      "##터는": 9200,
      "##인증": 9201,
      "공부를": 9202,
      "남해": 9203,
      "##나를": 9204,
      "개최한다": 9205,
      "허락": 9206,
      "##신고": 9207,
      "##장애인": 9208,
      "##함은": 9209,
      "선보일": 9210,
      "##하를": 9211,
      "유연": 9212,
      "솔루션": 9213,
      "던져": 9214,
      "인간은": 9215,
      "##cy": 9216,
      "고수": 9217,
      "표창": 9218,
      "##경기에서": 9219,
      "좋고": 9220,
      "##라이언": 9221,
      "기업은": 9222,
      "##본부장": 9223,
      "어두운": 9224,
      "##는데요": 9225,
      "##stem": 9226,
      "보라": 9227,
      "성적을": 9228,
      "대상을": 9229,
      "수렴": 9230,
      "사우": 9231,
      "##하더라도": 9232,
      "##주식": 9233,
      "十": 9234,
      "모습이다": 9235,
      "문화재": 9236,
      "확인하고": 9237,
      "South": 9238,
      "ICT": 9239,
      "해제": 9240,
      "시골": 9241,
      "##itt": 9242,
      "번도": 9243,
      "##기업의": 9244,
      "프랜": 9245,
      "사령": 9246,
      "터키": 9247,
      "고맙": 9248,
      "비극": 9249,
      "##였으며": 9250,
      "##주의적": 9251,
      "이곳에": 9252,
      "##인물": 9253,
      "그러다": 9254,
      "최적": 9255,
      "랩": 9256,
      "보고서": 9257,
      "##97": 9258,
      "FTA": 9259,
      "##료가": 9260,
      "환자는": 9261,
      "외환": 9262,
      "일로": 9263,
      "북미": 9264,
      "##노트": 9265,
      "제조업": 9266,
      "디스플레이": 9267,
      "##피해": 9268,
      "체력": 9269,
      "거죠": 9270,
      "보러가기": 9271,
      "실력을": 9272,
      "83": 9273,
      "바랍니다": 9274,
      "슬라이": 9275,
      "料": 9276,
      "이재용": 9277,
      "크루": 9278,
      "눈물": 9279,
      "재발": 9280,
      "##여명의": 9281,
      "명령을": 9282,
      "슬로": 9283,
      "신화": 9284,
      "##역이": 9285,
      "##순위": 9286,
      "##르몬": 9287,
      "심상": 9288,
      "스코": 9289,
      "가능하며": 9290,
      "again": 9291,
      "五": 9292,
      "김승": 9293,
      "##접한": 9294,
      "##화하고": 9295,
      "##도서관": 9296,
      "가뭄": 9297,
      "성공적인": 9298,
      "부근": 9299,
      "##당과": 9300,
      "##ai": 9301,
      "코미": 9302,
      "황제": 9303,
      "##기반": 9304,
      "일일": 9305,
      "바라보는": 9306,
      "싸우": 9307,
      "스웨": 9308,
      "##두는": 9309,
      "##ustr": 9310,
      "폼": 9311,
      "##혈증": 9312,
      "모바일한경": 9313,
      "##글로": 9314,
      "Pl": 9315,
      "추석": 9316,
      "##장치": 9317,
      "나섰": 9318,
      "##청에": 9319,
      "##인권": 9320,
      "##igh": 9321,
      "前": 9322,
      "FA": 9323,
      "출연한": 9324,
      "선보이고": 9325,
      "원천": 9326,
      "서초구": 9327,
      "##님께서": 9328,
      "강연": 9329,
      "포트": 9330,
      "부당": 9331,
      "고객을": 9332,
      "위안부": 9333,
      "z": 9334,
      "팔을": 9335,
      "썰": 9336,
      "생명을": 9337,
      "상관없이": 9338,
      "상속": 9339,
      "##이도": 9340,
      "your": 9341,
      "##희정": 9342,
      "1960": 9343,
      "박상": 9344,
      "승객": 9345,
      "간부": 9346,
      "##겠어요": 9347,
      "##ey": 9348,
      "海": 9349,
      "1992": 9350,
      "##하러": 9351,
      "편이": 9352,
      "요금": 9353,
      "박종": 9354,
      "제고": 9355,
      "##84": 9356,
      "##MS": 9357,
      "##apter": 9358,
      "자존": 9359,
      "안팎": 9360,
      "성격을": 9361,
      "##FF": 9362,
      "##졌지만": 9363,
      "주목을": 9364,
      "會": 9365,
      "民": 9366,
      "##막을": 9367,
      "주한": 9368,
      "베르": 9369,
      "노조": 9370,
      "##습을": 9371,
      "모르게": 9372,
      "히어로": 9373,
      "불렀다": 9374,
      "다문화": 9375,
      "포스": 9376,
      "##학회": 9377,
      "##부채": 9378,
      "★": 9379,
      "회사가": 9380,
      "시공": 9381,
      "##옵니다": 9382,
      "##ock": 9383,
      "방송되는": 9384,
      "삼아": 9385,
      "선택할": 9386,
      "##지대": 9387,
      "거리가": 9388,
      "##처분": 9389,
      "증가하고": 9390,
      "##시장이": 9391,
      "바꾸는": 9392,
      "##고객": 9393,
      "불확실": 9394,
      "정밀": 9395,
      "신축": 9396,
      "미소": 9397,
      "있으": 9398,
      "공개됐다": 9399,
      "##67": 9400,
      "ll": 9401,
      "톰": 9402,
      "##품이": 9403,
      "##과도": 9404,
      "사람들과": 9405,
      "증가했다": 9406,
      "말까지": 9407,
      "첫번째": 9408,
      "양의": 9409,
      "장례": 9410,
      "설명을": 9411,
      "주행": 9412,
      "반응이": 9413,
      "그리하여": 9414,
      "##명에게": 9415,
      "음주": 9416,
      "잠을": 9417,
      "호흡을": 9418,
      "##허가": 9419,
      "구경": 9420,
      "전술": 9421,
      "대표의": 9422,
      "앞선": 9423,
      "##US": 9424,
      "##일으": 9425,
      "아이들의": 9426,
      "##air": 9427,
      "높고": 9428,
      "자료사진": 9429,
      "장악": 9430,
      "마련해": 9431,
      "본인의": 9432,
      "세미나": 9433,
      "##백을": 9434,
      "강렬한": 9435,
      "##자유": 9436,
      "즐기": 9437,
      "사회공헌": 9438,
      "82": 9439,
      "일정을": 9440,
      "누구도": 9441,
      "##편을": 9442,
      "대책을": 9443,
      "이루는": 9444,
      "##체육관광": 9445,
      "소멸": 9446,
      "진행될": 9447,
      "모양의": 9448,
      "토끼": 9449,
      "아트": 9450,
      "宗": 9451,
      "인사청문": 9452,
      "가능성": 9453,
      "공인": 9454,
      "해명": 9455,
      "오버": 9456,
      "전쟁을": 9457,
      "##해지": 9458,
      "##달아": 9459,
      "그레이": 9460,
      "##국에서": 9461,
      "공동체": 9462,
      "통보": 9463,
      "맞고": 9464,
      "면에서": 9465,
      "잉글": 9466,
      "정부와": 9467,
      "##회로": 9468,
      "지원하고": 9469,
      "프라": 9470,
      "발간": 9471,
      "##작은": 9472,
      "##부처": 9473,
      "예산을": 9474,
      "캐릭터를": 9475,
      "西": 9476,
      "역전": 9477,
      "느꼈다": 9478,
      "연구개발": 9479,
      "신비": 9480,
      "##pr": 9481,
      "세계에": 9482,
      "학생들은": 9483,
      "유망": 9484,
      "포럼": 9485,
      "분이": 9486,
      "##시간을": 9487,
      "헤럴드": 9488,
      "등판": 9489,
      "##박스": 9490,
      "점에": 9491,
      "쓰레기": 9492,
      "##나고": 9493,
      "소나무": 9494,
      "##나갈": 9495,
      "##퀘어": 9496,
      "도둑": 9497,
      "하라": 9498,
      "명백": 9499,
      "##병이": 9500,
      "ㆍ": 9501,
      "##즈와": 9502,
      "##속에서": 9503,
      "앞의": 9504,
      "##사전": 9505,
      "잃고": 9506,
      "##스포츠조선": 9507,
      "현장에": 9508,
      "중국은": 9509,
      "##장관": 9510,
      "하늘을": 9511,
      "##받지": 9512,
      "##ject": 9513,
      "계승": 9514,
      "쿨": 9515,
      "관람객": 9516,
      "史": 9517,
      "남긴": 9518,
      "혀": 9519,
      "찾았다": 9520,
      "##국제공": 9521,
      "뮤직비": 9522,
      "오스트": 9523,
      "##ple": 9524,
      "한국에서": 9525,
      "차지하고": 9526,
      "나갔다": 9527,
      "맛이": 9528,
      "현대차": 9529,
      "돌아와": 9530,
      "신제품": 9531,
      "평가했다": 9532,
      "벌어진": 9533,
      "ET": 9534,
      "##두에": 9535,
      "설치된": 9536,
      "101": 9537,
      "영등포구": 9538,
      "내밀": 9539,
      "대단히": 9540,
      "오고": 9541,
      "Is": 9542,
      "##움과": 9543,
      "아미": 9544,
      "개선을": 9545,
      "무장": 9546,
      "달린": 9547,
      "아픈": 9548,
      "##토를": 9549,
      "주어진": 9550,
      "그다지": 9551,
      "tri": 9552,
      "##연대": 9553,
      "조건을": 9554,
      "바닥에": 9555,
      "##환이": 9556,
      "미래의": 9557,
      "순위": 9558,
      "주시": 9559,
      "모범": 9560,
      "어우러": 9561,
      "남자의": 9562,
      "다리를": 9563,
      "전기차": 9564,
      "판타": 9565,
      "일각": 9566,
      "허위": 9567,
      "카르": 9568,
      "##타임을": 9569,
      "수강": 9570,
      "델": 9571,
      "구단": 9572,
      "별도로": 9573,
      "알아야": 9574,
      "끔": 9575,
      "first": 9576,
      "마쳤다": 9577,
      "버튼을": 9578,
      "지주": 9579,
      "사후": 9580,
      "여신": 9581,
      "톡": 9582,
      "각자": 9583,
      "실용": 9584,
      "전일": 9585,
      "##재산": 9586,
      "##자마자": 9587,
      "##시장을": 9588,
      "아이들": 9589,
      "소셜": 9590,
      "찢": 9591,
      "대가": 9592,
      "남한": 9593,
      "극장": 9594,
      "해가": 9595,
      "##차게": 9596,
      "##Copyright": 9597,
      "전담": 9598,
      "앞세": 9599,
      "있다가": 9600,
      "기호": 9601,
      "경력": 9602,
      "커지고": 9603,
      "연금": 9604,
      "##EB": 9605,
      "고객에게": 9606,
      "##로디": 9607,
      "##하가": 9608,
      "##로워": 9609,
      "당연한": 9610,
      "안녕": 9611,
      "서로를": 9612,
      "였다": 9613,
      "일러": 9614,
      "이순": 9615,
      "매월": 9616,
      "대부분이": 9617,
      "##국과": 9618,
      "##리안": 9619,
      "외국어": 9620,
      "본부": 9621,
      "##ven": 9622,
      "결혼을": 9623,
      "group": 9624,
      "##어지는": 9625,
      "잦": 9626,
      "기사제보": 9627,
      "선을": 9628,
      "##동과": 9629,
      "양도": 9630,
      "삼각": 9631,
      "주저": 9632,
      "1993": 9633,
      "발생했다": 9634,
      "발표된": 9635,
      "충격을": 9636,
      "##ton": 9637,
      "웨이": 9638,
      "93": 9639,
      "##준이": 9640,
      "로스": 9641,
      "##br": 9642,
      "기획재": 9643,
      "119": 9644,
      "보복": 9645,
      "주민들의": 9646,
      "##권도": 9647,
      "##버트": 9648,
      "이원": 9649,
      "여자는": 9650,
      "##감사": 9651,
      "##졌을": 9652,
      "정성": 9653,
      "##지역의": 9654,
      "##계획을": 9655,
      "물고": 9656,
      "장기간": 9657,
      "##회에서는": 9658,
      "부착": 9659,
      "이야기는": 9660,
      "##위원회의": 9661,
      "엔진": 9662,
      "식사를": 9663,
      "이거": 9664,
      "시티": 9665,
      "##임에도": 9666,
      "양쪽": 9667,
      "世": 9668,
      "검사를": 9669,
      "클라우드": 9670,
      "##했는지": 9671,
      "제품은": 9672,
      "금방": 9673,
      "없도록": 9674,
      "인기뉴스": 9675,
      "메가": 9676,
      "지역경제": 9677,
      "##시마": 9678,
      "받아들여": 9679,
      "반박": 9680,
      "##거리가": 9681,
      "http": 9682,
      "툴": 9683,
      "출혈": 9684,
      "햄": 9685,
      "coun": 9686,
      "입법": 9687,
      "검출": 9688,
      "다채로운": 9689,
      "얼굴로": 9690,
      "미션": 9691,
      "##OO": 9692,
      "탄탄": 9693,
      "second": 9694,
      "꽂": 9695,
      "늘고": 9696,
      "누워": 9697,
      "##타이어": 9698,
      "시를": 9699,
      "거짓말": 9700,
      "##44": 9701,
      "##슨은": 9702,
      "##되게": 9703,
      "남을": 9704,
      "발전에": 9705,
      "##역에서": 9706,
      "시급": 9707,
      "##하게도": 9708,
      "뜻이": 9709,
      "기름": 9710,
      "에너지를": 9711,
      "지붕": 9712,
      "##설이": 9713,
      "진행한": 9714,
      "##련의": 9715,
      "##인력": 9716,
      "직원들이": 9717,
      "중증": 9718,
      "고소": 9719,
      "새해": 9720,
      "윌리": 9721,
      "수상했다": 9722,
      "몹시": 9723,
      "감시": 9724,
      "진행되고": 9725,
      "불러일으": 9726,
      "##방안": 9727,
      "들어와": 9728,
      "과장": 9729,
      "동화": 9730,
      "소매": 9731,
      "##디언": 9732,
      "송파": 9733,
      "##헤럴드경제": 9734,
      "보세요": 9735,
      "진심으로": 9736,
      "행사가": 9737,
      "동의어": 9738,
      "튼": 9739,
      "軍": 9740,
      "퓨": 9741,
      "위생": 9742,
      "몽골": 9743,
      "다음은": 9744,
      "##우와": 9745,
      "##day": 9746,
      "인생의": 9747,
      "지식을": 9748,
      "세웠다": 9749,
      "##밀히": 9750,
      "##사령": 9751,
      "##음으로": 9752,
      "영장": 9753,
      "CN": 9754,
      "콘텐츠를": 9755,
      "스프": 9756,
      "보여줄": 9757,
      "자신은": 9758,
      "들어온": 9759,
      "所": 9760,
      "가격을": 9761,
      "방문한": 9762,
      "81": 9763,
      "##차이즈": 9764,
      "##차량": 9765,
      "노력이": 9766,
      "재현": 9767,
      "꼼꼼": 9768,
      "있어도": 9769,
      "소중": 9770,
      "##주의를": 9771,
      "없다면": 9772,
      "Par": 9773,
      "##인들에게": 9774,
      "두루": 9775,
      "##자문": 9776,
      "##리포트": 9777,
      "진실을": 9778,
      "것인데": 9779,
      "당당": 9780,
      "자신도": 9781,
      "아이들을": 9782,
      "유산": 9783,
      "용의": 9784,
      "##이면서": 9785,
      "내리는": 9786,
      "德": 9787,
      "기자간담": 9788,
      "참여했다": 9789,
      "저축": 9790,
      "건강을": 9791,
      "재해": 9792,
      "전략적": 9793,
      "사례가": 9794,
      "##ml": 9795,
      "##어와": 9796,
      "전달했다": 9797,
      "can": 9798,
      "##bers": 9799,
      "##이든": 9800,
      "##린은": 9801,
      "데는": 9802,
      "##gr": 9803,
      "감옥": 9804,
      "##환은": 9805,
      "블랙리스트": 9806,
      "럭": 9807,
      "##자나": 9808,
      "든다": 9809,
      "탈락": 9810,
      "##브를": 9811,
      "##ween": 9812,
      "##로서는": 9813,
      "│": 9814,
      "주장하는": 9815,
      "##론은": 9816,
      "##공급": 9817,
      "元": 9818,
      "승점": 9819,
      "Other": 9820,
      "원인을": 9821,
      "##칼럼": 9822,
      "머리가": 9823,
      "온도": 9824,
      "##았으며": 9825,
      "화물": 9826,
      "제시했다": 9827,
      "##기금": 9828,
      "당첨": 9829,
      "##심은": 9830,
      "소모": 9831,
      "金": 9832,
      "##속으로": 9833,
      "앞장서": 9834,
      "호응을": 9835,
      "중견": 9836,
      "##후군": 9837,
      "知": 9838,
      "추첨": 9839,
      "work": 9840,
      "##전시": 9841,
      "##2000": 9842,
      "썩": 9843,
      "##크라": 9844,
      "##인당": 9845,
      "白": 9846,
      "##ines": 9847,
      "##자로서": 9848,
      "##henyl": 9849,
      "##나라는": 9850,
      "즐기고": 9851,
      "마사": 9852,
      "##85": 9853,
      "##산업의": 9854,
      "하나도": 9855,
      "가요": 9856,
      "홈페이지를": 9857,
      "통증": 9858,
      "높아지고": 9859,
      "와인": 9860,
      "뛰어넘": 9861,
      "답답": 9862,
      "##었으나": 9863,
      "많지": 9864,
      "이윤": 9865,
      "오마이": 9866,
      "맵": 9867,
      "핸드": 9868,
      "朝": 9869,
      "가이드": 9870,
      "논쟁": 9871,
      "발현": 9872,
      "##ward": 9873,
      "어디에": 9874,
      "광명": 9875,
      "전체적으로": 9876,
      "분산": 9877,
      "##운동을": 9878,
      "유혹": 9879,
      "맞춘": 9880,
      "헐": 9881,
      "바뀐": 9882,
      "장면을": 9883,
      "준비하고": 9884,
      "##color": 9885,
      "##개소": 9886,
      "We": 9887,
      "IM": 9888,
      "지키는": 9889,
      "대항": 9890,
      "좁은": 9891,
      "김광": 9892,
      "추구하는": 9893,
      "딴": 9894,
      "##nce": 9895,
      "김소": 9896,
      "넘어서": 9897,
      "눌러": 9898,
      "경로": 9899,
      "門": 9900,
      "생겼다": 9901,
      "감수": 9902,
      "신이": 9903,
      "이해하고": 9904,
      "데다": 9905,
      "목적을": 9906,
      "목을": 9907,
      "생각합니다": 9908,
      "목격": 9909,
      "노사": 9910,
      "활발한": 9911,
      "##이트를": 9912,
      "남동": 9913,
      "이듬": 9914,
      "하다가": 9915,
      "커뮤니케이션": 9916,
      "달콤": 9917,
      "##란한": 9918,
      "남겼다": 9919,
      "면세": 9920,
      "##어지고": 9921,
      "소금": 9922,
      "뱃": 9923,
      "AT": 9924,
      "무서운": 9925,
      "그랜드": 9926,
      "경우에도": 9927,
      "살피": 9928,
      "괴롭": 9929,
      "우연히": 9930,
      "비대": 9931,
      "것인": 9932,
      "syn": 9933,
      "##적이며": 9934,
      "##지다": 9935,
      "효능": 9936,
      "생생한": 9937,
      "픽": 9938,
      "히트": 9939,
      "자체를": 9940,
      "고조": 9941,
      "돕는": 9942,
      "기반을": 9943,
      "##늘의": 9944,
      "저렴한": 9945,
      "적도": 9946,
      "##집에": 9947,
      "##미한": 9948,
      "순식": 9949,
      "복사": 9950,
      "야간": 9951,
      "여자의": 9952,
      "손이": 9953,
      "수의": 9954,
      "한창": 9955,
      "부패": 9956,
      "무궁": 9957,
      "기다려": 9958,
      "현안": 9959,
      "보냈": 9960,
      "스포츠서울": 9961,
      "냈": 9962,
      "용서": 9963,
      "컵": 9964,
      "지수": 9965,
      "한일": 9966,
      "야생": 9967,
      "정신적": 9968,
      "위탁": 9969,
      "CH": 9970,
      "##법과": 9971,
      "##94": 9972,
      "##놓았다": 9973,
      "치유": 9974,
      "##인한": 9975,
      "추진하는": 9976,
      "전망했다": 9977,
      "아픔": 9978,
      "수호": 9979,
      "김명": 9980,
      "##팅을": 9981,
      "시켜": 9982,
      "인명": 9983,
      "가벼운": 9984,
      "죽어": 9985,
      "경찰이": 9986,
      "챙겨": 9987,
      "서울경제의": 9988,
      "일행": 9989,
      "가득한": 9990,
      "전수": 9991,
      "140": 9992,
      "##시간이": 9993,
      "지옥": 9994,
      "##경찰서": 9995,
      "한국을": 9996,
      "분해": 9997,
      "플로": 9998,
      "개발에": 9999,
      "##실과": 10000,
      "##격이": 10001,
      "가족이": 10002,
      "##생물": 10003,
      "구상": 10004,
      "李": 10005,
      "##방으로": 10006,
      "세우고": 10007,
      "##환자": 10008,
      "의미로": 10009,
      "##장인": 10010,
      "##근로": 10011,
      "소위": 10012,
      "강화하고": 10013,
      "점수를": 10014,
      "껍": 10015,
      "절망": 10016,
      "안된다": 10017,
      "끝이": 10018,
      "자율주행": 10019,
      "전문가들은": 10020,
      "한동안": 10021,
      "단백질": 10022,
      "##쿼터": 10023,
      "##32": 10024,
      "작품이": 10025,
      "후보를": 10026,
      "나간": 10027,
      "##릅니다": 10028,
      "골목": 10029,
      "꾸며": 10030,
      "##유기": 10031,
      "pr": 10032,
      "휴대폰": 10033,
      "줄어든": 10034,
      "##스러워": 10035,
      "중대한": 10036,
      "어머니의": 10037,
      "산불": 10038,
      "##아파트": 10039,
      "바라보고": 10040,
      "소개했다": 10041,
      "##세한": 10042,
      "끝으로": 10043,
      "아이디어를": 10044,
      "김형": 10045,
      "과정에": 10046,
      "##용을": 10047,
      "##아리": 10048,
      "Sy": 10049,
      "고기": 10050,
      "##회의실에서": 10051,
      "일주일": 10052,
      "타이거": 10053,
      "##cent": 10054,
      "계좌": 10055,
      "규모는": 10056,
      "app": 10057,
      "유관": 10058,
      "기각": 10059,
      "찍은": 10060,
      "기업을": 10061,
      "##셀로": 10062,
      "할까": 10063,
      "확대해": 10064,
      "쉽다": 10065,
      "출간": 10066,
      "회사를": 10067,
      "건네": 10068,
      "##만여": 10069,
      "감지": 10070,
      "##인사": 10071,
      "원내대표는": 10072,
      "##동기": 10073,
      "##층을": 10074,
      "##호로": 10075,
      "##졌으며": 10076,
      "것들을": 10077,
      "##ath": 10078,
      "마이데일리": 10079,
      "##년째": 10080,
      "太": 10081,
      "보낼": 10082,
      "날짜": 10083,
      "메디": 10084,
      "피아노": 10085,
      "출력": 10086,
      "##공이": 10087,
      "싱가포르": 10088,
      "엇": 10089,
      "농림": 10090,
      "ne": 10091,
      "대대": 10092,
      "사회를": 10093,
      "##년과": 10094,
      "하는지": 10095,
      "사례를": 10096,
      "##이었는데": 10097,
      "안전을": 10098,
      "태양광": 10099,
      "전에는": 10100,
      "##enn": 10101,
      "##구에서": 10102,
      "편지": 10103,
      "##au": 10104,
      "##티드": 10105,
      "잡지": 10106,
      "##본을": 10107,
      "사람으로": 10108,
      "##설계": 10109,
      "음반": 10110,
      "##무가": 10111,
      "##층이": 10112,
      "카드를": 10113,
      "##편이": 10114,
      "집권": 10115,
      "##상적인": 10116,
      "전직": 10117,
      "걸고": 10118,
      "세력": 10119,
      "##here": 10120,
      "상용": 10121,
      "기여할": 10122,
      "##인드": 10123,
      "거뒀다": 10124,
      "주민들이": 10125,
      "장점": 10126,
      "相": 10127,
      "기어": 10128,
      "코드": 10129,
      "##집이": 10130,
      "적당": 10131,
      "등장한다": 10132,
      "##풍을": 10133,
      "바라보았다": 10134,
      "시민의": 10135,
      "##지원센터": 10136,
      "##판사": 10137,
      "아니냐는": 10138,
      "##중계": 10139,
      "##영을": 10140,
      "일곱": 10141,
      "않는다면": 10142,
      "적립": 10143,
      "##린의": 10144,
      "경우를": 10145,
      "##니를": 10146,
      "over": 10147,
      "오로지": 10148,
      "활약을": 10149,
      "##피를": 10150,
      "아베": 10151,
      "포지": 10152,
      "##풍이": 10153,
      "잡는": 10154,
      "##속을": 10155,
      "##유는": 10156,
      "똑같이": 10157,
      "자신과": 10158,
      "1988": 10159,
      "이모": 10160,
      "최저임금": 10161,
      "독점": 10162,
      "뒷받침": 10163,
      "배틀": 10164,
      "##방은": 10165,
      "높이기": 10166,
      "En": 10167,
      "남자는": 10168,
      "##마리": 10169,
      "음료": 10170,
      "##역에": 10171,
      "##체인": 10172,
      "재미를": 10173,
      "효과적인": 10174,
      "운영을": 10175,
      "##만달러": 10176,
      "필요할": 10177,
      "##ty": 10178,
      "멘토": 10179,
      "##con": 10180,
      "추출": 10181,
      "당분간": 10182,
      "they": 10183,
      "##변화": 10184,
      "류현": 10185,
      "골드": 10186,
      "官": 10187,
      "##유통": 10188,
      "one": 10189,
      "줄을": 10190,
      "상태에": 10191,
      "주재": 10192,
      "소식이": 10193,
      "작품이다": 10194,
      "없지": 10195,
      "color": 10196,
      "서로의": 10197,
      "다음의": 10198,
      "가슴이": 10199,
      "명절": 10200,
      "있었다고": 10201,
      "어깨를": 10202,
      "만났다": 10203,
      "항의": 10204,
      "협약을": 10205,
      "농산물": 10206,
      "촬영을": 10207,
      "##보드": 10208,
      "추진해": 10209,
      "실적을": 10210,
      "##하듯": 10211,
      "언급했다": 10212,
      "않았을": 10213,
      "별다른": 10214,
      "지목": 10215,
      "##ool": 10216,
      "form": 10217,
      "들어갔": 10218,
      "횟": 10219,
      "##uss": 10220,
      "수천": 10221,
      "were": 10222,
      "四": 10223,
      "그들에게": 10224,
      "North": 10225,
      "하시": 10226,
      "발의": 10227,
      "벌어지는": 10228,
      "##inal": 10229,
      "##겠는가": 10230,
      "버린": 10231,
      "바보": 10232,
      "세탁": 10233,
      "이마트": 10234,
      "위치해": 10235,
      "##바이오": 10236,
      "아들을": 10237,
      "참가한": 10238,
      "AN": 10239,
      "##업에": 10240,
      "학교에": 10241,
      "##추를": 10242,
      "##감도": 10243,
      "유가": 10244,
      "체결했다": 10245,
      "오해": 10246,
      "내야": 10247,
      "사각": 10248,
      "속도가": 10249,
      "##본부는": 10250,
      "외교부": 10251,
      "##ern": 10252,
      "##추어": 10253,
      "시카": 10254,
      "주가가": 10255,
      "것이란": 10256,
      "##건은": 10257,
      "시작할": 10258,
      "추락": 10259,
      "순식간에": 10260,
      "부진": 10261,
      "Te": 10262,
      "##300": 10263,
      "##부르크": 10264,
      "##정치": 10265,
      "좋게": 10266,
      "92": 10267,
      "##방울": 10268,
      "난다": 10269,
      "높일": 10270,
      "봤다": 10271,
      "없어요": 10272,
      "겨냥": 10273,
      "낡": 10274,
      "##묘한": 10275,
      "##환을": 10276,
      "쓴다": 10277,
      "건강보험": 10278,
      "국방부": 10279,
      "方": 10280,
      "왜곡": 10281,
      "##ited": 10282,
      "기념촬영": 10283,
      "##주차": 10284,
      "솜": 10285,
      "str": 10286,
      "##ump": 10287,
      "동아닷컴": 10288,
      "얼음": 10289,
      "저를": 10290,
      "##도미사일": 10291,
      "마약": 10292,
      "한겨": 10293,
      "##의회": 10294,
      "化": 10295,
      "##its": 10296,
      "트랙": 10297,
      "이내에": 10298,
      "침입": 10299,
      "어릴": 10300,
      "이사회": 10301,
      "장군": 10302,
      "걸친": 10303,
      "between": 10304,
      "□": 10305,
      "비율이": 10306,
      "대조": 10307,
      "올리고": 10308,
      "##파로": 10309,
      "네덜란드": 10310,
      "##움에": 10311,
      "##오염": 10312,
      "연봉": 10313,
      "이진": 10314,
      "##중학교": 10315,
      "형태를": 10316,
      "보컬": 10317,
      "##했다가": 10318,
      "##어리": 10319,
      "##47": 10320,
      "##부지": 10321,
      "나뉘": 10322,
      "되어야": 10323,
      "##하였으나": 10324,
      "사회에": 10325,
      "박물관": 10326,
      "등록번호": 10327,
      "##아를": 10328,
      "##목적": 10329,
      "인물이": 10330,
      "조이": 10331,
      "敎": 10332,
      "##니의": 10333,
      "펄": 10334,
      "이광": 10335,
      "漢": 10336,
      "##조리": 10337,
      "##루가": 10338,
      "미스터": 10339,
      "산하": 10340,
      "예정인": 10341,
      "청주시": 10342,
      "##념을": 10343,
      "억울": 10344,
      "##축산": 10345,
      "교통사고": 10346,
      "言": 10347,
      "차라리": 10348,
      "헝": 10349,
      "##우지": 10350,
      "소상공": 10351,
      "##동계올림픽": 10352,
      "무상": 10353,
      "900": 10354,
      "교황": 10355,
      "나름대로": 10356,
      "회장의": 10357,
      "names": 10358,
      "파라": 10359,
      "올리는": 10360,
      "해결할": 10361,
      "##체와": 10362,
      "피할": 10363,
      "##규칙": 10364,
      "◎": 10365,
      "휠": 10366,
      "##돌이": 10367,
      "신사": 10368,
      "군산": 10369,
      "늘었다": 10370,
      "합리적인": 10371,
      "##리우": 10372,
      "##되도록": 10373,
      "바위": 10374,
      "첼": 10375,
      "##계약을": 10376,
      "갖는다": 10377,
      "##ings": 10378,
      "첫날": 10379,
      "더욱이": 10380,
      "##플라": 10381,
      "##alk": 10382,
      "##eek": 10383,
      "기업들이": 10384,
      "메르": 10385,
      "유권": 10386,
      "##강의": 10387,
      "##작가": 10388,
      "뜻으로": 10389,
      "대선후보": 10390,
      "##창조": 10391,
      "깨끗한": 10392,
      "남다른": 10393,
      "전통적인": 10394,
      "장면이": 10395,
      "##시장에": 10396,
      "값을": 10397,
      "##감으로": 10398,
      "북한은": 10399,
      "요구했다": 10400,
      "쇼핑몰": 10401,
      "구해": 10402,
      "향상을": 10403,
      "1989": 10404,
      "##은행의": 10405,
      "##서야": 10406,
      "출현": 10407,
      "이시": 10408,
      "한국어": 10409,
      "IB": 10410,
      "##타가": 10411,
      "상황은": 10412,
      "관세": 10413,
      "크리스마스": 10414,
      "##소리가": 10415,
      "김윤": 10416,
      "기록하고": 10417,
      "나라가": 10418,
      "##PI": 10419,
      "현상을": 10420,
      "##청소년": 10421,
      "통치": 10422,
      "프로야구": 10423,
      "처분": 10424,
      "who": 10425,
      "##상금": 10426,
      "##편에": 10427,
      "정신이": 10428,
      "자부": 10429,
      "##문화재": 10430,
      "##민과": 10431,
      "콜라": 10432,
      "##68": 10433,
      "학문": 10434,
      "후에도": 10435,
      "##ull": 10436,
      "##십니까": 10437,
      "이곳에서": 10438,
      "部": 10439,
      "##무늬": 10440,
      "백화점": 10441,
      "상대가": 10442,
      "##법상": 10443,
      "주된": 10444,
      "##aper": 10445,
      "그려졌다": 10446,
      "문장": 10447,
      "##리포니아": 10448,
      "##시대의": 10449,
      "약속을": 10450,
      "##약한": 10451,
      "제보하기": 10452,
      "이걸": 10453,
      "한데": 10454,
      "영남": 10455,
      "오프라인": 10456,
      "지점": 10457,
      "늦게": 10458,
      "근로자": 10459,
      "저해": 10460,
      "고혈압": 10461,
      "##부대": 10462,
      "신경을": 10463,
[...]
