[PAD]
.
,
이
있
)
(
1
그
##으로
##에서
사
대
수
2
기
지
것
가
전
한
아
'
하
##했다
시
있다
보
자
"
정
다
##하는
나
등
3
고
제
##이다
주
-
일
##하고
경
인
모
위
중
공
부
=
a
의
오
상
##었다
##니다
##on
t
마
개
유
내
어
소
]
구
##he
말
[
서
관
무
않
있는
’
20
연
조
여
‘
비
없
“
때
”
바
해
신
선
만
##in
국
4
미
생
##한다
우
s
최
5
발
동
방
문
도
##지만
안
분
##에게
원
세
통
영
·
##re
스
##le
##at
##들이
재
김
성
강
거
예
및
진
장
##에는
현
실
되
##라고
:
결
the
o
##적인
S
##까지
##er
6
##하게
##된다
또
반
사람
더
불
##00
후
당
##면서
##습니다
같
따
##al
?
특
201
교
기자
매
알
7
대한
A
##적으로
##부터
노
과
남
적
##en
계
한다
m
C
들
단
감
추
/
화
배
금
많
차
받
것이
of
포
##ion
19
열
##라는
두
##하기
위해
에
확
파
출
물
##es
##or
##an
##들은
저
설
c
%
##하여
작
지난
##였다
8
##들의
박
b
##is
##뉴스
##았다
참
역
할
올
f
##ar
입
프
T
함
##리고
건
10
행
통해
!
서울
데
회
우리
p
때문
9
##하다
M
##으며
달
한국
##om
평
투
것이다
못
d
앞
활
피
그러
운
아니
I
로
살
생각
직
새
총
학
경우
##다는
청
명
##기를
##하지
것으로
좋
밝
하는
약
요
목
증
양
산
외
집
자신
변
##에서는
함께
필
본
##ic
*
##nd
간
초
##it
##들을
각
개의
점
임
0
속
를
은
표
게
심
##ro
을
##는데
했다
환
사용
높
##ation
대해
종
##지는
타
K
는
##이나
같은
in
이상
따라
P
드
손
것은
##리는
다른
그리고
돌
호
처
##하며
맞
잘
##되는
치
~
##에도
##도록
구조
하고
판
B
##됐다
##자는
##리를
##ct
&
들어
and
눈
12
to
리
체
말했다
아이
형
라
mo
시작
>
이번
D
트
지역
##자의
##대로
카
L
며
뒤
##되어
크
것을
문제
##다고
11
민
##보다
;
##통령
밝혔
충
##ing
삼
w
##하면
바로
채
##사를
대통령
걸
있었다
때문에
##et
이어
대표
사진
진행
미국
하나
위한
검
만들
가장
메
프로
합
독
at
##ed
편
가능
복
##레이
번
G
필요
밝혔다
광
순
##스트
찾
N
창
재배
군
##장은
…
법
된다
무단
200
그는
누
음
H
취
##ou
근
지원
언
##기에
금지
모든
있어
##지를
##ag
2017
##장을
관련
하지만
##기도
코
북
등을
그런
##id
##처럼
농
관계
모두
E
##cu
재배포
F
태
##해야
날
사업
이후
많은
##서는
15
##성을
##자가
업
##력을
##ond
##tr
##졌다
않는
##페이
완
용
그러나
큰
18
모습
##il
클
토
시간
담
이미
다양
##지고
식
줄
세계
얼
다시
사실
l
힘
##이었다
중국
##이고
##거나
##들에게
뉴스
권
친
##기가
##성이
없는
준
##상을
나타
와
버
|
정도
atom
다음
사회
또한
정부
30
온
##lecu
규
g
협
##000
##로운
##입니다
천
승
향
없다
bond
백
제공
##렇게
질
특히
항
절
##위원
너
했
병
원자
##이는
현재
글
네
이용
다양한
기업
홍
국민
R
애
마음
W
##el
디
The
책
v
여러
허
상황
오후
##ri
##정을
##ent
지금
길
##리가
교육
##렸다
효
이날
##경제
갖
##장이
느
될
일본
##시아
h
O
##이터
##st
##비스
아니라
죽
넘
또는
브
첫
##ure
13
##가는
사이
끝
황
있을
이런
구성
논
##기는
16
있었
곳
molecu
##학교
쓰
##ol
##화를
##하면서
나는
축
##해서
##결합
등의
##주의
이야
경제
##겠다
##되고
V
##으면
싶
베
이라고
예정
14
##iv
##이라
화학
뉴
잡
방송
##리아
결과
계획
어떤
##ch
##들과
존
패
##시간
자신의
커
볼
##ow
연구
보고
라고
J
##포츠
17
##가기
##사가
##그램
먹
##시스
설명
그것
운영
열린
최근
##ad
국내
n
##am
#
잠
머
접
##사업
한편
등이
##차원
##자를
탄
중요
기록
##하였다
벌
정보
대상
그녀
그래
##회의
많이
야
사랑
##사는
기술
##에서도
분자
##억원
##im
su
발생
빠
##센터
올해
몸
##인이
늘
##되었다
포함
##으나
##운데
막
에서
##ac
##식을
결정
내용
동안
새로운
돌아
레
##왔다
있으며
##as
철
떠
플
25
문화
후보
##em
전문
골
갈
참여
##이며
국가
##iz
##ble
지난해
##므로
왕
폭
##기업
##랜드
##니까
활동
그의
##만원
##age
##ile
페이
기대
않고
##르면
테
극
개발
##어나
난
가운데
보여
최고
측
당시
추가
이유
좋은
이름
면
엄
방법
처음
##분의
데이터
##op
##사의
씨
않았다
##BS
의미
오늘
귀
##ual
U
경기
증가
내가
##장에서
##gh
찾아
송
##리에
##uct
된
공개
있습니다
이를
이에
영화
활용
##는다
확대
바로가기
주요
##이라고
확인
##했던
##시키
##기로
별
윤
##도를
해당
오는
##회를
얻
##라도
▲
월
직접
##이트
스타
##원은
##치를
##전재
re
투자
##스타
추진
서비스
떨
무단전재
##이라는
수도
아무
for
##ter
##인의
않은
##truct
##ization
배우
만들어
con
이는
어떻
이러
가지
즉
24
있도록
발표
대부
놓
평가
따르면
몰
100
##력이
21
성공
##르는
##tructure
학생
##isual
울
알려
안전
##가지
급
##다가
22
인간
molecule
##isualization
오전
상태
있다는
199
파일
일반
물론
##주는
어떻게
혼
##교육
##위를
##제로
북한
페이스
캐
<
계속
##원이
있고
##리스
참석
제품
관심
삼성
더욱
정치
기준
뿐
즐
기능
역시
##ut
##음을
시장
악
이러한
때문이다
작품
되는
##합니다
th
범
##able
자유
키
선수
듯
고객
준비
전국
프로그램
##인다
당신
##지가
어려
is
받아
감독
없이
판매
are
여성
전체
23
##대를
부분
중심
너무
##ot
어느
있다고
이제
그렇
##났다
##시에
마련
산업
##진다
선택
##ght
##ain
희
생활
##이었
##했고
높은
클릭
팀
##머니
되어
먼
부산
뜻
몇
전재
풍
응
##치는
50
둘
이렇게
밀
영향
최대
같다
##명을
육
##수를
낮
국제
##원을
무엇
사람이
△
##선을
##지도
효과
왜
자기
##드는
##내는
일부
앞으로
놀
라는
예정이다
되었다
환경
존재
##점을
##어요
연합
돈
생산
능
홈
침
아닌
##lo
이루
블
공격
정책
r
##명이
##ur
게임
##BC
##스를
지속
사건
##냈다
이라
같이
공식
@
현대
기다
제보
만나
말을
나오
인터
좌
##수는
웃
##스는
##했다고
실시
적극
지방
##물을
시민
없었다
으로
##제를
##감을
##이가
유지
##lar
28
대학
친구
##위원회
##전을
이해
##없이
떨어
##인을
이것
도시
펼
##장의
관한
##나라
풀
핵
##의를
_
##도가
##도로
조사
제작
분석
페이스북
+
##지역
##ay
##동을
뉴시스
##주시
역할
학교
e
##상의
상대
헤
27
터
흥
##문화
않았
26
모형
##라이
##인은
아래
##명의
자연
##했습니다
##ul
##밖에
##이지
##hem
특별
##수가
피해
강화
맡
방문
pro
건강
아직
##로서
관계자는
보면
봉
쉽
결국
매우
개최
폐
as
보다
##us
수준
SD
##갔다
과정
않는다
비롯
일이
##디어
##움을
가족
##하려
##은행
관리
on
##스로
휴
##스터
어린
금융
##스의
##20
경찰
연결
##기관
하지
뛰
삶
file
##라마
##원의
좀
미래
팔
공동
page
##her
얼굴
chem
structure
깨
그런데
SDF
##기자
긴
##일보
visualization
atoms
암
적용
##어서
표현
반응
지나
##산업
##트를
강조
것도
요구
소비
40
##정보
성장
치료
여기
##되었
환자
##부는
그렇게
판단
##전히
##상이
모습을
주장
##되지
탈
##신문
붙
##세요
가지고
투여
변화
이야기
목표
##마다
경쟁
대비
규모
##동안
드러
##지막
##케이
조선
##일까지
밤
인천
그래서
##정한
주민
위치
얼마
크게
출연
##대의
서로
##연구
##인지
만큼
상승
##과의
기존
콘
29
##사에
먼저
시즌
##관리
전망
발전
##일리
고려
분야
스포츠
개인
끌
연합뉴스
그림
좋아
##이를
석
설치
예상
노력
##하였
혈
##하겠
##ew
아버
경험
마지막
##임을
믿
나라
등장
기본
##인가
알고
al
가격
티
##un
##년에
자체
숨
##있는
기간
##스가
##마트
##일부터
##거리
업무
선정
중요한
##로드
##장에
##right
팬
##대에
않을
##지에
자동
아니다
##계를
꿈
##yl
##사회
##시는
방향
각각
##문을
##ort
정신
받고
이동
An
싸
31
##부를
##로는
해결
읽
##인데
압
살펴
위험
흔
됐다
깊
##들도
살아
품
대상으로
##기의
##나는
##시설
제주
집중
##다면
누구
##ip
000
##개월
해외
##안을
##ical
##금을
##지원
조직
##자인
영상
##사와
다운
우리는
조금
##ir
##소를
##민국
혹
##한다고
사람은
사고
발견
있는데
##기술
개선
##로부터
선보
움
앞서
올라
자리
내려
따라서
##세를
##도의
」
##라인
「
글로
루
##르게
##프트
등에
##전자
그가
상품
Go
일을
##정이
갑
##재인
##opy
외국
대선
##보고
##이어
번째
##스포츠
답
러
듣
헌
페
##가를
ro
Y
2015
보내
##전에
##어난
인정
아시아
지적
##한다는
##서를
보인다
##리의
##으로써
경영
과거
##ail
##린다
마을
정말
198
겨
##약을
음악
형성
##ce
넣
꾸
시스
##ap
사람들이
흐
##불어
필요한
의해
상당
행정
녹
격
##롯데
국회
곧
##수의
관광
##자들이
궁
##지의
##부가
전했다
더불어
알아
##렌드
작은
브랜드
##그룹
대한민국
의견
슬
##opyright
워
##own
2016
하면
있던
하루
##하자
##으니
##자로
히
현실
행복
##르고
문재인
구성되어
만든
##었던
##시장
작업
거의
견
i
##th
cont
비교
##TV
색
컨
##ity
거래
##um
글로벌
전략
##주당
방식
엔
이라며
이하
시스템
##데이
롯데
가치
섬
##ctiv
중앙
##tal
형태
주변
##ers
##션을
##하거나
빈
##리로
여자
』
##스러
혐
반영
여행
ar
바람
받은
잔
##쳤다
##려고
##gen
##드를
갖고
##성과
##ional
##개를
##리지
대구
##and
##촬영
아주
않아
말이
참가
해야
역사
##권을
##10
##vid
자신이
다운로드
『
##NS
움직
##치고
결혼
##70
매출
나온
기사
국민의
##도는
##부의
노동
있지만
##와의
있게
퍼
대신
계획이다
맛
##so
어디
보기
##ages
##대한
조성
시청
확보
##대표
자료
얘
따른
기관
k
##너지
차지
y
공연
최초
인사
down
##자리
보는
혁
의원
착
빨
##ere
##pt
##구조
##훈련
감소
제시
##환경
av
영국
프리
##회가
하여
##ang
such
숙
기억
덕
우리가
트렌드
이루어
##개발
꽃
영업
##50
##했지만
`
받았다
##대가
##데일리
다만
오른
##ains
provid
스스로
that
##물이
출시
되고
슈
기념
가까
인해
Copyright
현지
##으로서
원자로
동시에
##소년
바라
##ailable
시각
벗
total
전달
무료
가진
available
염
틀
역할을
##럼프
등으로
##리그
##하겠다
유행
건설
##load
라며
평균
분자의
충분
우선
LG
##으로는
시행
##립니다
전에
wh
쇼
##었고
chemical
provides
##상에
땅
contains
##ate
순간
##오는
##코리아
download
bonds
딸
솔
molecular
화학결합
레이
이미지
공간
돼
##ud
이라는
##스럽
그대로
대부분
##량을
과학
##하던
##가가
##움이
##하도록
목소
##웨어
##ne
영향을
라이
빛
모양
트럼프
이와
장관
검찰
프랑
설명했다
행사
by
rot
보호
최종
##os
넘어
선거
60
어머니
소개
##년간
곡
망
대전
정도로
##위에
##식이
##30
운동
##개의
달리
부족
공급
우수
##원에
나의
##ack
##이드
분위
때는
【
】
##정책
하며
행동
칼
신청
##는지
안정
##하지만
젊
컴
##으므로
##더라도
드라마
전쟁
##시켜
SK
대부분의
##21
전통
노래
##릭터
유럽
##생활
술
##단체
##적이
없어
아름
##are
정상
##장과
##자들의
##통신
앉
쪽
광주
##구를
##원에서
##서울
##ore
##롭게
##ord
기능을
##제가
구축
Ch
정확
##랐다
##pp
##업체
이야기를
나서
##부에
못한
해도
소속
캐릭터
수출
##나무
익
##회는
##운드
부모
##성은
##도시
인기
##기간
합니다
그녀는
##만큼
체험
##하기도
##이자
수상
##하는데
남자
##이기
퇴
##했으며
결합
제대로
##비를
모델
SBS
청년
##ine
촬영
사실을
분명
##년부터
빌
두고
대응
##들에
스마트
각종
경기도
##바일
잃
##관계
##한국
수가
문제가
##디오
만에
멀
이전
##대는
나가
##했을
자세
언제
##회에서
이벤
도입
##od
통해서
마이
##투자
찬
##사로
보도
독일
##스크
면서
엄마
묻
##어야
##ig
##파트
이뤄
흘
##보는
##정은
##ly
##ec
쉽게
##가의
##등학교
부담
실제
청와
##에게는
##ich
수익
통합
##멤버
꼭
##ous
재미
핵심
있기
국정
무슨
수행
그리
직원
##대학교
빼
중소
##회에
##텐츠
마음을
유명
##지로
있어서
뭐
푸
매일
니
현장
어렵
모바일
##av
기반
장애
위원
##조선
않다
지정
시작했다
한다는
선발
주의
낙
제외
그룹
##산을
욕
##qu
##적을
가져
##eth
TV
옮
뇌
##보다는
책임
##우는
##est
##프로
##ia
MBC
##에서의
대통령이
시간을
##orm
공공
##지지
필요하다
자동차
달러
##함을
##대학
##른다
촉
쉬
메뉴
전혀
옆
옥
##성에
보였다
억
주목
주인
##느냐
##두고
##res
##드시
사무
##운동
그때
##정에
속에서
##투데이
35
##복지
최신
졸
##이스
구매
2018
잘못
희망
##경기
##emb
##겼다
비판
총집
KBS
속에
멤버
출신
##히려
덧
가능성이
##리즈
홍보
홈페이
##자와
2014
쿠
주는
인물
교통
SNS
사람의
협력
왼
##심을
##씨는
성과
해서
한번
02
##일을
괴
우려
의료
사라
이끌
반면
넓
특징
중심으로
총집결
사람들은
나무
##격을
##주고
활성
##만의
비슷
##림픽
##작권
캠
혹은
##번째
비해
간의
전자
엘
본격
##체를
##erv
지지
36
시설
불가
주로
회사
##아가
시험
##했다는
##성의
##ak
강원
오히려
전시
##이지만
던
얼마나
감사
것입니다
##고를
##ens
타이
##자들은
이상의
대해서
맥
##앨범
##더니
그것은
##어를
가능하다
경우에는
우리나라
어린이
끊
소프트
지도
젊은
##중한
##원으로
##리와
##try
##동산
나누
겪
시간이
힘을
실제로
예술
##본부
##됩니다
일으
##분이
##하기로
70
##학생
어려운
##장으로
##기와
제보를
교수
언론
반드시
징
##화가
묘
반대
##이버
처리
##이에
혜
##다운
위해서
##yd
##ill
##수록
강력
많다
재판
옵
말한다
연속
언급
종합
st
러시아
##점이
논의
통한
선생
액
정의
단순
관심을
문제를
##되며
전해
기다립니다
혐의
##art
##량이
##과는
기획
뮤
강조했다
하늘
우승
##이익
32
질문
담당
최고의
인터넷
뜨
##국의
가능한
》
걱
《
설립
##단을
##섰다
##요일
말씀
주택
밖
그들은
짓
##하라
내년
못하고
그동안
온라인
마찬
찍
가는
##ft
##시키는
##근혜
아마
이곳
##안전
##어진
##년대
##트로
##제의
gt
받을
냉
못했다
모르
아침
##old
##계획
인생
##업을
축소
오래
되면
##증권
시절
500
##거래
마찬가지
파악
위에
사례
##상은
일어나
##라면
지켜
##웠다
있지
기초
느끼
##중에
전환
끼
업체
되었
##들어
##차를
비용
##19
80
사망
##ith
##스와
하다
im
납
인도
so
표면
계약
높아
플레이
탐
바이
##스러운
##건을
소프트웨어
국민의당
##중결합
덧붙
##정의
신경
경우가
대해서는
co
##조사
죄
##활동
##보험
보통
##으면서
##시킨
##cl
것이라고
##없는
진출
달라
하였다
프로젝
옷
##서비스
이다
##만이
고용
좋다
박근혜
나와
전문가
##만을
나를
##금융
그를
##위는
지난달
##물의
사람을
St
단일
여전히
휘
##실을
##ub
없을
##규모
##길을
##같이
##준다
단계
느낌
받는
최소
##지털
##ated
##간의
수는
##으로부터
##품을
X
##관을
예방
##ews
##분을
훈련
거쳐
##되면서
상세
##ver
##란다
be
빅
것처럼
들어가
다음과
적이
##관이
##신을
공감
써
지급
##학과
설정
쌓
##자기
##트는
안에
등록
봐
##분기
구체
손을
대체
대통령은
맺
##사항
가슴
##24
##법을
34
##form
##되면
##구가
##히는
위해서는
만드는
##rogen
남아
짧
##기고
대답
신규
##지방
여름
##분에
불구
인식
쓸
은행
변경
##료를
##자에
사회적
It
예산
대형
}
##증을
보유
중인
##겠다는
In
자주
회전
##ement
보험
##이야
##리카
부정
자신을
트위
##치가
##켰다
소리
##려는
전기
##시오
an
##위가
##구의
##ont
##관에서
류
마치
벽
옛
소재
바탕
미디어
##어도
##어가
에너지
아내
##bs
제기
과정에서
##주를
lt
제조
##제는
것에
##레스
의한
33
부동산
196
활용할
제가
Mo
##케팅
있었던
모습이
전투
콜
out
나타나
쓴
회복
##일에
맞아
수밖에
향후
##11
왔
##공사
##arb
연기
청소년
##이란
##ld
변호
대표는
굴
##적이고
##민주당
것과
##ist
건축
동아
단체
이름을
습
논란
탑
##내고
##eat
##주택
##였던
##istry
항상
##보면
##ates
요청
프랑스
싱
활동을
작성
##세기
##군의
197
아파트
흑
제한
훌
대화
독자
까
불러
차량
남편
내용을
고민
독립
사는
##지와
음식
##ari
경남
구속
##같은
완성
우리의
하기
하나의
왼쪽
##도에
##our
Ad
대통령의
대중
맨
참고
##zo
이사
나타났다
트위터
##이의
보이는
##ata
##리기
세월
확실
##체육
which
훨
싶은
##거운
##반기
##마을
45
##정부
소설
KB
ac
바다
##세계
이때
##감이
##주가
검토
외교
##리며
##인트
카드
만약
채널
펼쳐
능력
스트
케
데뷔
##어로
##함으로써
웹
##up
혼자
##사일
he
봄
지하
##우스
미국의
인터뷰
수요
그냥
경북
##als
사이에
##진을
##ether
00
만족
##카오
포함된
가입
앞에서
문의
앞에
장면
j
완전히
몸을
수소
울산
실패
세종
##방송
공유
유일
##단은
정부의
체결
##관은
흡
약속
연출
도로
##PA
##질을
##율이
군사
디지털
##행을
##지요
밑
이들은
##ary
##atic
접근
년
개념
둘러
##장애
정보를
내보
돈을
기타
점을
##인과
##소가
그것을
프리미
##평가
다가
##ener
##화된
리더
강남
타고
com
꺼
##시의
홀
회의
저작권
겸
##스럽게
##니아
##단의
청와대
하락
그녀의
뒷
##정으로
##실에서
more
바른
##ult
도움이
향해
##이션
비롯해
##아서
장기
##러스
##겠습니다
##과학
일자리
##하다는
더불어민주당
영역
근로
배열
##니스
코스
파일을
##ff
##구나
스토
보이
38
만화
수사
inter
수입
주식
민주
강한
##았던
##점에서
##시가
떠나
지금까지
서비스를
당연
74
혁신
왔다
없고
전반
동일
이재
이들
##달러
적절
이것은
생각을
훨씬
##dit
힘들
앨범
중소기업
##위로
시대
예를
##고는
똑
##워크
눈을
창업
겨울
그럼
##표에
가정
##수로
다르
불안
눈에
##사에서
차례
이르
유통
회장
잊
##목을
Im
겁
농업
입장
##세가
전화
##선거
주인공
됐
뿌
가르
민간
2013
with
소유
정부가
되지
들고
##상으로
##clud
##협회
also
벤
##이라도
##씨가
객
##관광
##시킬
신고
##호를
비롯한
필요가
한다고
##단이
##하나
사전
##12
##ption
##명은
300
케이
주고
##원과
탄소
##계의
##님이
폴
##했는데
전남
##대회
##무리
37
부문
##어들
##자에게
##겠다고
문학
그들의
##ard
##ures
건물
##한국당
작용
##해도
{
절대
보니
중이다
없었
바꾸
의원은
소통
##제공
내부
##먼트
의사
##rom
##시를
빠져
메뉴를
토론
##정당
##퓨터
rel
없다는
사항
–
택
것이었다
사업을
지키
중단
샤
생각이
includ
앞두고
밝혀
인한
늦
대회
탄핵
나오는
배치
제안
달려
잠시
##선이
##학년
##cri
##있다
거야
supp
##ep
##한다면
상호
불구하고
방침
##렀다
하면서
##당한
##건설
##18
확정
##회사
##체의
##님의
##ctive
덧붙였다
인근
살펴볼
조건
am
특수
mod
##인으로
##리한
##경찰
도전
갑자기
##oc
않으면
민족
영상을
신뢰
##체가
연예
원래
충분히
dim
Q
명의
소중한
종류
##카드
##ong
##월부터
sur
##들로
der
##군은
여기에
이벤트
보수
하는데
기여
실천
##formation
중에
이익
운세
카카오
자유한국당
##ast
그려
##별로
마케팅
홈페이지
Des
##아야
most
##구는
해석
##중앙
못하는
뽑
##ethyl
배경
시도
항공
종교
##비가
##진은
의혹
선물
메이
월드
2000
bel
90
듣고
##듯이
##이면
##ess
##ide
자리를
##40
측은
저는
2012
디자인
출발
관심이
##수소
##진이
동물
둔
##eta
굳
특검
##위의
##세대
고개를
발언
시리즈
##하다고
생각해
평창
##병원
기회를
giv
놀라
39
##닷컴
옵션을
data
##가고
##시험
불과
##원자
가득
잇
##니는
아래와
There
##조차
바탕으로
처음으로
##EN
낮은
##무원
##화에
여러분의
hold
##ment
gener
##한테
특정
짐
이미지는
프로젝트
##점으로
점검
원하는
고통
##계에
##ered
저녁
달성
##쪽으로
복지
구조는
제출
도착
##년을
##종의
##소에
뿐만
영어
쏟
##arbon
일은
##ER
##rang
꼬
엑
세상
있다면
support
##하고자
광고
##우고
관련해
##형을
말해
##17
측면
사용하는
목적
##해진
조정
범죄
##무를
엄청
길을
지식
수원
##ware
non
전북
지배
##fac
섭
관련된
매년
콘텐츠
걱정
화학적
##화의
##월에
일단
Wa
관찰
바란다
##gether
얘기
여기서
상세하게
완벽
충남
알려졌다
vari
호텔
프리미엄
기울
之
##자료
긍
그린
네이버
김영
헌법
피부
##모형
##발전
위치한
스타일
##소득
원칙
결과를
model
大
대책
졸업
information
고양
##iled
##드의
성격
##14
균
컴퓨터
나머
feat
지원된다
상황에서
마무리
Hyd
획
2010
학습
원내
펀
한국의
털
together
가수
conne
표시
블랙
##금지
값
##명으로
모형을
꾸준
##ant
##전문
아름다운
회원
파일로
오랜
자랑
쳐
##테인
pack
든
##럴드
도움을
Van
##간에
##이라면
벌어
지속적으로
##인들이
##간다
##로를
##ctivity
image
후에
##bserv
그것이
various
창출
related
충북
오픈
반복
심각
법률
시각화
##ordin
꼽
##시대
##ftware
##cription
여의
arrang
given
내보내는
인상
초기
##받은
전년
##active
단독
AI
작가
원자의
걷
##ditional
공정
채용
observ
##겠지만
맞는
효율
통과
개정
위하여
##예술
이유는
generation
##력과
##15
##년생
소방
surfac
의견을
결정된다
##연합
끌어
##군이
에서는
##ive
Carbon
below
##리오
features
Structure
includes
문제는
##AN
arrangement
##유의
Images
zo
##지면서
데르
software
하이
상담
사용할
분자는
##16
했지만
coordin
부여
비밀
국립
files
연결성
헬
deta
Description
수술
##낸다
supported
캡
반응형
배열과
사드
##시스템
분자구조
rotation
dimens
detailed
##lecular
명령
Additional
##하려는
observation
Molecular
발스
packages
##도와
interactive
단지
•
소프트웨어에서
connectivity
chemistry
##피언
zoom
좌표에
##전에서
원자들
dimensional
스페
surfaces
정부는
Visualization
coordinates
Waals
분자에는
화학결합이
화학결합으로
##수소결합
분자모형
깊은
비수소결합
생각한다
##는가
화제
멋
##지게
근거
##년까지
Hydrogen
전개
it
맹
투입
##해주
추천
##난다
memb
머리
##에선
관객
태양
조합
##트의
주도
새로
##25
웨
불법
정리
공부
셈
바뀌
상황을
##계가
걸쳐
빨리
강력한
##만으로
마음이
소득
이데일리
##보기
##식품
위협
##심히
사상
자아
있으므로
하게
싫
##작용
##챔피언
인간의
##문학
뉴욕
대출
##ect
비중
척
정규
##사고
셀
그리스
##해를
##경을
취업
##트워크
##ear
##선의
실행
놓고
##든지
##협의
##ST
##만화
했던
일어
전용
##전이
##if
잡아
자본
기준으로
##플레이
##지기
##반응
##많은
때까지
나선
##스토
부회
##프라
Kore
느껴
나왔다
포토
##시키고
##었습니다
##자치
국회의
컬
##율은
투표
##하겠습니다
근무
첨
곤
##언론
##되기
바른정당
합의
##보았다
de
비슷한
특별한
상징
이유로
아울
##제에
뛰어
칭
##ok
외국인
##습니까
검사
후반
들었다
메시
갤
##구에
위로
##13
상당히
EPA
국방
통신
##리어
##일까
##기준
최초로
◇
방법을
열리는
##기능
##께서
화장
##og
##스코
제거
##스테
##소는
##어버
##론을
갈등
눈길을
##률이
추정
밥
##atable
앞으로도
싶다
보건
차별
##제품
단일결합
할인
rotatable
##ans
아프
##IA
##일이
##놓고
누가
##율을
##음이
##ra
공모
48
것이라는
혜택
효과를
긍정
기록했다
##ial
분양
##다른
##려면
##력은
발굴
소녀
설계
식품
##라운드
##았고
55
제도
##문이
씨는
자녀
##교통
참석한
##부와
이탈
멈
아들
형성된다
숲
##드가
##게임
##뿐만
##금이
포항
JT
일정
늘어
상대로
42
따뜻
정기
44
권한
구분
임상
개혁
사람들
열고
활성화
연습
##안에
포함한
리그
득
##드로
방송된
##년에는
모집
##바이
모아
##메라
곳에
##ue
슈퍼
##문의
연계
미리
입장을
##말로
생명
##만한
삶을
가서
실험
선언
있으면
칠
소화
궁금
수많은
뒤에
부탁
##단계
불편
과정을
##드라마
맞춰
동의
##이기도
열렸다
맑
##end
##즈를
호흡
##60
대로
KT
사랑을
##쪽에
##터테인
ex
##호가
##나가
##아요
qu
or
불가능
위반
##치지
##ies
##가에
저작권자
나온다
김정
점에서
ring
##동차
##und
le
##량은
참석해
아버지
흔들
이른
말하는
두려
이내
아울러
이란
##hen
##연을
출전
안내
서울시
##경영
##어는
철저
다이
갖추
JTBC
사람들의
##생을
##이로
최선을
프레
##권의
##재를
만한
membered
아는
비즈
##트가
커피
##만에
없다고
2011
지역의
있어야
열심히
##력의
##대책
등은
점점
##미를
유치
##서가
##점은
##적이다
프로그램을
외부
##크로
중국의
##에만
앉아
벗어나
194
보이고
까지
##지면
대하여
돕
##억원을
진짜
지금은
본문
##비는
##스티
##ice
이외
책을
화면
널
끝에
ch
그래도
you
##안이
말고
편의
구입
말에
간단
남성
##부장
##방을
##시켰다
##을까
##all
##받고
십
진행된
민주당
##점에
융
##화는
195
人
빠른
##민의
흐름
##식으로
##ab
##가락
##사한
몽
알게
##ight
만들기
고리
##km
##호는
증거
도와
북한의
보장
생긴
인공
##one
##청은
스마트폰
확인할
주제로
아빠
##받는
##노동
베이
아무리
文
##역을
##자들에게
##아이
##소의
아니면
①
##23
##인에
43
직업
나도
##전의
실현
물었다
브라
나머지
오늘의
통일
그곳
##대에서
수용
게다가
##xy
뭔
이승
규정
끝나
예능
##대상
지구
\
포기
제일
크리스
쓰는
삶의
여의도
주장했다
##식에
##서관
새롭게
안타
마법
이번에
저장
구독
낭
않도록
춘
활약
세상을
대변
##석이
##항공
##스에
사실상
아동
짜
마침
##식은
##학적
마찬가지로
붉
정당
사진을
명이
##리스트
의미를
##리게
전망이다
이처럼
주관
##보자
아니었다
챔피언
쌍
확산
sh
다소
##트남
향상
때마다
많아
얼굴을
누군
축구
##류를
클래
파이
##질이
가까운
김성
부르
말이다
쏟아
##차가
동료
감독은
##IN
##시즌
초반
기업의
혐의로
국토
의심
만들었다
##80
##국이
그들이
from
됩니다
바닥
평화
##보를
##예요
##과정
기술을
##량의
인수
이용해
##랫폼
##조를
##조합
집에
이정
입을
##영화
##진흥
승리
##텔레
방식으로
오른쪽
봤
##이었던
거부
재정
사장
모여
서울경제
심리
이웃
완료
무엇보다
상처
##시고
골프
##했으나
부인
##iple
##지에서
##단에
지원을
전날
##력으로
◆
낳
Se
IT
##파크
당신이
##거든
##석은
어깨
##뮤니
딱
##키는
괜
##남도
맞춤
##ave
1000
사과
mult
가로
발달
모르는
관광객
##식의
##증이
이론
##명한
인스타
子
길이
##공원
##ian
Z
밖에
이슈
띄
분류
한반
##올림픽
결코
65
유리
취임
##ix
예측
##ie
보관
소리를
규모의
보이지
##티브
그러면서
복용
발매
누구나
중에서
##서에
죽음
보여주
유도
##ther
##산의
시작으로
##테크
챙
##와는
##신이
뜻을
##률을
극복
등과
허용
발생한
문을
〉
나갈
상상
만들고
먹고
##인들의
신용
약간
관계를
높이
듯한
자극
##년이
##cm
하자
최저
山
탁
베트남
②
##22
거듭
센
봉사
##회견
연장
##ov
폭발
##산물
쫓
주거
##자들을
파괴
시작한
사태
당부
##활동을
●
계산
글을
떠올
##uring
일상
，
##액은
협의
운전
이래
상황이
내놓
찾는
사로
뛰어난
신문
##신청
##금은
##년의
걸어
##제와
효과가
평소
##대행
앱
원내대표
49
흘러
■
참조
끈
그럴
언어
이것이
multiple
##조건
흉
거짓
대단
##자원
남은
살고
조절
##인터
올려
##었지만
받아들
적극적으로
##ee
실적
네트워크
##였고
아르
##타임
여러분
확장
능력을
판단되는
현지시간
있는지
물리
들여
2008
체계
영업이익
적은
##OP
거주
검은
창조
75
임대
주말
##석을
400
46
해양
비행
제공하는
##oun
최순
x
놈
오르
임명
##드러
나섰다
##북도
기자회견
##진의
화재
인증
##까지는
앵
중요하다
##표를
런
한화
자율
김현
열어
다중결합
##전략
US
##ign
않게
우주
거기
##하려고
##권이
이로
계열
편집
##터테인먼트
##국은
##구역
굉
〈
이달
입고
김동
##ell
웃음을
대규모
##주시면
빠르게
화려
인스타그램
##AR
나이
후보는
2007
##님은
그만
##철수
나타날
묵
시는
역대
acid
방어
##상품
탓
돌아가
넥
##ll
로봇
대표적인
##모를
흰
말은
깜
발행
##함이
##뱅크
제품을
미술
일반적으로
##치의
복잡
##방법
생각하는
##액을
임시
수립
개봉
47
중간
가리
꾸준히
쥐
경향
##재단
선고
미니
##히고
##ex
완전
사로잡
##약품
요즘
아직도
찰
##ON
tr
무시
실시간
정치적
정도의
발휘
안보
##서의
병원
감염
자격
##면을
그녀가
세상의
##차례
##지어
경우는
##ust
노인
##mm
##결과
힘이
시기
어찌
그렇지
자산
알려져
##었는데
증권
##선은
##조정
##보니
차이가
다섯
##자들
경우도
병용
##승을
##수와
못할
##스에서
자세한
##분야
##비아
자원
##소로
##심이
의무
썼
지적했다
것인가
맞추
육성
에이
디자
##어져
최순실
덜
##만원을
김종
세월호
돌려
노력을
즐길
721
무기
숫
##대전
##TN
기계
아닐
미사일
##씨의
과연
##하겠다는
##제도
카메라
공개했다
올림픽
Th
애플
##영은
둥
창원
패션
벼
섭취
커뮤니
센터
##부문
당신의
직장
##학을
##지구
##가로
있었고
로마
##체는
##se
내일
아이디어
가치나
##아버
조용
##받습니다
관람
활발
해소
상관
tv
##형의
※
미세
어울
초청
영양
##단지
fn
##omatic
비난
##동의
2009
거리
##주로
야구
교수는
##말을
받지
표준
벨
힐
뮤지
##질환
머리를
갔
##ork
이들의
##동아
##FC
훌륭
물을
주가
보내주시면
화제성이
피해를
##주민
있을까
분노
150
업계
말할
감정
##ions
김민
깔
##치게
충청
높다
한미
##소에서
##르크
뉴시스가
##바로
##지며
담은
##판을
7470
안에서
반영하겠습니다
대기
공감언론
쌀
제보받습니다
##명에
中
플랫폼
국무
오늘날
주문
##PG
자체가
그게
끄
얻을
일본의
##하였고
삼성전자
경기를
##면에
##ik
193
입력
싶어
가을
during
넘는
##라우
무역
변화를
아이템
돌파
준다
힘든
실질
was
집행
##공항
##속도로
##효과
핀
에는
##투여
##하이
##ark
지상
분리
##사람
가치를
##기지
##ber
맞이
그러한
모두가
띠
파트
##ame
굉장
적절한
엄청난
두산
받았
##비용
53
##다니
반응을
##치로
다루
지닌
약물
##시티
만난
낸
쓰고
임금
촉구
좁
고정
비상
이탈리아
유명한
##기획
→
경상
Re
방향족
##수한
회장은
##질의
측정
##선수
겁니다
같았다
가까이
제공한다
몬
등에서
없습니다
그렇다면
하나로
##치면
자리에서
##하니
수정
##90
##했기
방침이다
차단
##보호
연간
빚
##신의
애니
Copyrights
획득
발표했다
보안
어떠
생태
2006
삭
##조의
##협력
특성
계획을
##군요
##리라
##계약
취재
들려
aromatic
추구
방안을
##마저
##직원
##봉사
##이사
잡고
##발을
성능
52
복합
캠페
모른다
그러면
당신은
원을
농촌
##TA
##당을
##하면서도
신속
텐
##사무
언제나
정확한
새벽
##일간
##포를
##당이
##각을
##률은
##러분의
##상태
고령
동반
생존
꽤
예고
소비자
News
성과를
예비
교육을
##직한
출범
##수도
라인
명예
엉
國
##줬다
##ED
전부
뚜
IC
신설
공사
희생
##mg
##가구
##데이터
긴장
비록
##ass
상위
내용은
물러
##IC
사람들을
있으나
안철수
늘어나
앤
포인트
약을
##화와
들이
내게
대사
머물
##OR
풍부
##성장
一
##트리
항목
지시
탄생
방안
강원도
할머니
집단
##었을
그에
##님을
##부모
눈이
쇼핑
산업혁
일이다
##술을
갖춘
후원
##결을
질환
교체
후회
##면서도
죽은
##보가
보조
##SP
사실이
그에게
자리에
공개된
##관의
##담을
직후
둘째
##의원
##EO
의식
##력에
칸
테이
노출
개별
깊이
인구
씨가
재산
##드리
본다
뉴스엔
즉시
##ge
##제보
작년
인기를
행사를
##으니까
김태
곽
##대와
##월까지
문서
##사진
##라의
재배포금지
pl
##니터
##검사
나왔
##만은
점이
그러므로
##act
시상
이용한
##번호
##기까지
##자산
##숨을
생각했다
손에
##미가
이제는
잉
타이틀
짧은
횡
덮
진입
점차
그저
스포츠조선
##군을
사람들에게
배출
##영상
레드
멀리
이끌어
font
##마이
진행된다
##당은
세워
##ress
했습니다
대표가
공무원
떨어진
##망을
평가를
쾌
근육
##동이
셋
여론
꿈을
나아가
41
규제
때도
##조직
##OM
##버스
##특별
##수에
스킬
##적으로는
압박
춤
옮겨
##세의
주차
03
가상
##프로그램
sp
섞
##법에
있음을
무료만화
59
덕분에
산소
예상된다
quot
장애인
2005
상황에
유엔
전주
기부
##라스
##어의
##미터
아니고
있어요
최우
주최
##국을
빙
##선에
했는데
분위기를
비정
##실에
질문에
카페
##공간
발사
선사
##년도
개편
##우가
##다란
묶
임신
##man
##리트
##로의
##rop
종목
##포구
##가족
##성도
다니
##명과
훈
곳이
중구
고향
버스
필수
54
이중
##상황
찌
##당의
소리가
합리
##포트
##권에
##테이
스탠
녀
물건
##야구
복귀
올랐다
##사랑
56
형태로
매주
##자동차
떼
##ouble
조기
##ident
##차는
열었다
매일경제
##전은
핫
옳
발표한
깨끗
드물
##부로
개막
##것도
유니
물어
별로
뒤로
##ance
곁
##색을
느낄
캡처
들어서
구현
##비의
##이니
알려진
마주
##유를
그러자
아무런
청구
기존의
##uc
##26
##받아
64
것이고
진단
저항
일에
괜찮
어쩌
##락을
지휘
##설을
조작
때에는
초대
마감
뜨거운
기회
##십시오
평생
tvN
나쁜
##27
최대한
##피스
냄
멜
##가능
긴급
불교
풀어
##홀에서
1997
했고
앙
뮤직
이들이
신한
집을
대기업
##종합
근본
##동에
요소
돋
구성된
##마를
적합
떨어져
PC
뿐이다
##기기
##카이
연주
경험을
에게
##형이
가졌다
##되어야
마음에
김재
아쉬
영웅
크다
좋지
접수
KBO
##되었고
##개혁
뼈
절반
무엇을
##상과
먹는
나올
질병
##더라
어렵다
부처
##아의
##리면
무한
##28
정비
##공업
창의
건너
##연이
##체험
NC
##하여야
주어
아시아경제
보자
모니터
##io
동원
유저
종료
있겠
방문해
##타를
##해졌다
##les
will
##ind
##호의
내용이
Sp
##해져
하겠다
##성으로
체육
##함에
수석
따로
당연히
명확
##치에
double
조심
얻어
##물로
##현은
굉장히
최초의
##아시아
텍
##월드
##로서의
좋아하는
고급
만남
친환경
붉은
##실로
##민이
Korea
따뜻한
##셨다
인사를
외에도
##위원장
소환
##희는
##시다
57
##최신
쇠
진정한
##인들은
말았다
혼란
심사
##소리
－
젖
자금
공포
##리티
아이가
생각하고
##라가
##오고
행복한
##공동
##개가
맞춤형
기회가
##가격
##혔다
183
시선을
##전쟁
2002
##케이션
있으니
##일에는
58
##국제
신체
의미가
분명히
응답
월드컵
##olor
대해서도
##재판
go
##복을
유기
##방의
##물에
건립
##일은
##민은
아닌가
경기에서
다행
모습으로
스피
##int
떠오
사람에게
사진제공
##배를
##ome
갔다
당선
이성
진행한다
##EC
##졌고
남북
그건
작품을
재무
지역에
##서트
적극적인
목표로
약의
와서
편안
시장은
마디
##우를
경찰은
##미는
남녀
日
쓰러
CJ
기원
##정과
매수
잠실
##지사
틈
##경은
있었는데
나중에
##인에게
그랬
구체적인
##ib
철학
당장
##ace
한정
동생
지속적인
현황
##하겠다고
너무나
##물관
사이의
내에
부분을
##책을
갤럭
##사업을
운용
##언을
간담
입은
가능성을
반도
앵커
##친다
三
개설
방법으로
경계
##감독
담아
##류의
해주
수비
쉽지
책임을
모으
##전자신문
비교적
취약
##ire
수록
##하다가
생성
##음에도
이기
성적
##화점
mso
##out
채권
##ish
도망
튀
##속에
작업을
##씨를
제외한
셈이다
축하
서서
##나마
품질
비즈니스
王
파트너
밴
me
##등급
선임
뚫
날아
박정
##ime
콩
감독이
2004
이중결합
잠재
검색
##보이는
만일
전면
##경이
일제
##사인
##법인
##프를
나타나는
##클럽
##공을
제목
심각한
르
##스포츠뉴스
통화
김진
커다란
##DA
에너
부분이
스크
보급
맑은
##처리
##물은
출판
취하고
합류
주었다
Un
##지수
윈
생겨
쏘
본격적인
##받을
밖으로
##보며
형사
경제적
즐거
행동을
##조가
유발
올렸다
상반기
끊임
요리
응원
말한
드래
##안은
③
##니어
Tr
이행
##유가
닭
연극
설득
것이라
##안의
성남
##29
목적으로
##실이
네가
##크를
세포
방지
라이브
##산시
##IT
방향으로
##지능
##스턴
공통
조각
뒤를
##체계
##분석
밝힌
하였
##내기
##세포
불리는
취득
재료
##해가
##웨이
##수수
생활을
넓은
이용할
충격
##지자
곳에서
##종을
채택
웃음
##란드
듀
성인
한국경제
매매
##호텔
섹
입주
##문에
수업
넣어
##개로
펜
소송
공약
이영
63
옹
쪽으로
행위
##ase
유일한
담긴
수학
##액이
갤럭시
멸
##연구원
##시부터
amp
삼성전
##미디어
번역
##천시
참여한
##독교
무너
##센터에서
##세에
##치료
##사건
때가
보아
조사를
참석했다
동작
이유가
양성
주지
취급
동기
무대
펴
의원이
변호사
마침내
곳곳
못해
상대적으로
인재
블루
독특
##튜브
학생들이
##이즈
##억원으로
받는다
지니
란
##연맹
우수한
흔히
강남구
이른바
##팀은
한반도
##시킨다
##르기
그날
멘
##ng
많았다
목차
##받았다
##영이
##봤다
일찍
##로가
심지어
##lect
치열
대화를
##끄러
##amp
##하였으며
##AL
초과
위기
##파이
##News
##200
##ily
있었지만
##ational
아예
2003
IP
99
##마자
스토리
상장
햇
나눔
재능
청주
##아는
경고
##나게
것인지
어떠한
學
물질
어제
가게
발생하는
벌써
황금
합격
DB
마지막으로
빵
단순히
무릎
진행됐다
옛날
라디오
지자
장비
하반기
경우에
문제에
윌
보여주는
##국민
북한이
싱글
사랑의
sa
파워
##색의
근처
첫째
닫
오랫
##당에서
나눠
아나
이것을
선배
널리
##페이스
촛
몰아
##국에
##체에
##lic
김지
##모델
190
##여명이
##레이드
##orld
밟
감안
명칭
##내며
식으로
이상이
120
당부했다
공항
대법
##향을
##하시
서경
정책을
##양의
오브
##야말로
것이며
##이상
##았습니다
선호
웅
##집을
가야
##해지는
##매수
어른
이틀
내고
아무도
거예요
그녀를
시범
거대한
현재의
##까요
내에서
##건축
받게
##트에
오랫동안
무대를
OS
대처
85
일자
##조는
작곡
저지
가면
마친
낼
치료를
구간
강릉
기분
일어난
추가로
##축구
상태에서
살인
감각
##이와
근대
이상반응
부상
정유
이건
비가
오리
끌고
이민
외에
특허
잎
보았다
뮤지컬
저희
##per
전력
닿
수도권
AP
향한
##산이
자살
##기구
홈런
영원
하더라도
##운영
##란히
대북
옷을
맡은
##바닥
인용
have
##다시
깨달
국회의원
내세
호남
天
정권
정착
95
미래를
축제
미세먼
04
66
호소
As
##연구소
six
장난
##IS
그만큼
기업이
운행
출석
동일한
##하의
강의
입학
##나다
말로
으
증명
이미지를
사랑하는
KIA
이종
못한다
혜택을
유사
위의
##면적
방법은
홍콩
코리아
답변
몸이
아이를
사건을
아무것도
##럴드경제
가끔
훌륭한
논란이
처벌
옆에
폐지
##화로
주력
스위
##ake
데이
승리를
건강한
받아들이
##냐는
##쇼핑
부과
지진
시장에서
##나요
지혜
억제
이름이
。
##임이
위에서
종로
빅데이터
어려움을
##대출
촛불
사실은
깜짝
##식에서
영혼
통제
##식과
나타난
##ook
자네
가고
도쿄
##콘텐츠
##리자
보러
대학생
##준표
자치
고대
##거리는
엠
소년
된다는
신중
##건강
##공단
##세는
활용한
아이돌
자가
넷
##여서
교환
##광역
CEO
##놓은
##관에
##ES
##에게서
##일의
운영하는
대장
Com
##로스
올바
기대된다
05
먹을
##함과
comp
道
신선
##제한
##ug
##시했다
매력을
규칙
매력
후보가
분위기
##연히
공격을
##성한
결과가
키워
없지만
찾기
MC
하나가
##OU
마리
##절을
재난
##재가
##방에
##로그
Sh
속으로
##직을
##사들이
빗
부족한
##평균
##메이션
경기가
##주년
린
사내
하나는
사이에서
자는
##실한
유형
선도
##온다
혈액
느꼈
패턴
화가
대리
협약
67
쉬운
현장에서
##심의
Ar
내는
무게
인권
##하려면
나오고
##타민
톱
붕
##대비
시장의
지역에서
천안
정체
문자
##에게도
##resident
되기
##층의
수집
딜
화려한
조치
##FA
##류가
활용해
##CC
선생님
들은
기소
일시
김상
음식을
fam
아이들이
소식을
칭찬
무엇인가
##전거
수준의
시사
##되었으며
삽
환자의
##가와
만날
매달
##nt
점은
##나이
방법이
이유를
##방이
계약을
수수
##여행
통계
##름이
기록한
결승
테러
말도
Co
혐의를
##세로
본래
포즈를
강제
이용하여
##주에
인프라
##투자증권
se
보지
mat
##무역
다르다
입증
바꿔
렌
파견
가구
핸
##네요
왜냐
의존
법정
게재
없었던
인공지능
##35
샌
이슬
01
기독교
얻은
##업계
등이다
##리에서
통상
달아
이야기가
시스템을
세상에
##인터넷
$
거두
##이닝
냄새
기반으로
##자금
고백
변화가
600
##브리
##졌습니다
차이
기상
여부를
해당하는
빼앗
곳으로
선진
팽
무엇이
댄
이명
##연의
적응
도덕
공을
##종이
홍준표
반대로
머니
바이오
부사
고등학교
PD
##주기
전설
者
목소리를
개요
유의
##tt
창작
나아
##르지
이게
리얼
몸에
내린
집에서
51
##일로
##발표
##계올림픽
줄어
##즈의
함유
生
끝까지
아우
건조
84
상업
##소방
##었다고
공장
##재는
##안타
##리다
갖는
사기
멈추
##잖아
##스키
기쁨
He
##능력
유승
장르
토지
개방
목표를
목소리가
선두
뭔가
##기사
不
국회에서
Wh
FC
서초
시내
끝난
Al
##후보
진보
현금
보낸
##까지도
선박
68
전형
분야에서
털어
##해주는
##보건
초등학교
위안
##소한
유튜브
국내외
상품을
##렬한
##학의
때부터
##협의회
수능
링
##AT
이르는
오프
##xygen
res
##ning
##생산
지금의
잘못된
##치며
시작된
##AS
유전
등도
기대를
서울중앙
매각
##들이다
##교육청
이같이
파티
아프리카
##등록
##고도
##일러
연재
##진과
직무
기대한다
충돌
손가락
절차
동남
##현이
추억
점이다
CBS
관계가
##법이
업무를
시장에
##전으로
mg
##시민
꺾
not
생생
##관과
보존
격려
연령
자료를
##널드
믿고
##anc
##중의
시대의
##ite
1990
뷰
꺼내
포함해
찾을
sy
사람도
넣고
그걸
생기
관측
덩
Oxygen
신분
내리
정식
실무
고위
##ve
##재생
▷
##양을
장식
2001
##거든요
vs
##베이
그와
줄어들
전부터
##름을
산림
##격한
상당한
집으로
어르
학부모
넘치는
닥
무려
현상
탑재
##ember
겨우
수십
연말
##영의
닮
정확히
개입
##법은
ag
끓
##사이트
멋진
한층
시장을
상태로
Pro
지원하는
이주
담겨
계속해서
실내
의하면
YTN
이상을
셰
테마
int
저렴
단순한
상황이다
##선으로
압도
##패를
##하기를
적어도
##스탄
좌우
합동
발전을
동아일보
##mer
때의
아버지가
##적의
##시로
##르트
말하고
무렵
에어
프로듀
구글
스테
스페인
꼼
금리
푸른
만들어진
대통령과
독특한
열린다
그러니까
마치고
부장
솔로
쳐다
가난
의하여
06
생물
대립
법인
##행정
per
운영하고
좀더
東
특유의
##중인
##eb
강하게
上
##채널
##숙한
차원에서
신라
맡아
박사
제공하고
테스트
제약
##임금
얘기를
체포
통하여
##시와
##면의
이수
집계
유용
##ale
날씨
##서울경제
밝히
역사를
동해
아닙
오직
##시코
풀이
##루션
대륙
##누리
교사
본격적으로
family
##SI
##토록
공직
읍
##미나
여겨
##하지는
흡수
이지
않아도
##ry
공기
계기로
영등
주기
최강
무서
##려서
그렇다고
##고기
천천
##45
법무
나름
##ester
어두
한다면
즐기는
이번에는
##민주
혹시
롤
악화
손으로
##프는
고구
書
있는가
##일과
##서와
등급
##시키기
##ach
곳은
반발
제주도
완벽한
질소
자기가
밝혔습니다
쟁
무사
##석의
용인
장소
77
증상이
##ould
보인
당황
음성
##림을
광역
되돌
Fr
런던
회사의
검증
질문을
회계
##았지만
##상담
세부
김용
레벨
맞은
관련한
않습니다
원인
##해지고
##하세요
진행하고
##보다도
일반적인
합병
민주주의
보며
##있게
서버
마시
하니
올해는
감정을
##국가
증가한
##이던
표기
왜냐하면
기아
##매를
##상공
㈜
예약
누적
##월에는
경주
클럽
가맹
##장한
##군에
##설팅
##겨진
드러냈다
지어
자연스럽게
○
##해서는
##BN
##연은
비타민
쏠
##서로
교과
곧바로
이벤트를
전라
73
내지
관내
##뉴스통신
올리
자신에게
관계자
준비를
##미사일
##평을
대우
金
출입
##하므로
##밀한
미치는
기재
##권은
흙
완화
##터리
##례를
방송된다
##물질
##BM
his
천천히
바람에
대폭
2020
보상
평범
##전과
보완
##심으로
능력이
##마의
##버린
##후의
##은행은
타임
有
##엔터테인먼트
##탄을
1980
사냥
여기로
##ET
그렇지만
징역
메모
버튼
##가스
##통을
##터를
##문제
##문은
족
크고
중심의
##수익
듯이
off
▶
##기념
##부터는
영입
##연한
##개국
가스
##이므로
일주
##혁신
선출
인력
않기
상태를
##port
모색
김경
끊임없이
컬러
##세트
않지만
시원
살해
##ms
미소를
##해질
장학
##즈는
형태의
고등
결정을
뻔
흥미
반도체
기운
펀드
##하신
법칙
마르
##ob
소감을
##였습니다
충분한
굽
문제로
앞둔
메이저
##iss
화성
불꽃
교류
눈물을
이투데이
브리
했다고
##대사
숭
보도자료
확실히
無
편리
69
헌법재판
사용한
노후
붙잡
속의
##부에서
않으
거기에
내다
얻고
없게
##IP
유효
하던
事
패배
##플러스
##차로
##신은
드물게
대체로
얼굴이
게시
61
reg
붙여
##담당
공연을
##종은
어리
않았던
##ost
##회의에서
그들
영광
##단과
전파
만든다
의지를
연락
##관계를
아름다
##싱턴
김기
찾은
그들을
ad
##스런
un
##ory
IS
샘
##고가
개인의
##의료
동네
New
##해온
안전한
##심한
차를
단위
전화를
일도
어쩔
##판에
개헌
자전거
##무는
소아
수준으로
##스티벌
스튜
투어
결론
데려
싸움
방해
위대한
##과장
##색이
##상에서
종종
애니메이션
할아버
낯
함께하는
기온
##점의
디스
##해왔다
차지했다
##령을
가격이
##았을
##AD
제보는
사용한다
방향을
목숨을
한자
겉
부활
has
소장
##스포
장관은
가공
##ations
부분은
꿀
인지
이었다
##절한
가계
##길이
##모가
##이한
연방
느낀
청춘
시가
##기계
조금씩
변동
불어
전공
78
접촉
선보였다
중도
##져야
심한
심장
베스트
올라가
도달
모습은
좋겠다
##에너지
들어갔다
예수
##음에
##연금
세대
##됐습니다
##렸고
걸그룹
사법
##해양
취소
없애
싫어
진행했다
##사이
##단으로
발생할
느낌을
정신을
식물
up
부르는
##레이션
##마스
##그래
##배우
도내
##번에
##주와
어둠
보도했다
##였지만
##대문
언니
지역사회
시간에
사장은
공략
##나의
출처
##감한
다음달
행사는
사회의
##끼리
친구가
신임
판결
몰려
##재로
깨닫
##농업
GS
앞장
천연
보여준다
여성의
##됐다고
교회
술을
보여러분의
##키지
바르
table
확립
같아
눈빛
박영
나라의
##수산
##되자
##하에
계기가
주소
배려
##위원회는
안으로
대표팀
아스
우울
객관
오빠
시의
최소화
뚜렷
검찰은
76
은퇴
밀어
나누어
사업에
나에게
있었습니다
이스
##워서
겹
##천만
##fter
##시안
##으로서의
농협
##AM
늘어난
800
##달라고
연관
많고
차가
내내
머니투데이
##방향
##해진다
##체로
노래를
나타내는
##디아
OSEN
##액의
진화
빠진
##었다는
진정
##려야
##혈압
철도
이름은
범위
처음에는
김해
무척
##감과
##마는
NH
우리를
몬스터
도널드
do
당사
올린
물이
##증의
1999
매장
남부
지금도
낚
돈이
마음으로
김수
Le
뭉
사람과
1998
단백
우려가
의미한다
소요
등장하는
없기
##복제
읽어
우리에게
다르게
테이블
쓰레
##사용
##ph
좋을
##드와
法
연애
수치
08
커뮤니티
##ade
09
일종의
내렸다
##서도
유대
##RE
##살을
정지
뒤집
제정
뭘
##뉴시스
##36
큐
스케
##데이트
##해요
뻗
본인
Mar
##축제
이름으로
감독의
몇몇
않을까
공화
##생명
스트레
맞게
메시지를
휴대
④
출연해
경험이
##달라
##힌다
당초
89
이해할
무리
수여
눌
##kg
##운용
분포
##커스
더블
핑
마라
##훼손
Br
가볍
5000
62
##용품
백성
88
유아
而
##학습
휩
대결
며칠
김대
동부
방향족결합
선수들이
부품
##ID
##실은
떡
중부
##경에
비서
##음악
앓
##치기
냈다
그럼에도
중지
사건이
국가의
원작
분야의
##나와
일환
화장품
참여해
##도한
##했어요
평안
끌었다
마스터
##ert
종사
모니터링
멍
##구로
카카오톡
dis
이익을
##가루
면접
시대에
##iph
짝
되도록
대만
##도에서
州
중의
생각할
긍정적인
以
운동을
액션
리더십
올바른
##스트로
닦
##OC
게임을
갖게
##ames
##았는데
##관련
##수준
##억원의
##ane
진행되는
이전에
##분간
곳을
##겁게
##라서
구역
지하철
때에
컸
##원들이
깃
지분
##병을
98
##들과의
##점과
##계층
도움
##골을
지연
부서
Nit
현재까지
##OL
낫
래
72
##하라고
##거렸다
CC
매경
##ony
할지
##te
##수사
전신
##목이
##시장에서
##경쟁
세계를
##이었고
블록
##ung
보냈다
##시한
호주
데리고
기자회견을
##ree
시작한다
Con
코스피
들어간
노무
공공기관
충족
변신
돌아오
##프가
##roup
##천군
배제
투수
씨의
권한대행
##감은
##었으며
미안
헤어
their
##왕의
##트와
파리
##건의
##형은
##크는
##건이
편성
목록
만나는
출산
담고
워싱턴
##우의
：
##oh
##에요
되는데
NSP
멕
제공할
넥센
나라를
연구원은
##NA
##ank
씻
금강
존중
모래
전세계
접속
가동
그림을
낮아
this
일치
잠깐
##OT
포스트
부채
놓치면
##개선
허가
公
##포르
##린이
탈출
##산화
##마가
되며
식사
단기
가시
위장
필리
##진한
보일
개최했다
진지
##됐고
콘서트
##봐야
##미술
어르신
##경의
거라고
이은
노하
##시켰
가질
목포
솔직
신인
무조건
##기만
참여하는
않는다는
##화학
기분이
비교해
##idth
크레
##당에
들어오
들면
땀
수영
부딪
구멍
되었고
##리즘
부드러
너희
전원
특징이다
메인
무단복제
##미널
업데이트
캐나다
한때
소외
전해졌다
명을
한쪽
걸려
부터
성장을
97
똑같은
지역을
##냐고
어쨌
해설
로맨
용산
돌아온
1995
##메이
면역
##항을
바로가
##여야
착용
재미있는
행사에
워크
당뇨
피고
##형으로
주제
층
아마도
##본다
화보
대표하는
것보다
250
말라
180
##점검
이용하는
##타운
시기에
##하기에
갖추고
##기록
계란
지명
즐거운
시장이
인간이
##99
##we
안정적인
첨단
풍부한
지방족
호응
성분
종로구
##선에서
단속
##랍니다
물에
장착
살펴보면
다녀
묘사
로드
##POP
조치를
##재의
최소한
기후
환경을
##조원
아버지는
##ina
공산
##아트
후속
##전한
##ube
경제정보
##소설
##우기
##네시아
##iphatic
aliphatic
##lor
확실한
서민
##들에게는
자아냈다
##됐으며
파이낸
사유
데일리
고객의
대개
사업은
기록을
밝은
##학자
달하는
어디서
다리
점유
##생활을
비로
07
AR
손님
이어지는
박성
물건을
에피
공중
##회장
태어나
유입
##48
밸
##리면서
##37
##대화
##시까지
농민
역사적
##차전
##미의
##분께
##ash
들을
##에서부터
##놀이
정답
아니지만
ab
神
웰
##법으로
부부
세운
나가는
여행을
대통령을
1996
이자
서구
年
##된다는
##31
트리
투자를
##광역시
이들을
작동
##겠지
지은
연휴
증정
상생
거절
불을
##비로
고마
Ex
한강
흩
아이의
우승을
##산에
나타난다
체크
대답했다
높이고
##ition
권력
##판매
##교육을
서울대
##조로
수백
플래
하느
이같은
가치가
의지
##이너
##센트
##여자
투명
##적은
##비와
##고한
직전
방사
궤
데이터를
드림
임직원
현재는
변형
않았지만
예전
뽐
##짜리
김주
##총리
##주었다
전략을
정확하게
한국은
미래에
소속사
##용으로
사용자
보여주고
##되기도
##cc
환영
승진
꼴
농가
자발
##로로
기도
세계적인
타이어
지침
지표
아이폰
무관
색깔
오염
##면으로
이슬람
##low
##EL
매입
붙어
융합
##회와
논리
part
죽을
대상이
다음에
地
업종
전후
유해
理
느끼는
모자
역을
##위와
이상한
경찰에
높였다
온갖
##물과
내용의
said
##대체
일정한
컴백
##실험
다하겠다
##로지
다이어
자세히
모른
##ene
이나
훔
소형
택시
하나를
##투어
신입
청소
포도
말했습니다
종류의
##5000
서울중앙지
##프레
##드에
##이었지만
##수요
연예뉴스
##use
텔레
##호선
##라엘
즉각
갚
세계의
날이
세금
싶었다
부분에
##행이
##투표
배가
##줘야
##주년을
즐겨
공무
##법의
집안
드라이
World
##조에
##산은
법적
대한민국의
표정을
##군과
발을
솟
##래도
##비에
시나
水
율
자신들의
##요한
팩
##화문
홀로
가려
##치와
단단
개그
유닛
추진하고
재활
사이버
총괄
방식을
촉진
미친
year
중반
##바람
아끼
부담을
이룬
캘
87
연기를
도발
CD
##55
어쩌면
편이다
##종목
##크가
곰
파이낸셜
알렉
부하
멕시코
인터뷰에서
##다리
장수
금속
☞
##답게
아카
Nitrogen
##트에서
피아
중에는
##34
과제
턱
원활
엿
바깥
끝내
노력하겠다
트레이
##현의
코너
팀이
임원
기다리고
상임
귀족
진술
신의
존재하는
않았고
개발한
이루어진
신앙
누리
bl
##회담
##심사
아닙니다
##마토
결의
##잖아요
지니고
셋째
##디션
##공개
늙
##쾌한
한참
무료로
댓
##실장
용량
거론
멀티
##친구
##추진
보유한
##자도
##이게
##박한
##rim
고려해
##내용
그다
문화를
토대로
제재
높이는
태어
한글
방송을
선택한
##PGA
II
차기
군은
가벼
신호
원인이
##지않
##지인
여부
##스케
일대
듣는
되면서
##졌던
비트
지나치게
也
같습니다
##바다
가만
kt
모은
##석에
##oT
##들었다
다름
##따라
진료
해방
내외
##체육관에서
아티
무언
보유하고
캔
권리
갓
위험이
##자본
day
규모가
결과는
된다고
지출
찾아가
구체적으로
##실의
##팀이
초등
막을
돌입
태어난
그나마
미세먼지
유래
생각에
요구하는
어려워
##라우드
밀려
후에는
역량을
선전
아버지의
선정된
수준을
아들이
뿌리
스페셜
병용투여
잡았다
安
균형
지향
에스
이끄
##BA
##ence
行
79
느낌이
##메달
타격
강경
##피아
회장이
성립
시대를
플라
##ors
##캐스트
잊지
응급
벤처
폐쇄
##텔레콤
못하게
##고등학교
아웃
학생들의
새끼
의해서
답했다
개통
##주세요
두려워
초래
랜
자라
영화를
##영업
##님께
빛을
눈앞
##타는
아가
##살이
드러나
둘러싼
##뒀다
##렸던
치고
엘리
##하자면
신부
##금리
##aw
No
알지
##urn
그것도
제어
중학교
공간을
이렇
있음
가량
나타났
겪고
화이트
##양이
승인
##eop
고딕
##조사를
또다시
공작
##만으로도
형식
그간
##회의를
손해
VR
##생이
##동은
인하
##ss
복잡한
이리
팀의
비정규
인기가
눈으로
석유
經
SM
주주
최근에는
De
책은
##초등학교
##irst
상태다
업무협
간호
##져서
진행할
총장
제외하고
구별
셔
부지
##악한
조언
잭
종이
너는
성공한
##소와
조세
的
##any
수리
스티
FI
프로세
살짝
##ci
##pen
선수가
##로도
그러니
때리는
삼국
여섯
##쟁이
en
측면에서
생각은
처음부터
##행위
하여금
##수지
##outh
##화한
##OS
팬들의
레이싱
맡고
##티즌
경쟁력
신세계
##100
숨을
##준은
다짐
권장
인도네시아
남겨
남쪽
##ick
86
서류
일하는
##테르
##크의
굳이
말레이
훈련을
했을
##ck
이태
스타트
시에
##행사
본질
비중이
인턴
下
##하기는
##ox
도모
뇌물
##정도
있을지
##오를
남자가
心
당일
증상
##통합
지내
곱
##적한
##프의
높여
이끄는
침묵
num
明
때문입니다
영국의
보편
드는
스포
##순환
아니라는
실시한
##받침
##트라
##트롤
이스라엘
드디어
##주지
##led
동참
##관으로
기술이
김선
모르고
헛
##작업
구독신청
##우리
위원장
자식
南
여자가
골든
##마켓
##ict
##너스
최우수
폐기
미만
죽음을
‧
보면서
##enter
소련
썼다
3000
미국이
인쇄
##교를
##곡을
형제
##저작권
##사례
기록하며
##파스
##ose
코스닥
96
구청
이경
실시했다
읽는
막아
##긴다
기쁘
놓은
##그러
##답니다
속도
패러
新
릴
오토
Cl
역량
##령이
지리
가깝
북쪽
펼치고
식민
병사
표정으로
고객이
여유
생기는
화합
들어가는
신동
Cont
의뢰
##범죄
##희가
마음의
700
불확
##보지
의약품
안동
국토교통
##96
##망이
읽고
차지하는
그렇다
##철도
##간담
의견이
TH
##타워
녹색
##38
틀림
치러
건의
저하
뛰어나
지자체
after
바람이
##시장은
혁명
끄덕
컨설팅
순환
##소프트
이대
결제
##등을
성공했다
대학교
때로는
##파의
本
##구청
##erman
수면
윗
##농협
양국
지불
철저히
##여성
의도
적지
치명
사용되는
오지
##95
랭
버리고
이어질
사실이다
LA
시민들이
각각의
##hip
##가며
살아남
보증
##버렸다
##드린다
서부
민원
당시의
##판이
특별히
사진은
타입
학술
간단한
^
짙
##ax
목소리
##라리
동맹
cl
음악을
순수
킹
##ren
##주행
##시하는
##놨다
경쟁력을
무대에
##선과
필리핀
we
나선다
약은
꿈꾸
여야
추적
없으며
##와서
심의
##이야기
붕괴
my
##거리를
##즈가
지방자치
##원장
목소리로
하드
댓글
떨어지는
##풀이
박지
다음날
동영상
부작용
역임
현장을
담배
##포럼
##키로
모임
어머니는
단축
평양
##주인
신장
##98
서식
제국
없어서
나오지
사회복지
아저
거친
옵션
어지
##파일
스탠드
이루고
고전
##차의
활성화를
출생
피의
##TE
매체
##PC
두번째
현행
##olog
잡은
결과에
##이에요
이외에도
안심
##land
##교의
협조
동양
갈라
##월한
새누리
##스팅
하거나
안양
움직임
나누고
절차를
올랐
##셔서
IoT
배를
##욕을
##됨에
서양
President
미국과
##견을
도서
금액
삭제
포스터
##되는데
EU
일으키
비율
독서
세계에서
##수석
더해
강요
오피스
출근
부적
##행한
때문이었다
원정
고성
움직이는
Part
태평
웬
다수
얻었다
규모로
한마
김정은
상무
준공
광주시
##아웃
모으고
##진에
ester
드래곤
과학기술
했다는
특성을
추측
네티즌
펼쳤다
##ild
小
발급
##단다
정작
자유롭게
선보인다
인상을
국가대표
##반을
비용을
正
엽
평범한
원의
채워
탓에
##감에
협상
##동물
산업혁명
짐작
카운
이로써
떠난
감상
나면
##ext
계절
♥
일어나는
가격은
반려
간다
몰라
##데요
##왔던
##가요
않으며
##중심
실시한다
부회장
##만원의
##공연
##tern
##시청
해상
##저작권자
터뜨
해수
##졌다고
##사회의
##코올
구름
평택
주먹
정도가
##됐던
높게
도심
성공을
분위기가
위치를
몹
##중이
유일하게
고구려
##들로부터
##라를
대변인은
갈수록
커플
나설
에피소
그야말로
김희
##안보
재생
이준
##오프
다스
바람직
보내는
이혼
네덜
확신
유력
문화예술
브레이
이후에
##센터는
워너
정해
예외
##ann
##33
되자
도구
기뻐
확충
주변에
방영
빠져나
필요로
##렸을
氣
아이들은
팝
平
1970
Ph
비디오
만났
다니는
유승민
배당
##고에
주체
참여할
##편의
그릇
사용해
##으려
서술
곳이다
##면에서
아이는
진실
후보자
##eople
SU
힘입
##악의
but
二
둘러싸
##타임스
other
가라
내달
연구를
아기
##창업
것만
##만원으로
##느라
AC
게이
감동
와이
살려
리스크
##르며
##ics
##스카
원장
##ler
##enz
이어졌다
덴
감추
기본적인
수요가
얽
클래식
비로소
베이징
최고위원
포착
묻는
일환으로
성향
해안
포르
박진
박수
집어
其
추세
##교사
크기
도대체
저소득
엄마가
##인도
것일까
음원
서해
##고의
개척
제작발표
##RI
보여준
말이야
매니
굿
제시한
맡았다
유동
다수의
##만명
흠
적발
전역
아무래도
귀국
않겠
장을
##계는
##훈은
창립
말하면
파이낸셜뉴스
다채
상향
주사
포스코
유사한
##reat
##태를
시달
청문
짚
##럽게
걸린
methyl
##드에서
거리를
만성
##돼야
##면이
제이
다를
일이었다
##저히
bet
광화문
기본적으로
##신경
시간은
간편
수급
##자들과
포장
슬픔
누군가
사전에
사용하고
화제를
##스레
##보증
보게
여수
입장에서
##왕이
sec
미국에서
태도를
##72
##차에
북핵
##AC
참고로
일관
쓰지
․
포털
2019
비정규직
조용히
##작을
대량
전체의
태극
長
아메
훼손
마크
고발
위원장은
재밌
##건으로
##의가
##row
길게
냉장
활동에
##ulf
재벌
뱀
성공적으로
##우며
##박물관
제품의
수주
막기
부른다
##르의
공동으로
조명
배달
##ink
팀을
家
워낙
도중
톨
##내지
있었기
##자고
##회관
상처를
조종
##시피
관여
흥행
##잡고
이현
##색으로
br
##하우스
##orth
앨
te
사항은
##킨다
이념
##중공업
찾고
어쨌든
고통을
남의
넘겨
간접
사용자가
치매
##폭력
충전
놓여
##로이드
과거의
の
##췄다
치열한
94
개성
대표이사
고유
##된다고
베어
위기를
날카
##거리며
진행하는
되찾
##페이스북
##시장의
납부
、
땅을
전자신문
性
##산과
時
크로
수를
출마
##위에서
##책임
사물
캠프
맞서
빌려
##미지
오늘은
Be
생애
아니라고
위기에
노트
언젠
품목
말하며
케이블
##중을
##vent
대외
속도를
고속도로
희망을
여성이
해운
도는
불이
했으나
넌
들여다
단어
시점
고교
뜻이다
끌어올
부대
세트
##도우
하얀
맞지
##ublic
응용
수험
동쪽
##청이
저도
혼합
급증
적을
CG
소식
스튜디오
버렸다
극본
모았다
티켓
최다
##러리
##금의
도서관
텍스트
##회말
허리
사업이
##ah
투쟁
존경
금호
작가의
궁극
##분은
세무
마련됐다
콘셉
바닷
야외
외모
상태가
불가피
못했던
노선
발효
##침을
다룬
##구와
##che
들어갈
생겼
조지
##생의
연재물
것들이
편지를
##주얼
##에서만
##화하는
불리
##포토
페르
##제약
험
동시
흐르는
하나님의
##통상
##결정
싶지
##연수
진로
##75
##Cube
기대하고
##롭고
##px
##터가
바로가저작권자
바로가저작권자서울경제
##화에서
빨간
적폐
상의
당한
##이었습니다
안타까
전체를
##와이
사건의
시작해
##oint
알리
출국
봐야
이끌고
알레
故
##호와
같아요
정원
##마크
덤
##포먼
정규직
정우
가능성도
시청자들의
##시리즈
서쪽
##벤처
##리포
##웠던
if
놀라운
이상으로
##범위
점도
##용량
킬
엑스포츠뉴스
##기한
증언
##였는데
##권과
숙박
##디는
바라는
갱
구속영
가속
##공헌
거다
Δ
브리핑
##ction
지능
##백화점
##프리
쇼케이
경향이
##비전
관해
##님과
수습
생각하면
##입니까
##렸습니다
##상승
지었다
##까지의
##ater
이병
밭
넘게
유출
말레이시아
시인
미국은
선보인
이며
기대감을
자이
사용하여
엔터테인먼트
아닐까
호기
##운전
자기의
보건복지
장치
수상한
시정
##금으로
##ium
##국으로
71
마련했다
갑작
VO
자꾸
城
합성
윤리
의결
분할
##문과
찬성
주간
##lu
뜬
한국시간
존재한다
##니가
its
160
후배
분석했다
##업무
義
캠페인
##루를
##시하고
##pe
高
##론이
추모
##들고
Korean
di
아나운
테크
익숙
관절
채무
선제
청약
이집
지지를
피해가
##되었던
명품
벗어
힘입어
까닭
MK
눈치
##론의
UN
Gr
중에서도
물류
##하라는
시청률
##ound
##강을
점포
고도
韓
친구맺
가기
##머리
뷰티
브라질
##일자
패널
北
씨를
노예
조달
갖춰
작품은
부각
##실히
얻는
사고가
지원한다
##ttp
머릿
사이트
width
##으려고
##공장
전송
병행
실망
이르기까지
##inis
유지하고
득점
##AP
맛을
##uary
배포
아티스트
노무현
분야에
陽
가볍게
##46
##TI
차이를
행운
콤
오래된
##쉽게
소규모
중장
고생
##둘러
李
위험한
나쁘
협업
짓고
무의
추진할
아파
가르쳐
사업의
대거
##버그
설문
##베르
흐름을
놀이
##컨대
받으며
자원봉사
무선
성취
입찰
##람회
##데미
##속보이는
##었기
##파스속보이는
편입
관할
일어날
일요일
하천
##우러
정도는
화를
##용이
인류
##재료
깎
라이프
##준비
만나세요
느끼고
봅
극대화
정말로
##NG
한경
##서비스를
어머니가
##맞은
##열을
##DB
이하의
현상이
업그
##예산
기능이
드러났다
협력을
간에
ww
##az
##야만
받기
퍼포먼
초점을
경매
다행히
보이며
나란히
##예방
##음은
적합한
경제신문
주장을
절감
##세이
났
##DP
북부
##족의
연대
##워드
수목
동북
잃어버
국민이
드리
우리나라의
듯하다
쌓아
부담이
없으면
페스티벌
##일랜드
웃었다
결심
##으로도
##급여
전경
부러
신생
알았다
조리
귀여
귀를
##때로
안고
강화를
변화에
1994
관심과
춘천
##회초
사용하지
배우는
##소비
##층에
##보장
##왕은
보스
김병
##레인
문제의
실시하고
##센터를
##심판
애초
진주
적정
일방
지나지
##시설을
##랑이
심판
투여를
아래로
분기
김포
두드러
나이가
##인들
실력
##규의
매출액
##oo
유전자
법을
전까지
백악
成
현실을
관점에서
##주간
분들이
디자이너
##포인트
완벽하게
극단
생리
##하기가
www
##타로
적어
뽑아
마포구
하나인
장관이
구제
수사를
합쳐
수산
부정적인
##ons
몫
포켓
트로
##ivers
그중
해체
ph
당신을
전사
유로
시작하는
##보라
이어진
상호작용
##아지
##디스
##씨와
##가치
회의를
##ike
모를
1991
美
##사업에
pre
실질적인
론
이사장
국제뉴스
German
##었어요
##위원회가
교수가
한국에
재개
본인이
매도
손상
과학자
##하셨
爲
믿을
##vel
고속
인민
참여를
##국장
알파
110
의장
##공학
계급
스승
몰랐
육아
롱
##ae
언덕
경기에
태국
의혹을
다해
나은
공주
##디자인
잃은
##펀드
생각하지
시민들의
조례
口
실업
##투를
거울
무덤
록
##89
가짜
자문
텐데
지역은
이적
일부를
해요
경비
시나리오
스크린
굵
철저한
스탠드에서도
이어지고
한해
부드러운
임상시험
##홈런
위험을
石
탑승
행위를
만나세요뉴시스
##든가
몰래
그래픽
복원
##셔널
##인들을
알코올
스타트업
프로모
얼굴에
연설
정수
##림이
발언을
헨
국정농
사퇴
알았
해피
모험
##황을
숨어
해군
꾀
수확
Ind
수익을
생길
##참여
이명박
한가
침해
지원할
한국과
순으로
##란을
##65
붓
원전
봐도
마땅
##타자
제도를
##코노
장미
##net
##PS
탱
퇴직
결정했다
대다
연상
보내고
##둥이
구미
##한경
의외
돌아왔다
비유
##정신
녀석
##pl
미칠
급여
사고를
##되거나
타이틀곡
점령
인생을
관련이
거지
대안
육군
피해자
##톨릭
재건축
맘
구조를
알리는
##사항을
##현실
##파가
토요일
不
컨트롤
##문으로
130
폭력
찾아가는
개발을
##고속도로
기준을
상영
##청문
주변의
등장한
##없다
켜
##경향
선정됐다
혈압
##방에서
노란
##41
배경으로
갈아
月
##희의
영향으로
후보의
청렴
##할지
무엇인지
##YP
싱가
부드
났다
친구맺기
가만히
##wo
비판했다
방탄
가지는
읽을
인적
##플러
##졌다는
착수
국내에서
##기에는
신곡
러브
##퍼스
제휴
이겨
세이
차세대
의사를
총리
양산
끈다
공원
참으로
##위원회를
프린
##ier
##집니다
##기에서
스틸
말씀을
제임
살아가는
출신의
match
낮추
왕이
절대로
한달
배운
서서히
국정원
때때로
##ise
급격
new
약한
중독
무력
사무총
pol
自
설명이다
主
복수
회사는
##온은
급성
땅에
연수
##oy
아까
이고
##토리
받아야
삽입
달라고
갇
어려울
##토론
않다는
##복합
김준
간주
일자리를
##파를
월화
관리를
한계
소수
1987
마이크로
방송에서
투자의
중국이
교육과
별도의
##골프
피로
##런스
##터는
##인증
공부를
남해
##나를
개최한다
허락
##신고
##장애인
##함은
선보일
##하를
유연
솔루션
던져
인간은
##cy
고수
표창
##경기에서
좋고
##라이언
기업은
##본부장
어두운
##는데요
##stem
보라
성적을
대상을
수렴
사우
##하더라도
##주식
十
모습이다
문화재
확인하고
South
ICT
해제
시골
##itt
번도
##기업의
프랜
사령
터키
고맙
비극
##였으며
##주의적
이곳에
##인물
그러다
최적
랩
보고서
##97
FTA
##료가
환자는
외환
일로
북미
##노트
제조업
디스플레이
##피해
체력
거죠
보러가기
실력을
83
바랍니다
슬라이
料
이재용
크루
눈물
재발
##여명의
명령을
슬로
신화
##역이
##순위
##르몬
심상
스코
가능하며
again
五
김승
##접한
##화하고
##도서관
가뭄
성공적인
부근
##당과
##ai
코미
황제
##기반
일일
바라보는
싸우
스웨
##두는
##ustr
폼
##혈증
모바일한경
##글로
Pl
추석
##장치
나섰
##청에
##인권
##igh
前
FA
출연한
선보이고
원천
서초구
##님께서
강연
포트
부당
고객을
위안부
z
팔을
썰
생명을
상관없이
상속
##이도
your
##희정
1960
박상
승객
간부
##겠어요
##ey
海
1992
##하러
편이
요금
박종
제고
##84
##MS
##apter
자존
안팎
성격을
##FF
##졌지만
주목을
會
民
##막을
주한
베르
노조
##습을
모르게
히어로
불렀다
다문화
포스
##학회
##부채
★
회사가
시공
##옵니다
##ock
방송되는
삼아
선택할
##지대
거리가
##처분
증가하고
##시장이
바꾸는
##고객
불확실
정밀
신축
미소
있으
공개됐다
##67
ll
톰
##품이
##과도
사람들과
증가했다
말까지
첫번째
양의
장례
설명을
주행
반응이
그리하여
##명에게
음주
잠을
호흡을
##허가
구경
전술
대표의
앞선
##US
##일으
아이들의
##air
높고
자료사진
장악
마련해
본인의
세미나
##백을
강렬한
##자유
즐기
사회공헌
82
일정을
누구도
##편을
대책을
이루는
##체육관광
소멸
진행될
모양의
토끼
아트
宗
인사청문
가능성
공인
해명
오버
전쟁을
##해지
##달아
그레이
##국에서
공동체
통보
맞고
면에서
잉글
정부와
##회로
지원하고
프라
발간
##작은
##부처
예산을
캐릭터를
西
역전
느꼈다
연구개발
신비
##pr
세계에
학생들은
유망
포럼
분이
##시간을
헤럴드
등판
##박스
점에
쓰레기
##나고
소나무
##나갈
##퀘어
도둑
하라
명백
##병이
ㆍ
##즈와
##속에서
앞의
##사전
잃고
##스포츠조선
현장에
중국은
##장관
하늘을
##받지
##ject
계승
쿨
관람객
史
남긴
혀
찾았다
##국제공
뮤직비
오스트
##ple
한국에서
차지하고
나갔다
맛이
현대차
돌아와
신제품
평가했다
벌어진
ET
##두에
설치된
101
영등포구
내밀
대단히
오고
Is
##움과
아미
개선을
무장
달린
아픈
##토를
주어진
그다지
tri
##연대
조건을
바닥에
##환이
미래의
순위
주시
모범
어우러
남자의
다리를
전기차
판타
일각
허위
카르
##타임을
수강
델
구단
별도로
알아야
끔
first
마쳤다
버튼을
지주
사후
여신
톡
각자
실용
전일
##재산
##자마자
##시장을
아이들
소셜
찢
대가
남한
극장
해가
##차게
##Copyright
전담
앞세
있다가
기호
경력
커지고
연금
##EB
고객에게
##로디
##하가
##로워
당연한
안녕
서로를
였다
일러
이순
매월
대부분이
##국과
##리안
외국어
본부
##ven
결혼을
group
##어지는
잦
기사제보
선을
##동과
양도
삼각
주저
1993
발생했다
발표된
충격을
##ton
웨이
93
##준이
로스
##br
기획재
119
보복
주민들의
##권도
##버트
이원
여자는
##감사
##졌을
정성
##지역의
##계획을
물고
장기간
##회에서는
부착
이야기는
##위원회의
엔진
식사를
이거
시티
##임에도
양쪽
世
검사를
클라우드
##했는지
제품은
금방
없도록
인기뉴스
메가
지역경제
##시마
받아들여
반박
##거리가
http
툴
출혈
햄
coun
입법
검출
다채로운
얼굴로
미션
##OO
탄탄
second
꽂
늘고
누워
##타이어
시를
거짓말
##44
##슨은
##되게
남을
발전에
##역에서
시급
##하게도
뜻이
기름
에너지를
지붕
##설이
진행한
##련의
##인력
직원들이
중증
고소
새해
윌리
수상했다
몹시
감시
진행되고
불러일으
##방안
들어와
과장
동화
소매
##디언
송파
##헤럴드경제
보세요
진심으로
행사가
동의어
튼
軍
퓨
위생
몽골
다음은
##우와
##day
인생의
지식을
세웠다
##밀히
##사령
##음으로
영장
CN
콘텐츠를
스프
보여줄
자신은
들어온
所
가격을
방문한
81
##차이즈
##차량
노력이
재현
꼼꼼
있어도
소중
##주의를
없다면
Par
##인들에게
두루
##자문
##리포트
진실을
것인데
당당
자신도
아이들을
유산
용의
##이면서
내리는
德
기자간담
참여했다
저축
건강을
재해
전략적
사례가
##ml
##어와
전달했다
can
##bers
##이든
##린은
데는
##gr
감옥
##환은
블랙리스트
럭
##자나
든다
탈락
##브를
##ween
##로서는
│
주장하는
##론은
##공급
元
승점
Other
원인을
##칼럼
머리가
온도
##았으며
화물
제시했다
##기금
당첨
##심은
소모
金
##속으로
앞장서
호응을
중견
##후군
知
추첨
work
##전시
##2000
썩
##크라
##인당
白
##ines
##자로서
##henyl
##나라는
즐기고
마사
##85
##산업의
하나도
가요
홈페이지를
통증
높아지고
와인
뛰어넘
답답
##었으나
많지
이윤
오마이
맵
핸드
朝
가이드
논쟁
발현
##ward
어디에
광명
전체적으로
분산
##운동을
유혹
맞춘
헐
바뀐
장면을
준비하고
##color
##개소
We
IM
지키는
대항
좁은
김광
추구하는
딴
##nce
김소
넘어서
눌러
경로
門
생겼다
감수
신이
이해하고
데다
목적을
목을
생각합니다
목격
노사
활발한
##이트를
남동
이듬
하다가
커뮤니케이션
달콤
##란한
남겼다
면세
##어지고
소금
뱃
AT
무서운
그랜드
경우에도
살피
괴롭
우연히
비대
것인
syn
##적이며
##지다
효능
생생한
픽
히트
자체를
고조
돕는
기반을
##늘의
저렴한
적도
##집에
##미한
순식
복사
야간
여자의
손이
수의
한창
부패
무궁
기다려
현안
보냈
스포츠서울
냈
용서
컵
지수
한일
야생
정신적
위탁
CH
##법과
##94
##놓았다
치유
##인한
추진하는
전망했다
아픔
수호
김명
##팅을
시켜
인명
가벼운
죽어
경찰이
챙겨
서울경제의
일행
가득한
전수
140
##시간이
지옥
##경찰서
한국을
분해
플로
개발에
##실과
##격이
가족이
##생물
구상
李
##방으로
세우고
##환자
의미로
##장인
##근로
소위
강화하고
점수를
껍
절망
안된다
끝이
자율주행
전문가들은
한동안
단백질
##쿼터
##32
작품이
후보를
나간
##릅니다
골목
꾸며
##유기
pr
휴대폰
줄어든
##스러워
중대한
어머니의
산불
##아파트
바라보고
소개했다
##세한
끝으로
아이디어를
김형
과정에
##용을
##아리
Sy
고기
##회의실에서
일주일
타이거
##cent
계좌
규모는
app
유관
기각
찍은
기업을
##셀로
할까
확대해
쉽다
출간
회사를
건네
##만여
감지
##인사
원내대표는
##동기
##층을
##호로
##졌으며
것들을
##ath
마이데일리
##년째
太
보낼
날짜
메디
피아노
출력
##공이
싱가포르
엇
농림
ne
대대
사회를
##년과
하는지
사례를
##이었는데
안전을
태양광
전에는
##enn
##구에서
편지
##au
##티드
잡지
##본을
사람으로
##설계
음반
##무가
##층이
카드를
##편이
집권
##상적인
전직
걸고
세력
##here
상용
기여할
##인드
거뒀다
주민들이
장점
相
기어
코드
##집이
적당
등장한다
##풍을
바라보았다
시민의
##지원센터
##판사
아니냐는
##중계
##영을
일곱
않는다면
적립
##린의
경우를
##니를
over
오로지
활약을
##피를
아베
포지
##풍이
잡는
##속을
##유는
똑같이
자신과
1988
이모
최저임금
독점
뒷받침
배틀
##방은
높이기
En
남자는
##마리
음료
##역에
##체인
재미를
효과적인
운영을
##만달러
필요할
##ty
멘토
##con
추출
당분간
they
##변화
류현
골드
官
##유통
one
줄을
상태에
주재
소식이
작품이다
없지
color
서로의
다음의
가슴이
명절
있었다고
어깨를
만났다
항의
협약을
농산물
촬영을
##보드
추진해
실적을
##하듯
언급했다
않았을
별다른
지목
##ool
form
들어갔
횟
##uss
수천
were
四
그들에게
North
하시
발의
벌어지는
##inal
##겠는가
버린
바보
세탁
이마트
위치해
##바이오
아들을
참가한
AN
##업에
학교에
##추를
##감도
유가
체결했다
오해
내야
사각
속도가
##본부는
외교부
##ern
##추어
시카
주가가
것이란
##건은
시작할
추락
순식간에
부진
Te
##300
##부르크
##정치
좋게
92
##방울
난다
높일
봤다
없어요
겨냥
낡
##묘한
##환을
쓴다
건강보험
국방부
方
왜곡
##ited
기념촬영
##주차
솜
str
##ump
동아닷컴
얼음
저를
##도미사일
마약
한겨
##의회
化
##its
트랙
이내에
침입
어릴
이사회
장군
걸친
between
□
비율이
대조
올리고
##파로
네덜란드
##움에
##오염
연봉
이진
##중학교
형태를
보컬
##했다가
##어리
##47
##부지
나뉘
되어야
##하였으나
사회에
박물관
등록번호
##아를
##목적
인물이
조이
敎
##니의
펄
이광
漢
##조리
##루가
미스터
산하
예정인
청주시
##념을
억울
##축산
교통사고
言
차라리
헝
##우지
소상공
##동계올림픽
무상
900
교황
나름대로
회장의
names
파라
올리는
해결할
##체와
피할
##규칙
◎
휠
##돌이
신사
군산
늘었다
합리적인
##리우
##되도록
바위
첼
##계약을
갖는다
##ings
첫날
더욱이
##플라
##alk
##eek
기업들이
메르
유권
##강의
##작가
뜻으로
대선후보
##창조
깨끗한
남다른
전통적인
장면이
##시장에
값을
##감으로
북한은
요구했다
쇼핑몰
구해
향상을
1989
##은행의
##서야
출현
이시
한국어
IB
##타가
상황은
관세
크리스마스
##소리가
김윤
기록하고
나라가
##PI
현상을
##청소년
통치
프로야구
처분
who
##상금
##편에
정신이
자부
##문화재
##민과
콜라
##68
학문
후에도
##ull
##십니까
이곳에서
部
##무늬
백화점
상대가
##법상
주된
##aper
그려졌다
문장
##리포니아
##시대의
약속을
##약한
제보하기
이걸
한데
영남
오프라인
지점
늦게
근로자
저해
고혈압
##부대
신경을
##언이
TOM
May
당기
차별화된
##주의의
모순
정보가
온몸
##화폐
순매
중요성을
흥분
寺
##GB
##천의
과일
있었다는
권리를
##귀포
확대를
##루는
##빨리
쫓아
해주는
박재
##위기
numbers
효과적으로
##처를
##교회
##vern
문화체육관광
원주
심화
환자가
서정
연료
식당
당해
꽉
사건에
##방지
against
##장비
영원히
포인
휴식
##통이
##바지
다이아
드러내
아름답
##터의
인하여
나누는
궁금증을
작전
하위
행복을
군수
과정이
##가에서
일간
웃으며
##페라
알렸다
번째로
##는데도
중국에서
스키
땐
us
유성
욕망
안성
##arg
NO
대해선
젠
##산군
My
증시
메이저리그
q
자금을
고무
신흥
##설명
서명
최악의
##사업의
분쟁
권고
말인가
섬유
정해진
##ince
타오
##은행이
차트
안의
있거나
우아
##해야만
언급한
마음은
줄여
클리
##비율
사임
##소송
정도였다
있었을
거둔
전세
완전한
최대의
five
##월의
되돌아
운송
암살
감성
중고
고스
세련
표정
주세요
건국
##FP
인천공항
##시세
역사의
속도로
쉴
이르러
exp
BM
##구성
이화
##TS
##스틱
fr
젊은이
시리아
선포
일부러
주의를
##한데
돼지
##61
업그레이드
##매일
##소리를
측이
뮤직비디오
산다
##건에
##유산
환자에서
의학
代
떨어뜨
##여개
도저히
공익
전망된다
You
##자리에
세븐
페이지
##깨비
밖의
책의
가능성은
필요하다고
##교류
##치면서
부를
##취를
패키지
인스타그램에
캐스팅
윌리엄
이듬해
##채를
특정한
##했어
man
일으킬
세계적으로
춤을
출연했다
인터뷰를
않았습니다
챔피언십
##늦게
추격
##리나
신뢰를
been
천재
##스트라
##ys
뉴스가
##열이
자매
##것이
##팀장
##고자
##등한
의미하는
세상에서
이별
##동으로
이젠
##목으로
고척
이루어져
##개월간
##ative
hyd
무인
##브이
과도한
열정
제압
##시절
신청을
거기서
수련
설사
잡을
##역의
상실
휴대전
청산
강도
프랜차이즈
댄스
##슬러
개념을
##겠어
남양
부자
펠
아이콘
못하면
⑤
##oul
##회계
속하는
##레나
##스트를
어서
서귀포
정재
지방자치단체
이의
##사업은
ind
##be
미니앨범
##다이
캘리포니아
입원
체중
##농구
##로에
몰입
체제
채로
보입니다
##어졌다
EX
##됐지만
서울의
티저
정서
##39
유익
데미
synony
협박
스타벅
##리케이션
##음의
kg
환자에게
##코는
더구나
비전
registry
원형
##cre
##렉션
##찰을
처방
진상
자이언
특화
##으면서도
내비
Champ
Good
글과
감사의
없었고
여는
처럼
##심과
##내에
##부분
약간의
synonyms
모인
공개한
##발이
미국에
미군
里
환율
이어서
왼쪽부터
정통
방탄소년
자사
이후로
레이싱걸
각기
##하늘
##기관의
##브랜드
유료
수직
적용해
무더
번의
SP
생방송
자동으로
##ism
공시했다
토크
영화의
##매김
개를
##EM
발견된
않는다고
방치
배정
##정책을
태도
주장이
파란
##준의
##초를
묻자
대부분은
後
##들께
삼성전자는
힘들다
켄
경구
화제가
필요하다는
무거운
했으며
##대장
##까지만
##적이었다
매출이
##되지만
티잼
설비
##니와
찔
자신감을
베를
경선
이후에도
사항을
제공해
##운드를
동서
##로우
淸
특혜
직면
스카
엮
기둥
##나라의
아시아뉴스통신
##격으로
##시각
확인됐다
아내가
기업에
논문
불가능한
도약
순천
겪는
한국인
마련된
사용된다
가해
싹
신성
끌려
사람들도
그리스도
##밀하게
##림의
과민
미드
All
모르겠다
##IM
속에서도
퀘
정의당
직접적인
된다면
촉구했다
##공정
주식을
스펙
위치에
전무
권력을
수유
동굴
김도
##르가
자리매김
위축
버전
그대
운영한다
중동
쪼
##멘트
담보
헌재
##억달러
플러스
CGV
대비해
이후에는
하려고
신혼
시간과
설명하고
장의
DNA
구리
둘이
최근에
##리라고
전형적인
포켓몬
all
넉
##혁명
입사
만다
바꿀
##ays
선보이는
##허브
##출을
말하자면
##파는
곳곳에
상대를
느끼게
이메
##료는
중순
공정거래
철거
##히지
##yle
##87
적의
가까워
하기도
피를
상당의
경과
준수
조직의
양식
원장은
밑에
동성
중국과
제임스
##데스
방법이다
Intern
작품으로
맺고
작품의
##역으로
##리얼
##전기
차원의
주의사항
베네
국정농단
상반
##화면
밝히고
운명
일본에서
##가게
프로그램은
##있고
同
과거에
반기
##학년도
혼자서
강동
바퀴
빛이
발동
##ouse
정한
##경과
독일의
Top
재단
##밀리
걸음
##ely
그녀에게
##하시는
##관계가
부친
流
##모의
본선
##훈이
승부
##암동
밴드
##주군
법원
##변을
황해
##하자는
##66
전체가
맞았다
반짝
잘라
요약
팀은
people
있느냐
상가
정책에
직원이
##동맹
出
유지하는
깔끔
히로
##연합회
FIFA
##공화
모습에
산업통상
문화적
검찰이
記
아침에
달걀
때보다
열매
서둘러
##rou
불거
가족의
중점
힘으로
기가
즐겁게
폰
영구
캄
##order
대목
##두를
점심
나눈
리듬
북한에
##위원장은
김장
당뇨병
##민을
삐
##57
안산
잉글랜드
使
##브라
김혜
죄송
스트레스
조회
##됐다는
##SC
전반에
##하지도
스태
떨어졌다
Am
파는
##43
톤
##겠습니까
詩
마이클
물품
웹툰
##베이스
모두를
무용
끔찍
뿐이었다
자의
##기보다는
##공무원
##해보
##이용
파고
일어났
나지
##AI
손흥
##스피
왕의
보충
타당
남편이
##드레
가축
임기
골짜
어렵게
부끄러
선착
##속의
프로그램이
실종
입술
##iew
##측은
物
위촉
Content
동계올림픽
##인식
보고되었다
##청구
수송
가전
뒤에서
잔뜩
her
모델을
다루는
##링을
의정부
##정보를
휴가
지낸
##월말
불평
죄를
##고용
것이기
삶에
가죽
칼을
포토타임을
주목된다
91
준비하는
##되었을
##주면
전제
##임대
##과장은
Man
##월드컵
##엑스
##천여
hot
미사
엎
##차별
힘들어
있었으나
친박
재판부는
대한항공
##민족
갈등을
##크뉴스
##음과
대표이
##오가
밤에
최상
아리
각자의
오바
가톨릭
클로
단편
##불을
##호텔에서
구성원
적당한
믿는
임차
혈관
##그룹은
선물을
정도를
##하느냐
##스럽다
바가
수술을
가족과
필요는
##팀의
산책
가난한
##게도
내수
##소녀
정무
배터리
대략
경쟁을
다음으로
아니야
Rep
안희정
상대의
신기
버티
아라
위주로
축적
정부에
right
쓰이는
그로
원으로
학생들에게
유지할
판매하는
사운드
##유럽
des
핀테크
형식으로
구할
벌이고
바꾸어
하나하나
한두
##확인
##세와
보행
비트코
열려
##기술을
옮긴
게재했다
##정지
내의
##트륨
##표가
##실점
인테
부합
가격에
대접
대단한
시중
산업통상자원
수준이다
비중을
자제
배울
헤럴드경제
##오스
내릴
##역사
##ula
사장이
누리꾼
##벽보
질의
임진
김유
완공
일어났다
마산
추정된다
##그라
신선한
영역을
버려
응시
부실
자궁
오를
##은이
영동
이전의
씩
학생이
VODA
문화의
좋았다
##타이
일산
끝나고
##아라
##sp
원료
성격이
접목
##령의
지키고
##네이버
레스토
대치
##riv
##레는
##니스트
##기부
##ood
자세를
CCTV
지극
초고
나타내
입장에서는
비용이
보좌
대세
##49
政
생각한
170
나서는
조그
##ober
써서
우유
##팀을
##me
##하였는데
##마케팅
여기에서
사정
##독한
사업으로
감싸
되었습니다
##벤션
초록
반대하는
바쁜
생긴다
古
##차피
쓰기
아니냐
##스타뉴스
##사카
about
시야
##길에
한중
대동
해마다
숫자
데일리안
아키
전인
제천
중얼
금요일
사이로
사고로
다들
##지역에
##88
무엇보다도
##체계를
발산
##교가
나가겠다
탕
무늬
어울리는
가슴을
이른다
재직
놀란
발생한다
IN
분열
엄마는
##호한
얻게
의문
주머니
##제작
##일지
프레임
Bl
남궁
일본은
초월
자랑하는
황교
사람이다
##지니어
낯선
친절
노동자
於
##면은
##무기
속에는
KEB
##스퀘어
하루에
맞대
강호
##모는
##능력을
부천
상주
낭만
떠났다
##ower
오르는
지적이
RO
##나눔
가져다
얇
되길
않아서
광범위
##하고도
검찰에
폭행
한꺼
물결
한의
川
야당
속한
중국에
전지
요구를
노력하고
##포츠서울
##과정에서
집착
상을
박주
아랍
마구
출동
개관
석탄
風
프라이
##이라고도
만나게
##상한
트랜
CP
무죄
퀴
사랑에
정복
승용
골라
LH
LED
수준에
아끼지
데서
의식을
에드
다크
Me
―
커버
몰랐다
나눌
##주자
잇는
들지
##융합
떠나는
社
개장
관계에
찾아볼
용어
##리조
너의
한결
바람을
어떨
君
미치지
재산을
죽는
산출
헌신
가라앉
들어왔다
비싼
스웨덴
붐
유인
철강
##했다면
다양하게
투기
표현을
월화드라마
상한
##IV
전진
풋
어차피
##코스
물가
새누리당
없던
##되었는데
유희
외면
일명
##플루
##공사는
의미에서
물려
##간을
지역주민
시키
열쇠
##노인
##니까요
##체제
보다는
##부담
헤드
마시고
학원
준비한
마스크
고스란히
김은
돋보
어딘
##디움
스파
템
##렸지만
녹음
착한
이라면서
감정이
한꺼번에
거대
원유
##믹스
유리한
Champions
##나가는
빛나는
들어올
안전성
비례
사라진
최민
##92
##LED
부모가
실시간으로
드론
나타냈다
##통제
반사
자유를
##now
용이
밥을
1950
환경에
신태
사흘
보육
아모
컨셉
표명
안다
훈훈
대상은
참석하고
대통령에
확률
트럭
사용하면
가사
##도전
##aph
김정남
##에다
반전
특징을
기사를
무지
임의
이어가고
무산
발라
실정
시계
탁월한
지사는
##ye
포괄
회수
이럴
##발의
감히
신중히
길은
존재를
결론을
역사상
브로
수험생
있어서는
여기저
세일
누릴
얹
지역으로
이후의
돕기
진출을
나타나고
늑
예쁘
이해를
##형에
일과
원리
안전하게
##ove
메이크
역으로
일으켜
##회관에서
##그리
기다리는
##fere
물론이고
맺기
##청의
세균
##매매
##소장
##했었다
알리고
유명하다
파악하고
단행
심혈
힌
여객
##현대
##타의
##ins
##들여
말아야
제주시
##과제
##ament
늘려
금메달
상환
불행
##분쯤
시설을
##시간에
쉽고
탈퇴
양자
비롯하여
존재하지
넣은
결성
튼튼
요인
있었으며
빨라
프로그램으로
연인
얻기
Hub
##루의
학교에서
복구
##명이다
##500
작가는
프로그램에
조사됐다
인종
정보통신
동대문
##ric
MSI
무릎을
##류에
프랑스의
찍어
특집
중개
지방의
자칫
Comm
##립을
들어오는
##란이
##닉스
처음에
정상적인
기원전
##방안을
챔피언스
씌
특이
##eting
뜯
수단
##une
지속가능
라이트
대회에서
##혁은
분석을
않았다는
살펴보
##자에서
##청사
급속
회사에
양이
圖
수색
##티스
순수한
뉴스핌
민중
자연의
##고리
##EW
유진
여론조사
프로젝트를
꿰
AS
##티아
세상이
한겨레
리더의
민정
고지
백제
지방선거
개인적인
##운이
대표와
##내에서
江
방문객
박병
효율적인
방위
핵실험
이뤄진
고양이
리버
##주며
딸을
시집
노르
##이거나
##지주
같은데
시즌을
카이
##사들의
##AND
사랑과
內
##56
Eu
SS
##과정을
충주
##li
##낙규의
##머스
##코드
레스토랑
##77
##ife
##할까
중대
스스로를
##레벨
유학
힙
팔레
사회주의
그러고
교도
##푸드
없음
AL
##오의
조만
벌금
##합의
360
분석한
##lf
면모를
정맥
렉
고용노동
블로그
짓을
##캐피
타자
##절로
맥주
att
정글
최정
예로
머리에
한숨을
外
SC
##값을
서브
그곳에서
티브이
회피
관계없이
네이
##보에
열애
내어
##ery
예쁜
특파
하나씩
##득점
싶다는
세우
준비가
##이어서
군의
##oth
조사한
One
조직을
여기는
##녀의
크리
##릿지
##종으로
일으킨
min
사실에
##방식
##코의
염려
한양
일상생활
영향이
##교수
사진이
##마에
여왕
형상
MOU
오마이뉴스
##동조합
##키스탄
##배가
한방
아랫
##2017
설탕
김창
영향력을
##뉴얼
##금액
유럽의
##작으로
날개
이효
판매를
터널
기억이
선행
아버지를
이목을
On
줘
생산하는
조화
테니
##여러분의
귀여운
##었어
입지
사건은
##별로는
인형
감동을
##였으나
모델로
아래에
말하지
몸의
##억원에
공조
##어질
##성군
##니지
납품
##눈에
##59
##기인
머리카
작업이
펼칠
의회
##app
##42
알기
폭넓
##vernment
China
기간에
원문
남지
##설에
이들에게
전반적인
도시재생
표현한
##53
개시
대피
심하게
전체적인
##하길
논의를
한국당
##만족
후보자는
##round
대법원
제법
휩싸
운전자
이창
벼슬
진도
##되던
고사
스카이
##카를
##미와
배신
##전용
근접
뿔
포함되어
차량을
농구
##버리
증폭
##트릭
##화할
평창동계올림픽
증대
##빈은
##VP
##학기
기억을
##공의
내다봤다
##줍니다
말과
지원해
##2018
한계를
감당
바라보며
가슴에
자를
박스
좌절
##타르
관리하는
선택을
##영화제
##령은
결정하는
범행
##호에
어느새
##먹는
시카고
상승세를
아세
자신만의
이어져
안드로
조선의
에도
벚
공고
추경
치는
##DI
전작
##하우
##inister
유재
계곡
김치
뭐라고
고쳐
##류는
SUV
모드
Jan
최선의
##양은
제로
comm
TF
##rit
傳
한국일보
##용은
줄일
목숨
채널에서
분명한
##자리를
##자책
진영
MBN
늘어날
속성
결정할
본사
후문
막대한
배워
한경닷컴
##급을
예정이며
도착한
##86
바르셀로
일원
Oct
##팩트
확인한
컸다
홈런을
줄기
오피스텔
##르다
반면에
환자를
내용으로
名
중기
기관은
##동시
해결을
있나
국세
是
국어
부상을
자유로운
##ents
사육
通
sc
주위
##이었으나
꿇
서울에서
투여한다
도민
소지
##쓰고
##활동에
섹션
##수입
먹어
전쟁이
후손
움직임을
자회사
균형을
투자정보
사라져
소재로
에릭
하남
아마존
좋습니다
대회를
##들인
문득
##래의
정도다
##등이
기존에
왕은
포커스
전의
##함으로
죽고
꾸준한
스파이
게이트
처음이다
##대학원
모양을
아이들에게
거래를
티브이데일리
촌
##경찰청
절친
도시의
올해의
거칠
반성
##댔다
피가
내려가
##71
태평양
한국이
##금과
김연
두드
증가할
##대회에서
に
기대가
##대응
Ac
조합원
1986
##GC
##레일
공시
여름철
규정에
실전
이해가
문제와
cons
But
##유치
급격히
벌였다
압축
가족을
보강
##림은
##MC
위약
그곳에
길에
잇따라
ST
##각이
##다니는
보기뉴스
##조한
기념해
나폴
주자
Jul
조금만
한계가
담당하는
뒤에는
##토의
##노조
입에
York
무작
치킨
징계
##ald
내리고
##iness
##니라
##것을
##전환
주신
##비드
요소를
씨와
카메라를
편안한
##76
데에
##스럽고
##오픈
##된다면
선보이며
조선시대
품고
##사회에
한인
1500
##권으로
옆으로
##보수
사립
임무를
켈
성질
##af
##군에서
##ology
너머
und
漆
미루
time
답을
##변경
오면
사랑이
##UC
원자력
##등의
ethyl
vis
안타깝
금전
정교
근거로
어려움이
결정적인
마리아
had
산학
나타낸다
##사들은
활동이
재판에
워크숍
字
육체
김원
##ts
##동에서
이재명
들어선
상하이
##ange
mon
착공
매출은
교차
실수
잠수
운반
청탁
첩
뭐가
##염을
##간이
##RA
府
든든
브루
고리로
날을
뜻하는
##라와
좋아요
선수들의
##카와
총리는
##카는
##apan
폴리
두는
순서
##주도
학교를
중간에
##빛이
성장할
##업이
집계됐다
플레이어
##여대
##만큼은
요청했다
순매수
해를
통산
짓는
光
##으러
꽃이
불과하다
돌아가는
##소통
견해
##54
명시
피곤
혈중
상담을
납치
##재해
예선
##사무소
뿜
##문화를
이가
기념촬영을
상승한
##체스터
가중
분당
##모로
##ize
따르는
애국
유적
의원의
전국의
수신
저의
압수수
し
##duct
바라보
예의
각별
##순이익
추후
해변
##담한
은혜
##센서
지난주
배우고
새겨
##소방서
더러
고민을
청취
get
강진
콧
국민들의
색다른
근본적인
인턴기자
입장이
자리가
솟아
트윈
##지나
자리잡
세계일보
기간이
면적
CS
눈앞에
총장은
사막
코르
흰색
DJ
##석과
경기는
산업의
기간을
눈물이
특성상
Sulf
사격
바이러스
여자를
써야
##정비
##받기
교육부
매니저
사찰
금융감독
굶
##벽을
관련하여
많을
##ival
花
##클릭
고문
仁
없는데
작가가
士
##레를
세로
힐링
인천국제공
##네마
차지한
구로
대학의
보살
식민지
지고
듯했다
현대자동차
##스틴
##권에서
약속했다
##분과
##왔고
##형과
##gan
임무
하도록
학생들을
인문
해결하기
아일랜드
필요성을
##락이
##화되고
훗
center
나서고
팬들에게
##58
아직까지
##한의
시점에서
적게
##렸다는
이길
##어촌
확인해
##리라는
##생태
도출
대행
##조치
불만을
것임을
꽃을
分
나고
높았다
作
거리에
달한다
키우는
다할
내면
USA
제안을
Time
no
전성
이소
##되었다고
##정부의
어디로
푹
감탄
##형태
매진
##더라고
아산
##청을
폭탄
이번이
##meric
##의약품
약과
올릴
축산
##저축
이글
two
기동
세금을
걸었다
레전
것일
Res
무섭
연다
##ron
승강
상하
제작한
##이지요
부유
##백의
김일
##iel
##3000
비주얼
##학은
도깨비
##헤럴드
##년대에
범위를
제품이
경상북도
부모의
자기를
##해주세요
##황이
조속
스타벅스
죽음의
##우주
타이어뱅크
폭풍
램
이상은
What
신속한
수반
##요법
애정을
##방어
##ital
증가하는
##관리를
동구
##자격
염두에
ann
서장
줄이고
##차적으로
구원
엄격
구석
츠
설정하기
시그
본능
예컨대
대원
##가정
##포로
##ano
나우
찾지
성숙
올해로
습관
##캠프
미래에셋
##그룹의
面
체납
문화가
열리고
별도
박세
문화콘텐츠
하셨
##지점
담았다
기증
표현하는
멤버들은
##교는
mark
불필
주인이
비하
대표를
다이어트
##종과
그라
장사
차이는
성동
경유
##시에서
##구리
##발생
play
양반
어째
까다
언젠가
중복
조만간
##빌딩
##씨에게
달러를
정상회담
인식을
##orn
##GA
생일
진행해
텍사
쇄
1985
짙은
Pol
풍경
뒤늦게
번에
함양
틀어
VIP
메리
##대회를
시위
피어
이득
마련한
첨가
모의
시작된다
일본에
쉐
用
##ows
집회
合
쭉
검정
개가
과세
성실
##니즘
돌렸다
수평
화폐
날카로운
##에겐
어휘
##폰을
편하게
중화
paper
대우조선
적시
정기적으로
##oxy
망설
##디가
일제히
김세
##되었다는
##idi
##콜릿
모양으로
당진
##학원
편의점
카드뉴스
입장이다
##계열
빛의
풀이된다
나이에
##하되
##시켜야
중국을
##하실
##렸다고
##루에서
발탁
관료
원칙을
##추가
노릇
후보로
black
공간이
운영에
결과로
##클래
##고와
되기를
베를린
한국전
이선
Austr
신재생
사무실
곁에
막내
Americ
일부는
출연한다
##병의
氏
가맹점
馬
다시는
##바라
없으니
가지를
놓인
##단에서
연결하는
이인
중국인
일으키는
모양이
##는다면
##테이션
클린
##워즈
교육은
조류
광복
차분
엔딩
유니폼
바뀌었다
##작품
연구에
역설
##리바
여가
불량
보물
당했다
##카페
##마한
덕후
##ific
멸망
재테크
주위를
##아동
인간을
펼치는
심사를
시간의
추진한다
배후
##청에서
##심에
##담으로
삼고
마찬가지다
내정
강화해
시험을
지정된
##지수는
아이뉴스
시민단체
##신과
이뤄질
면제
##자료를
##거를
전하는
의류
측의
##억원이
상대방
똑똑
바꾼
책이
##안군
##64
국가가
##안과
사회가
출제
##작이
긍정적
##UT
후기
##son
판단을
##ML
폭염
##더스
때려
오리지
##단위
이석
들어간다
##퍼센트
4000
여지가
##운다
##대구
낡은
체계적인
하향
배송
##시키며
대한민국을
방에
如
전당
등장인물
강서
처녀
##활성
##잡이
在
용기를
황교안
##용의
##학이
Japan
정세
##사태
##카운
권한을
가정의
길로
성명
만나고
그렇기
내려다
활동하고
제품에
##모토
조영
과목
##언더
##줄을
되기도
定
의외로
##디를
스킨
서울신문
350
이룰
떠올랐다
출연하는
무엇일까
국민들이
수시로
고집
변환
심어
공군
##ating
##협정
불렀
요소가
For
계열사
비싸
강좌
集
출신으로
연산
##였을
Sch
사라졌다
나이트
공업
먹은
구토
##효율
##되므로
발견한
실시하는
제네
날려
##마당
京
Dec
터져
천지
이외의
개최된
행동이
##버려
결과적으로
행사에는
##ha
만기
##스포츠서울
거주하는
都
예언
목사
장려
##스타일
군사이야기
차례로
역할이
방역
##걸음
단말
##케어
우편
可
알렉산
맛있는
위성
초등학생
안방
##com
한류
않았다고
광양
스타뉴스
꼽힌다
##날을
확실하게
기쁨을
실태
단위로
밖에서
병력이
내용에
##8000
##라이트
옆에서
대답을
예매
알레르기
매력적인
car
종업
나갔
병원에
##시지
##움은
식의
語
너를
##에이
##luor
시기를
교육의
조상
다녔
이뤄졌다
##감소
대성
신속하게
작중
##중이다
體
적절히
간단히
뚜렷한
예상되는
밖에도
차가운
##버리는
퍼져
말씀드
기술의
전자신문인터넷
계획이
##소재
##지방선거
모르지만
##예를
##표준
##ele
개인이
Real
朴
##값이
호수
경쟁이
특파원
김인
이해하는
뭇
가능할
레인
##온이
pp
인과
수수료
아시아투데이
##해줄
발표하고
강수
주관하는
##신도시
##한을
##illion
지각
때문이
기업과
만만
곤충
생각도
무효
걱정이
##투스
##계에서
##곳에
기탁
##주시는
인근에
아이스
해양수산
호평을
화살
보여줬다
공헌
##63
기관이
여성은
출장
명문
##층은
그러다가
준비해
실수를
##안정
쑥
광장
반해
夫
역사가
부른
투입해
콘서
샀
경호
국경
침략
ed
튀어나
점수
##테이너
골을
솔직히
당신에게
비중은
아토
작품에
기획재정부
룰
확보를
##선생
외곽
먹으면
실제로는
삼성동
소비자의
##영과
##현장
##지기도
##MBC
쿠키
##목표
나뭇
실습
Or
홈페이지에서
영업이익은
##리던
##PL
어색
이어갔다
입니다
투자가
이밖에
##very
부부가
시대가
##곳을
##93
어디까지
일련의
놓았다
웃고
##도서
안겨
목적이
과감
##진구
취향
대고
田
트레
##래프트
않다고
##국인
즈
탔
##집행
영화는
운항
때를
알바
민속
캠페인을
##철은
##훈련을
##있어
삶이
얼른
##오지
##기며
則
장점이
##인재
##필드
영주
아카데미
파격
##번의
##폴리오
##그림
et
프레스
##UL
##행동
##막이
극히
레이저
체감
##줄이
생명의
##스테로이드
살기
일기
gr
스위스
제안했다
탄탄한
院
소집
휴식을
動
프로그래
말입니다
##네트워크
엉덩
걸로
진학
지나면
잠정
##자연
MA
Sulfur
목표는
주의해야
쳤다
##란시스
##6000
說
유방
향했다
부가
깊게
##타점
농림축산
앞을
돌이
방식이
효과는
International
##지노
마늘
늙은
수료
##뮤직
전월
가지가
성능을
##야마
##진으로
활용하는
붙은
부정적
오스트리아
가령
##법원
조성을
##강도
구사
Open
이쪽
자세로
나타나지
나눴
문체
이외에
공영
등장했다
선착순
##러가
싼
간담회를
본회의
도박
메시지
존재가
PS
##카가
상대방의
Mnet
효율적으로
공론
브랜드를
전국동시
##제일
유치원
Pr
선수는
난이
감축
사회에서
앉아서
고양시
##세기에
입국
그해
##실적
생활에
포르투
##cess
소폭
민족의
선정해
##축구연맹
급히
##개사
어긋
##할수
##ces
숨겨진
이해하기
흡연
Germany
거북
수혜
근데
이곳은
항소
Aug
##4000
##gcolor
OC
집중적으로
##hed
참여하고
루이
공존
박은
올해도
이천
봅니다
즐거움을
1984
스프링
마술
준비했다
젤
프로모션
##력도
반환
elect
##그네
Str
수준이
저런
##78
되었을
성을
자본주의
Championship
의지가
브라운
##함도
##래를
사용을
하나다
포커스뉴스
유족
노려
함수
par
##경기에
신발
딸이
##층에서
목표가
##미로
지원이
동계
수업을
관념
귀가
than
변화는
쥬
##위원회에서
##환경을
규모를
뜻한다
되풀이
반가
탄핵심판
소리로
생략
동아시아
규정하고
##chn
##부족
##요금
덱
##산염
##였다고
늘어나고
##테일
##절이
핏
과정은
방법에
##량과
소비자들의
지키기
비틀
木
공사를
발명
일반적
##시키지
##패로
구성해
ether
클릭합니다
を
마음대로
武
도봉
겨울철
자체는
메모리
##79
기술과
요새
전국동시지방선거
칩
dec
손쉽게
Sept
lead
확대하고
##스톤
##삼성
##경기장에서
##카의
자신들이
기준이
성사
동향
호르몬
##베이터
##처는
민감
Col
설립된
몰고
클래스
##타수
교장
유독
쏘아
And
##rea
대의
##가야
##역은
사이를
##사각
##호기
파주
진행되며
聖
##채권
탐구
##슈타
##년만에
재고
전망이
행동에
관계자들이
토트
감소한
영토
기반의
정진
Nov
##께서는
##1000
어린이집
문제점을
×
스포티
카리스
숨겨
동남아
그거
내놓은
사로잡았다
곤란
##더러
엄청나게
##선수권
정관
작고
##ution
당시에는
많은데
##있던
지위를
일요
가다
확인했다
종영
ID
체계를
##개정
##전자는
소용
和
따져
비판을
간절
함으로써
재빨리
##부인
최진
게임의
박태
업무협약을
대여
Comp
듣지
세종시
직원들의
##단장
겪은
이상인
지사
설명할
##감의
초콜릿
에이스
ICBM
프로듀스
계신
점프
교훈
분석해
판단했다
##erm
프리미어
모듈
##왔습니다
##극장
##숙이
##심리
이어진다
대면
##익을
##예정
신년
론칭
번호
송파구
##챌린
중추
돌아갈
##ference
벽에
문헌
월요일
##드라
미용
당의
다각
Seoul
김대중
인천시
##콘서트
떠날
국내에
빌딩
전달하는
이루어지는
##위험
해당한다
##교육청은
##let
조화를
##식에는
펼쳐진다
병원으로
확률이
450
때와
##선택
꿈꾸는
묶어
방식의
노력할
안되는
##과를
손실
살이
##있었다
군주
##사업으로
정선
처한
외형
##창을
미수
암호
더했다
세제
오랜만에
全
감독과
여인
막고
가능하게
시원한
뚝
레알
인격
##erning
집이
강하다
Joh
수행하는
제외하면
Car
비율은
만나볼
##반의
주변을
대표적
##yr
굴림
싣
조윤
쓰여
증여
##시의회
##데일리뉴스
함부로
원가
현직
이세
신도
과태
##83
정보는
##9000
채취
실적이
중계
##지던
했어요
빈번
말미
黃
드러난
견인
원본
##두로
##품질
HD
내며
삶은
##설비
자택
오리지널
환경에서
##말이
공동주택
##74
BMW
평가가
##usiness
서지
##진흥원
군대
##73
역사와
##보조
밝혀졌다
##판에서
##ino
틸
##시기
패키
지냈다
피의자
국민연금
타는
우린
상시
갈등이
##이라며
미스
박준
##aj
뚫고
##년은
하수
形
보령
##전문가
##rough
논의가
여러분이
경상남도
검을
의혹이
신약
디자인을
##51
##보로
국비
작업에
증진
경북도
느낀다
놀라게
냄새가
동영
신용카드
##경험
##증은
예능프로그램
판타지
##방위
##일드
##공은
철저하게
##게요
방을
##원인
hydro
하도
1982
그늘
시술
측에
##급의
폭로
주연
##회사의
土
푸드
습득
성우
것이니
늦은
원이
##분으로
글자
노하우를
윈도우
가자
##되었으나
크로스
‥
##으려는
자고
소송을
fl
박차를
Univers
##위원장이
제발
##량으로
영원한
Sw
관계는
떼어
##cur
수령
##항에
아테
입체
양측
top
모두에게
##왕을
##임은
변호사는
##찬을
같고
##레스테
조사에
MM
##천을
시판
##년간의
적혀
번씩
크기가
근처에
##att
주목할
MS
##쳐서
##석에서
사직
충실
부총
모터
National
전격
##후가
SW
이르렀다
새마을
##적일
##EX
##회에는
##추는
컷
있겠지만
인접
용기
찾아온
군민
##럽고
##TO
##들보다
착각
국민을
끝날
경신
특검은
##제도를
항생
##달라는
명확히
살충
동행
띤
발주
제출한
작성한
이집트
시작됐다
##질러
##행위를
구직
##란의
기기
佛
지도자
##친화
애정
##경찰서는
마을의
##경제신문
실려
씨앗
잘하는
##능한
병을
서울중앙지검
마드리
달고
퇴근
제목을
##캐피탈
곡을
권위
##화되어
##카르
##내려
la
패러다
산정
갈색
애플리케이션
##박이
보고된
##ters
이미지가
야기
항공기
소비자가
상해
꼽았다
##협약
##효과를
지킬
시스템이
의사가
플라스
##계와
주인공이
이렇듯
보호를
OST
이혜
색상
느껴지는
금융기관
적용할
##원이다
다저
톡톡
기업들의
이호
하는가
엄격한
##하긴
우려를
남기고
감안하면
판매한다
대강
신하
##마블
부엌
##린을
사라지고
있다며
##01
토로
##한이
열릴
몸은
교섭
##gy
##철이
구슬
영하
벌인
경제의
##하곤
오페라
송도
두께
관리에
##der
대통령에게
##빈이
태풍
인물이다
##안내
##69
##수리
장성
공정한
##동생
선조
놓아
보답
박원
속을
락
March
김미
건물을
제품으로
거점
##ams
농식품
홍성
불편한
##세종
##론에
기대할
전력을
부회장은
##돈을
##겠죠
문명
않겠다
기록이
매번
갯
플랜
걸릴
##합을
우즈
원인은
맥락
오바마
인테리어
장갑
情
##마일
조사하고
회상
씹
싸움을
##내어
돌아오는
실은
중등
상징하는
善
집필
구매할
달콤한
정책이
public
플레이오프
위를
멈춰
지침서
일부가
##conom
사업자
##화될
나노
운영할
기술은
노벨
쾌적한
쌓여
##보의
##어에
견제
받았고
이규
##산에서
##들만
장병
고객들이
業
부인이
간신
부르고
Eng
司
시진
미국을
포스전자신문
페이스전자신문
##결제
##츠를
방송화면
◀
상인
##인치
표출
##터로
대지
결정에
획기
##행사를
목적은
##판은
엇갈
##소시
확인하는
##시스템을
프로그램이다
u
걸까
살았다
##저리
사람에
자진
##52
##놓을
잡기
북구
##플루엔
얼마든지
중립
##플렉
##츠는
안정을
##중은
지루
##co
쥐고
반기문
Qu
스트레스를
엄마의
슬픈
생각보다
얘기가
듀얼
serv
내장
우호
##가입
한눈에
침대
##가면서
정례
판정
친구들과
스티븐
기온이
##sh
싶다면
논란을
아이템을
교수의
건축물
무기를
토트넘
설치해
소홀
특이한
달리는
호텔에서
團
받았던
주가는
li
##쳤고
다큐
따르
사나
##ansi
반영해
PL
인구가
##arm
개체
목욕
손바닥
그쳤다
가상화폐
끝났
요인이
##받는다
kerning
매출을
보람
참사
인내
국무총리
그보다
##무지
1983
bidi
종족
At
문이
견디
연동
믿지
신형
##개는
권유
억압
##주사
##인상
알뜰
탐색
접어들
there
친구를
부산시
빠졌다
미네
때면
삶과
치명적인
그제
심부
##십자
##프리카
이르면
불어넣
에테르
bu
과도
##estival
선호하는
지냈
플친
두뇌
추정되는
med
되었으며
방식은
구체적
최적의
낱
GDP
국산
길고
될까
pos
마시는
실린
신념
먹거리
##광고
##시에는
그러던
손꼽
짐승
밀양
비교하면
##천이
##대우
萬
돋보이는
##브로
발병
師
##82
사용된
박경
연구가
혈청
밀집
##IG
제공하기
같아서
先
##내야
인정하고
아직은
코치
필름
사소한
끝나면
July
##퍼런스
장비를
좋다고
ì
참가해
봉사활동을
##증후군
블라
##ities
실리
방출
##견이
로버트
출시된
이끌었다
걷는
##화해
슈팅
부임
마련이다
박보
유물
##산지
처치
아쉬운
기초의원
##량에
1930
인물로
반영한
lo
최후의
##증가
Chapter
col
##일인
##91
##훈의
수목드라마
아르바
기대감이
트래
서면
놀랍
##조와
제국의
모금
강화하는
불가능하다
##은은
##기소
승격
유머
##홍보
철회
아사
리가
##하는지
##령에
##드립니다
자국
중점을
맞추어
발견했다
고장
개최되는
##resent
##ner
##샷을
##였기
벤치
##만원에
절약
그토록
##터미널
줬
너무도
참고자료
타격을
##개와
##킬로
##수술
소문
프로그램의
##석으로
거짓말을
##작의
컬렉션
아이에게
##루스
지지율
##erson
극중
일하고
##블리
hansi
##셀러
##대원
사자
정부에서
서울중앙지법
##역과
억지로
이용자
브릿지
증상을
선택하고
박영수
##는지를
분비
끄덕였다
낚시
형님
바다를
대선후
##62
남편의
마우스
##복이
지형
##평화
def
흥미를
##교과
##분양
112
저지른
남성이
발송
박찬
혁신을
투자자
전용면적
##학에
##교도
차려
##하였습니다
아내의
run
얼굴은
##시세표
MVP
into
##공제
요구에
유관기관
인재를
##셔야
씽
만드
영등포
웨딩
##DS
핑크
확대할
료
읽기
서울특별
앉은
##장도
닐
크지
무사히
##elf
두통
##어린이
있겠다
INS
1979
##문에서
날씨가
투여한
##번지
톱스타뉴스
턴
불린다
아르헨
풍요
표현할
좀처럼
순이익
##xyl
선보여
있듯이
항해
September
최성
재능을
코믹
추억을
닮은
두꺼
우리도
##위원회에
原
##열에
트와
떨어질
##손을
##았기
##블릿
GoodNews
데이트
##201
전반적으로
시청자
과제를
거라
주가시세표
일본이
남는
she
뚜껑
##아와
주입
##주의자
기록해
검토하고
見
옐
취한
심상정
공간으로
##판의
실시할
得
대회는
##집에서
팔아
나무를
세인트
업무협약
치솟
온다
운명을
##화물
안재
사마
##청과
사용하기
##근한
디스크
예정된
##ondon
재판을
기소된
과잉
적대
##fore
안드로이드
##드래
초기에
government
회의에서
이용하면
하나이다
행사에서
광고를
인증을
팬들이
리조
기능성
돌연
요양
인식이
㉮
안정적으로
##컷뉴스
줄이는
농림축산식품
아빠가
오라
체험을
잘못을
포르투갈
##7000
기업으로
보이지만
상기
이데
사용이
협상을
##uch
라면서
걸리는
##회원
##변이
활짝
외무
##가리
늘어나는
##교실
##질랜드
고려할
토양
나타낸
디지털뉴스
노동조합
BB
##레가
칼슘
공개된다
아저씨
고추
##미애
박명
쓰인다
당기순이익
##더군요
시작되는
##임에
Park
레전드
모두의
예전에
죽이
조현
주무
아메리카
뺨
피터
##정하게
내용과
Apr
싶을
용량을
재밌다
오렌
주민등록
계단
##클리
먹지
말의
뛰어들
##과학기술
관하여
##천은
##정원
교과서
선생님이
##였다는
벌이는
분석이
알맞은
##항의
척추
해킹
고등학생
거세
고유의
감자
사랑은
要
##억제
악성
하늘이
##rol
움직임이
##라인을
추운
##선언
height
##신용
甲
##사원
##사에게
엉뚱
경제를
불구속
받으면
##르르
##협상
펑
지나친
##슨이
##코가
수질
희망하는
##동아일보
##루에
##사리
##널리스트
##산으로
움직일
주류
모르나
##제품을
##교육지원
##주신
서비스가
전한다
흘러나
실감
입맛
하이라
싸우는
##구요
않아요
포지션
없었습니다
돌고
해보
##omen
##lear
##ute
##밖에도
맺은
뒤집어
킨
예금
외쳤다
단어를
보이스
##롭지
아르헨티
수행할
##과대학
클리어
##레스테롤
inv
눈은
글방
짐을
##조각
AFP
##보안
##YL
어렵다는
정준
양을
달라진
##노총
러시아의
ff
##재와
##신으로
기사는
용역
bec
거느
##심에서
##버리고
입점
##담이
나오면
구성됐다
마른
되살
##포터
글이
back
report
워너원
여기서는
대화상
바다의
금액을
January
전국적으로
발생하지
마을을
일일이
시흥
아내는
압도적인
June
비단
강의를
평안남도
연계해
雲
##수정
끝나는
믿어
##오리
잊어버
발로
신작
##중에는
구성하는
정하는
모양이다
변해
##ody
김우
##lob
##츠의
지는
##증에
빈곤
남구
박용
제외하고는
말투
##비한
중세
것이나
##로와
부드럽게
중심에
심리적
앞세워
원숭
침착
論
주제를
전국에서
수컷
발자
의거
프로토
유세
would
##들기
자연스러운
물의
##진단
##velop
시선
##ility
바쁘
London
주방
##돔에서
비밀을
##혹한
용산구
중장기
악마
전라남도
친척
투여할
덕후들의
##낙연
조금이라도
##슨의
추산
장점을
나빠
부의
녹아
인연을
##HD
방한
##녀가
파악할
차관
강정
똑같
이송
實
##일수록
##애를
열정을
친구들이
##더라면
여기저기
되지만
않았기
##시면
연구는
소리쳤다
오사카
매치
양극
사모
희귀
장소를
##사도
중심이
##보고서
다가가
스포츠경향
기운이
대중교통
사천
##여름
베타
잡혀
병이
선별
원에
##이라서
##차와
마음껏
간섭
놀랐다
변수
스미
##부장관
##졌는데
##인지를
##올로
Minister
투자의견
등산
다가오는
둘은
##것은
LC
관리가
불편을
웃는
모스크
AM
##환의
이유다
랭킹
적고
##재정
##way
못지않
##일자리
염색
부모님
비하면
##대리
105
##조차도
성경
조금도
의장은
하나님
담배를
될지
##전도
레시피
임부
##기간은
목표주가
클라
던졌다
발표를
서남
##전형
##하다면
레오
개그맨
환원
일찍이
##사상
막상
##용어
아냐
고창
때문이라고
지원에
##뿐이다
뉴질랜드
금감
몰라도
박지원
윤종
##블록
##구니
막는
울릉
##러는
이름의
바와
있으니까
달이
##티를
글쓰
##시설이
堂
영문
##버린다
동안의
규정을
##시대에
##주주
시진핑
시민이
OLED
우리나라는
나가고
유용한
##았으나
조이뉴스
현실에
거창
##센티브
##토마토
─
％
번이나
화산
저기
##포스
##폭이
sulf
공유하고
##하였을
구성된다
帝
가지로
##손으로
타이밍
개인정보
곳곳에서
##겠소
등극
##강에
만들어야
고난
베이스
성별
when
인체
##퍼센
percent
목요일
외식
##근이
암컷
지켜보
취할
개발해
끼고
##담보
##개에
CYP
방송인
관장
##ets
##소유
##문화의
전염
##비즈
왠
사안
나한테
조심스럽게
휘두
것이므로
외에는
보고서를
한복
지시를
성수
기구
정하고
지역이
무대에서
박민
무한도전
##뤘다
클릭하면
##ount
소개하고
포트폴리오
##스테르
전하고
공식적으로
동방
애를
가격으로
April
화장실
##강화
웹사이트
##째를
##불이
##두리
덴마크
증권사
결국은
조언을
설명하는
##전화
art
리니지
학과
기쁘다
##하였던
출시한
관계로
기지
##수급
걷어
수거
떠났
##판으로
초청해
BE
편의를
잃지
진한
운영해
한껏
president
키스
렌드
원활한
이라크
평등
속한다
##프라이
##분부터
법이
##81
시상식
투여하지
과다
않나
김한
매출액은
각오
曰
공이
침투
여부에
She
승부를
##면과
제자
아들의
집합
협의를
얼어
사망한
내부의
방금
감독을
연루
##IL
북한을
넷째
둥근
학생은
##나들
August
##박을
모습과
##건설은
가계부채
##적으로도
KL
뺏
똥
방식이다
1981
##ott
농장
Do
유상
표정이
되게
간혹
##칭을
전문기자
의미의
두었다
##오늘
offic
후보자가
키가
##CH
입구
성상
##통의
하동
won
##lin
##작업을
결핍
##업의
클레
예정입니다
통행
빵한
앞으로의
옳은
##열의
보전
유한
##구장에서
##듯한
쌍용
바둑
전통시장
이낙연
나와서
인삼
감사를
책임이
기숙
em
성주
##수원
과량
##박람회
의미는
##ret
김제
환경이
지름
중앙일보
보은
도시를
실효
고시
수시
신은
##편으로
##드림
사태가
순조
내륙
##책이
고립
공백
春
##층으로
##red
잠이
에코
독창
사업이다
신고를
발생하고
건강에
이끈
살던
##하십시오
파생
전임
##스트는
멤버들의
##인데요
비전을
뾰
뻗어
책상
선수를
재차
강조하는
취약계층
入
아내를
trans
할아버지
##도르
마르크
퀄
협조를
사용되고
분야를
##대기
##욱은
##테랑
지질
박정희
##해준다
##디의
군대를
구축을
서산
안전사고
사건으로
조사에서
GM
##천만원
단호
조건이
##격에
탈당
선택하는
##병에
아니며
추상
대학원
부문에서
채소
##거리고
여러가지
우리은행
표지
맨체스터
시에는
역동
##편집
##디에
상태였다
지수는
임용
개발하고
안쪽
안전관리
가산
림
애로
건지
경남도
##종일
살펴보고
세련된
##나기
##현을
넷마블
정동
속이
1920
##ision
스피커
인텔
달성했다
챌린
만남을
부수
기관의
##스포츠동아
가진다
밤을
##프와
안에는
철수
사서
변화의
훗날
묻고
제작된
차량이
오승
##었는지
업계에
키우
지칭
지극히
적용한
신생아
너도
##론가
##사업이
성공할
##어머니
링크
아버지와
넣었다
##이야말로
##년으로
옴
그리는
컨센서
입단
장이
두어
##이었다고
문화콘텐츠닷컴
원시
오류
##키의
강화할
##놓는
대가로
인양
트와이스
ON
속초
박사는
위치하고
요리를
##피는
하하
출시했다
##영향
강행
기생
마비
예상했다
유나이
스테이지
고의
손수
한편으로는
이동통신
교정
Kim
소통을
Austral
줄이기
열을
인문학
육상
후쿠
##는지는
마련할
독도
폭이
##계로
편리한
주장하고
여자친구
개개
연쇄
間
승리로
지친
불안한
디렉
정치를
##기간이
인건
발걸
채널을
내각
##프란시스
##홈쇼핑
##퍼니
숨은
DC
amine
유가족
느끼지
전승
스캔
식탁
##ING
##락한
나우뉴스
意
후의
##출산
내년부터
여학생
에피소드
##운은
발음
버리는
전시회
##옷을
깨달았다
다시금
##루미
들어서는
달래
지으며
크기의
##지거나
##야의
로그
기여한
차고
洞
수요일
전도
##질로
볶
정책의
##대교
마다
펼친
부인은
##르바
##식당
##들에게도
##문제를
강철
Don
##ally
연평균
롯데마트
ED
상정
##더를
some
Europ
##루수
덕에
놓치지
작곡가
돌아갔다
상식
경제가
닉
가리키는
문화체육관광부
로켓
부분에서
John
##hyd
낭비
넣는
시리즈의
없었지만
면서도
##운의
##파일포츠서울
페이스캐스트
第
초상
되었다고
본부장
많아서
청담
##진영
법안
##하고는
국가를
##ied
협력해
어머니를
평화를
이번엔
서비스는
내쉬
세번째
關
對
##사회복지
예방을
##신에
##공동체
예술의
##시도
將
제작발표회에
##UN
라틴
알아보
주민의
해줄
소극
빼고
알아서
벗어나지
연습을
있나요
저서
업체가
한지
최경
대회에
##ki
가로막
고개
##ECD
됨
현대중공업
맞물
##발로
##맞춤
시간도
##혁의
고려해야
이루어진다
방문하는
문서를
기간은
협회
이번에도
위주의
긁
마을에
6000
확보하고
##상환
##움의
인디
사귀
차원
지방분
미얀
양육
접어
身
방으로
##청년
하락한
민주화
##ection
이식
여유가
##KBS
그러고는
##급식
즉위
인류의
거꾸
베풀
##조작
힙합
##개념
먹는다
##기나
##보도
##경남
여성을
##부산
##RO
연결되어
##인구
그런데도
Ge
red
고려한
이룬다
급등
슛
안을
세계적
애매
베이비
##노컷뉴스
이어갈
에디
##부품
둘러싸고
龍
##행복
Brit
靑
##주일
Feb
정면
last
##경기를
누군가가
크림
SF
생각하며
현역
양질의
섰다
있기에
목표주
김남
줄었다
쪽이
##회복
인센티브
##초가
순간에
적용된다
해고
비치
시작되었다
애초에
찍고
공적
##중국
명성을
제작진은
##상선
삼척
##지역에서
##밸리
주전
불꽃에
주면
돌아올
해준다
줄곧
구하는
##벨벳
생체
모두들
적자
부속
업무에
저렇게
개최하고
마당
##통화
##야구장에서
소개하는
고영
like
앞으로는
손실을
##위생
빠르고
Dis
##창출
실시해
부추
기저
터트
##제조
##마저도
딱딱
##문화예술
주파
명확한
받아들일
##중독
##ennis
制
##운을
미치
##공사가
어렵고
스테이
##센터가
질투
위해선
당원
##군으로
제공된다
증정한다
군사적
댐
흥미로운
##롭다
##주의와
여기에는
오케
긍정적으로
多
낸다
연락을
제시하고
예술가
##새가
수분
정경
治
##irect
법무부
듣기
달리고
저절로
수익률
눈동
디바
편리하게
강조하고
누구보다
어렸을
##포지
낙동
##디지털
낙찰
대충
전쟁의
벽을
병원에서
귀농
국민일보
계획에
믿는다
##겨울
강점
##실내
##사회가
고고도
##위해
기성
팬들과
손해를
##기관으로
시너지
짧게
강조한
제조업체
##지식
##연에
공약을
당내
창원시
않으므로
전주시
부회장이
VS
죽여
수익성
다듬
인성
바이러
하이라이트
평안북도
태블릿
Ed
end
##ype
##세서
중도일보
비스테로이드
자료에
ret
October
Trump
동안에
##인인
OECD
저자
껴
##미래
##기본
##수학
##주의에
사도
주장한다
##화장
민생
리포트
줄이
일대에서
연습생
용법
重
사물인터넷
최우선
아니었
##해의
독려
드문
플라스틱
周
사이가
소음
샌프란시스
##회전
##관절
##atch
##양성
행동은
특수한
실버
대입
##운동의
##락의
##철을
타율
같다고
불쌍
크라
있기를
기꺼
##레의
##레옹
해결하는
##라고도
침체
마디로
검거
실질적으로
##해주고
현장의
세계가
최고경영
##ator
상승했다
命
##커녕
가능해
연일
입시
마신
##요소
이용해서
태어났다
220
##면세
불필요한
영화가
##증과
##본부장은
전액
길러
나라에
활발하게
레드벨벳
변화와
##협회는
달랐다
표본
규제를
매장을
마련하고
부풀
##해준
Gu
보험료
사원
##귀를
형성된
들렸다
휩쓸
인사말을
##웠고
타오르게
푼
##플루엔자
한성
수동
농도가
##들에서
잃어버린
부상으로
쫓겨
그림자
##티는
##지는데
네트워크를
##이었으며
관통
##이나마
KTX
전속
수원시
앉았다
인정하는
결정이
##마와
판매가
##달을
我
AD
중요하게
제갈
모른다는
정유라
##기간을
##키가
##RT
##발전을
secondary
125
상자
##리더
판결을
바람직하다
순회
스타일을
##받게
뉴미디어
##력발전
분석이다
비행기
형편
생식
우대
합의를
전적으로
##수출
##염이
##플래
九
##빛을
숨진
##품으로
##파에
나타내고
입소
상암동
재개발
본다면
百
실험을
gu
臺
백악관
지경
평균자책
창고
눈부
##차산업
싸워
모티브
인식하고
요한
How
##해설
하겠습니다
##경북
샐
팽팽
##몬드
간담회
목이
소문이
열차
기술로
괜찮은
하이브리
줬다
다리가
##르면서
이곳을
벙
##적이지
KO
표현이
##혁이
항암
##식물
펌
새삼
##관계에
싶다고
Sc
차로
하늘의
편찬
에서도
텔레비전
오세
##금속
대학에
자란
##ean
높을
##관리에
설치하고
##배에
CO
드릴
이보다
컨테이너
잇따
##PIRE
전체에
급식
생중계
기업인
바이어
권영
출토
##구멍
벅
이사장은
##겠지요
지속될
개인적으로
KGC
일들이
건전한
정형
온통
벚꽃
사태를
간신히
信
엑스
##mp
하에
부가가
군인
베테랑
요구하고
체결했다고
면세점
갖다
탄도미사일
This
이례
스트라이
털어놨다
경험과
승려
불펜
開
귀찮
워터
말라고
재학생
鄭
화랑
##하나은행
어려움
해병
1945
전국에
##하는가
팬들을
혼인
충성
KCC
##other
말했
##투수
강사
1973
됐고
없으므로
때에도
##되었습니다
##aking
火
치즈
스태프
##이동
대미
미흡
##토가
주석
수차례
월간
이대로
##졌기
칼로
##지라
기준에
만하다
가리키
몰두
나라는
악의
##와도
최상의
볼넷
##라미
##레븐
웨스트
연결된
쓰면
죽이고
거라는
드러낸
##바의
world
구두
일어나지
만의
어떻게든
##과에
##산성
진흥
멤버들이
흑인
##납니다
죽었다
비평
최소한의
국무총
의의
##포가
노력해
INSPIRE
응모
자립
수사에
비선
공룡
Pre
타오르게할
비리
선언했다
계층
하려는
총을
씽크
머물러
##기게
##검찰
##트랙
하우스
이형
정우택
Press
각오를
진동
경계를
팬들은
청정
##짐을
랜드
임직
거래가
##오던
대명
값이
거침
##ues
올스타
돈은
구하기
얘기다
##사기
상금
##기업이
며느
유감
자체의
them
Di
향하고
##101
##els
##론적
체계적으로
##결과를
부사장
넉넉
강제로
##스토어
지역별
##용기
답변을
가리지
논술
여건
유죄
걷기
전라북도
To
##결에
자영업
##리언
심사위원
김구
##길로
내용이다
기조
캐릭터가
휴게
떠오르는
내부에
산을
없으나
##네스
죽인
브랜드의
민중의
與
대전시
##특별자치
도덕적
##현과
take
특강
형태가
일러스트
##당하고
형이
발진
물은
주차장
발견할
≪
##투쟁
Serv
##홀딩
생태계
성폭
작사
오락
##총을
고객은
##신한
시작하여
석사
##검사를
문제다
유지했다
##배로
법조
끔찍한
식약
책정
직접적으로
투명한
##론과
##았어요
##해수
추미애
라운드
카테
##열은
입는
조형
닥터
남경
##벌이
좋아한다
然
계시
고객들의
봤을
##ased
through
남원
개선에
공급하는
any
년간
아주경제
함께한
검찰의
거꾸로
무언가
소스
우측
동국
비율을
##센터에
이루어지고
밀접한
퉁
실패한
연중
오늘도
적중
능동
일할
##보게
몸매
포위
물러나
합법
##line
시선이
##len
방문을
대마
##만큼이나
국토교통부
##만으로는
성균
주민들은
일각에서는
최후
합작
이완
대응할
##rist
非
타워
縣
陰
University
어째서
조건으로
강민
##속도
##지원을
지나가
매개
##유지
##야드
면담
자격을
텍사스
중이며
##스카이
##수행
##출판
##ode
띠별
못했고
주위에
제공한
##표는
##오면서
##amine
##ible
울고
남자를
저작
크기를
곳도
로맨스
신분으로
증인
같지
머무
디지털타임스
아민
벌어졌다
지음
토론을
수만
많다는
##타리
이희
받았다고
에어컨
폴란드
ii
CM
정당한
##뮤지
양보
김홍
단원
기울여
국가안보
특별검사
서울시는
특징은
우정
反
미처
발생해
개최한다고
꼬집
탭
후퇴
##봉을
신기능
단장
광산
##규는
##펀딩
세력을
123
다르지
##먹을
##련을
기꺼이
유쾌한
성분이
확보한
확보할
당시에
안타를
##잔을
acet
여부는
자원을
금호타이어
회사에서
##사관
중증의
최태
과학적
발레
##약이
내년도
생각으로
##지부
##터테인먼
##생은
것이지
고작
밑에서
기업들은
市
왔던
규명
겸손
쉼
증강
은폐
꿈이
강구
직선
구성돼
신호를
코미디
작용을
싶습니다
돈으로
##업계에
##enzo
##패션
YG
지원하기
##으로의
##균형
부동
북서
지났
##북부
United
회색
IMF
아니라면
아쉽
막강
##병은
MFC
피에
순매도
그룹의
能
興
넘어가
목에
관중
Cup
인원
주부
안전하고
고종
선교
##지니어링
歌
패스
사업비
2030
##레이터
아홉
귀에
##끈한
##먹고
發
돕고
##란은
못했
하나금융
##생한
소비자들이
구속영장을
비만
상품의
연이어
삼성은
방송에
##연하게
강세
포함하는
골짜기
지구의
##지역을
##더라고요
진지하게
익숙한
##맥스
시점에
지켜야
臣
지나가는
펼쳐지는
통영
자외
도의
쪽에
삼성물
##공으로
뽀
가지게
내포
의무를
조립
추가적인
측근
복무
주름
극심한
식욕
力
##절차
포인트를
사이클
일의
나폴레옹
전장
화요일
##콘텐츠허브
게임이
출신인
##los
보리
##ause
교실
시작했고
자발적
현실적인
활발히
##처가
##카드를
##파와
펼친다
갖지
어머
##림으로
bo
##날이
수감
##청사에서
##당국은
BN
이루어졌다
문제도
##국장은
##급한
마켓
승인을
실로
안은
소독
신세
Day
라스
거요
압수수색
주축
소염
공격에
적용되는
##맥을
드레
##키퍼
##노스
원동
세계대전
맞다
##온의
##닝을
##버드
박동
##느냐고
NBA
문의하면
사형
##정에서
향하는
경희
내기
물량
충남도
커질
딘
부르며
헤아
캠핑
부록
관객을
정제
어지러
최하
꼽히는
부부의
기습
사료
정부를
조항
파크
유병
가리킨다
立
진압
##으론
KAI
시가총
립
대두
펼쳐진
##하기만
##성분
선진국
##위인
조율
앓고
노력하는
##가량
1978
입장에
head
청와대는
넘쳐
##버릴
##거리에서
세계로
이색
호출
사인
섞어
경제학
공지
비서실
일시적으로
길이가
##나갔다
##엔터
Russ
용도
물과
논란에
피부에
불만
##취재
##다니며
##리거나
##효과가
양념
111
##곡이
원격
프랭
##AAD
##uth
신태용
던진
현실적으로
저소득층
할리우
##토는
고객들에게
간행
손해배
알아차
##사제보
횡령
테니까
##히기
그래야
거제
##디스플레이
구입할
한진
인력을
##공자
동종목
Ne
##경비
##년대비
오키
편안하게
##BI
버릴
지내는
체제를
##되었지만
##겨운
허브
환호
무리가
스님
민감한
정도에
##치다
전차
벗어난
양현
언론에
한나라
자랑한다
브릿지경제
##que
일체
휘말
활성화에
##뿐이었다
행보를
있는지를
느껴졌다
주목받고
팀에
나머지는
##베리
##근무
출자
##부동산
##월과
##ague
잣
##반이
임진왜
인제
¡
태백
THE
##연과
##라이브
배수
##세스
##업은
##명하게
##당하는
공장을
우병
頭
##배의
한마디
240
##차전에서
실시한다고
있겠는가
禮
##urg
환자에
연예인
이렇다
접근할
기울이고
##사람이
##책으로
##정부가
괴물
더듬
##파이어
##대부
##연도
하드웨어
##uk
몸과
멜로디
잊고
있죠
##모양
피난
놔
복제
수단으로
##검을
여당
백두
##벤처기업
주변에서
세력이
이용객
걸음을
##소서
교육이
천주
종일
대신에
국악
창설
맡게
강성
동아리
리스트
다툼
##크와
November
##광장
##하진
정화
##준호
않습니까
증가로
분노를
보도에
떨어지고
꿈과
##로써
왠지
군사를
등기
주장은
전투를
사양
입었다
##병으로
##워진
進
걸렸다
위상을
제시하는
##첨단
쓸데
우위를
가정을
추진을
기자가
풀려
발표할
대공
옹호
휴양
##청장
Ber
연구소
prot
결정한
성명을
시기가
##혜진
연세대
정체를
무난
##광장에서
##비서
##주의가
직권
영상이
노부
System
식별
##든다
살림
이익이
##비치
치료가
미끄러
##컬처
소상공인
노트북
합창
개인적
필살
일본군
##규제
묵묵
비공
##ream
##하시오
재미있게
엘리베이터
과거를
##라노
깡
MFCD
텅
Benz
선정했다
냉동
기적
뜨거
비슷하다
엘리자
직장인
what
아닌데
미나
명은
기금
보니까
도중에
전과
분명하게
##십니다
구강
내걸
프로듀서
집은
젓
감사하다
발령
##기관에
취해
학생의
데이비드
변천
행렬
처리할
France
참모
뮤지션
저술
커피를
하트
##20170
뺀
인간과
##재난
##드래곤
달에
계획은
사이에는
있는데요
觀
콘크
오르고
정리해
華
썬
##함의
반응은
최근의
Art
대회의실에서
서울로
걷고
은근
건물의
##부진
##카펫
##EA
##호흡
명에
말해서
##직전
##듭니다
국민의당은
제품이다
태권도
##티가
실어
그것에
중시
##매출
##렸는데
THAAD
##정상
##벌을
정권교
초반에
수성
##탄이
촛불집
울려
십자가
loc
근거가
상회
의문을
##밥을
트리플
대구시
삼성전자가
##SS
간직
한국은행
람
않은가
내놓았다
So
祖
108
성형
종교적
생각된다
근본적으로
남편은
외국인이
축복
실정이다
위키
많습니다
##갔고
송영
##불교
이한
래퍼
##광을
곡으로
정권의
전달하고
##들처럼
##일에서
未
##내의
아내와
##계좌
##이노
##기온은
나라에서
원내대표가
과시
개량
장소에
소망
##무라
띄는
통증이
받으
불참
개념이
고분
시민들에게
문제점
내뱉
위험에
별자리
저택
林
건물이
적용된
생활의
허리를
今
연기가
대형마트
識
action
##로만
##로이
체류
공수
청량
역사에
아줌
한우
ㅇ
##츠와
기자들과
##년여
덕분
노하우
필연
귓
꽤나
##ices
최재
##ster
현상은
평가하는
##반도
이방
##속이
##곳의
몸으로
참을
##성에서
회장을
한번도
##ollow
수식
침몰
단계에
##통에
동거
미만의
바이올
權
##교육의
사정이
피부를
훌쩍
쪽을
의원과
##희와
##ording
믿음
원문보기
##사진을
설명한
그레
##그룹이
해산
양은
가파
징수
##러의
치른
하늘에
하려
겐
같지만
싶어서
신한은행
환자에는
LPGA
관행
카를
드래그
일어나고
사단
서사
환상
하려면
##내를
애써
어렵지
##스퍼
##오면
##변에
주한미
보여주었다
주의가
八
했기
under
산화
河
덜어
설립한
뉘
투자하는
비결
##ced
원인으로
모친
국정기획
©
は
KLPGA
##구매
출연을
세르
스윙
오디션
##종에
##연승
##으로만
##돌아
##회의에
국도
터치
통하는
##유예
씽크풀
와중에
보석
##아티
##업자
비어
이하로
##작전
##stit
##피가
##결한
교육과정
##비서관
##언더파
부장판사
##양군
플루
회담
못하도록
경찰의
##idine
##태평
##교육과
주인공은
##ful
보건복지부
얄
기술적
##플랜
##겁다
##ious
금연
기자회견에서
평소에
당신만
피하고
현수
##저널
전달할
張
올해부터
##는지도
Form
##에스
##사실
환경부
##모와
##명령
전념
만들어낸
가능성에
##워하는
원고
독보
토마토
근절
모델이
준우
정치권
##효소
시너
초에
BC
대응을
덧붙여
press
헨리
이노
살충제
최승
번쩍
장동
속삭
예상치
규범
영역에
##오기
CF
미국으로
##등에
##라니
그치지
소설의
부당한
포기하고
유영
발전과
##리아의
##터에
2021
비상대책
혁신적인
##주의는
표현했다
##그레
발견하고
102
##elebr
서울특별시
##나지
확고
납득
낮게
득표
마법사
##이었을
아무튼
공립
##나비
##당했다
지분을
마리가
1977
우스
쉬는
점유율
福
章
가꾸
불합
면이
끝났다
일들을
##길은
대표로
##외교
전교
주제에
연계한
##메리카
골키퍼
나눴다
오늘날의
1975
##맞이
##올라
104
갤러
모습도
##보세요
비웃
##방식을
차에
##LS
此
kr
토너
주유
시작을
##이어야
데뷔한
포함된다
이있는
오렌지
##이요
능력은
##목은
소식에
데이터베이스
입건
감성을
출시를
점검하고
먹기
리모델
소재를
##욱이
##고요
신청할
꾸미
찾아서
그릴
강력히
붙인
질을
아시
재료를
술에
##인간
체질
기관지
누구에게
##과세
국민에게
행위는
배경을
밝고
일으켰다
명심
라이벌
뉴스토마토
약화
불쾌
탄력
##산업단지
##공간을
팀장
치아
##yn
Book
맡겨
스피드
시절에
박람회
아니에요
##느냐는
긴밀한
진행한다고
##바는
Febr
치우
바로잡
한은
공유하는
영농
##소판
놈이
가늘
공채
투표를
bgcolor
女
찌푸
동호
법인세
신상
최강의
바를
에버
의원을
단추를
파산
인정받아
파수
신한금융
월급
##비뉴스
특성에
냉장고
대중의
##즈에
장거리
초보
식량
##목에
otherNews
다투
입지를
포함하여
안경
교육에
어이
##쳤던
##조명
방울
헤이
cap
##했으면
늘어났다
매장에서
##코노미
예민
왕자
가열
개선이
##GM
등장해
꼼꼼히
폭발적인
성적이
##드릴
解
산악
이리저리
체험할
##위원은
검은색
그런지
##기관이
죠
진지한
##래가
1976
근원
정치인
부부는
GT
아미노
홈페이지에
명확하게
##구조를
교양
별세
##쪽에서
기다렸다
필라
##미에
선체
갇혀
연안
후보자의
한상
엿볼
UE
문장을
혐오
박서
音
올레
개소
바늘
대출을
February
##지오
공격이
추첨을
반죽
##상공회의
스포츠투데이
내성
알려지지
낀
행정자치
##곳이
예정이라고
전년대비
논의했다
매력이
##일반
됐다고
다닐
##por
활동하는
물고기
##들과는
개조
벨기에
줌
주문했다
방지하기
쿠폰
김모
물리적
##이었기
심지
박기
##들까지
조그만
##의의
성황
가져야
정립
디젤
인지도
##피안타
사용했다
오일
수월
후계
크기는
정신과
허가를
일본인
시작하였다
ⓒ
신조
태극기
메소
DM
연꽃
산란
思
Bar
##수영
정치가
학사
##자다
그도
전복
간단하게
초대형
##AY
아이스크
위법
##거래소
##여명
문예
##던가
일방적으로
저격
임종
아나운서
곧장
##게는
##경제의
##공격
지체
align
상류
오디
황재
설명해
끝을
##실점으로
이야기다
##화재
졸업하고
##변호
참여한다
남았다
##연패
Che
쏟아져
기사가
##큰술
##저우
변함
##ze
딸의
고기를
닿지
특성화
흔한
##내가
##캠퍼스
##ps
날로
고독
시절의
보스턴
행위가
##글로벌
때만
Med
장례식
기운을
피하기
眞
##유로
##탄의
앨범을
파손
틀을
##야는
뽐냈다
장학금
성장한
##균은
요청을
미수습
교원
입문
행진
##차트
되겠다
종합적으로
##거진
적폐청
압력을
메이크업
전두
惡
견해를
생활용품
이뇨
兵
태어났
닌
수치를
##새를
구축하고
저승
등재
계속되는
전환을
##제국
도주
##요원
##약의
현명한
##네스코
변하지
꼬리
##케미
##부부
##우면
##amm
아시안
##라며
처치를
비스
원망
일본어
##구치
엘리자베
App
마루
무언가를
많지만
건전
학교의
영화에
##글라
체결한
정직
평가는
적다
##틀을
##스탠
주어진다
##iet
언어를
사건과
신탁
니콜
있었어요
어느날
##cus
##걸이
육박
삼성의
무시하고
자격이
앞당
선택합니다
##LE
왕복
##페스티벌
지도를
것이지만
##백만
대상에
꽁
표를
자녀를
EBS
토토
끝판
##소시엄
행복하게
집어넣
업계의
##티의
라이온
끊어
증거를
1974
올리브
동지
밤이
three
키즈
백운
탐험
봉사활동
높아질
만만치
앱을
깨닫게
재학
##태가
##스타틴
##철의
##일본
##감염
도끼
말아
##시간은
변한
바리
어드
바르셀로나
##대한민국
양지
시기는
##총회
낳은
살면서
부회장의
주최하고
일본을
보상을
동경
##투자의
식구
보고를
아픔을
창단
바람직한
위임
hand
끄는
용병
##증으로
올라온
견딜
하이브리드
HT
제치고
##LC
유지하기
##세력
평화의
규탄
이라고도
풍성한
되었는데
1972
타협
항만
로이
여러분은
튜
엑소
증거가
그렇고
영유
주역
##데다
##음식
ear
또다른
챔피언스리그
독재
##장학
들었
조직이
참가자
##외과
선전벽보
도요
깨끗이
##커는
어떨까
##인민
직원을
210
영업이익이
박인
이도
##칼륨
고려대
나가기
선수들은
작아
요시
꾸려
저희가
##물고
비정상
들어가면
Sm
수록곡
불공정
일컫
중학생
##raz
##러스터
만료
##산화탄
시스템의
콜라보
살아온
자신에
바에
병원을
방침을
세월이
잦은
저마다
찾아야
분명하다
##lish
더한
##모금
##출시
활력을
일본과
##메인에
농업기술
않겠다는
##하에서
##저가
운이
인물을
분석하고
##포의
것의
순차적으로
통찰
##지표
節
##lobal
##ffic
넓혀
권리가
##스케어
라면
##코노믹
위협을
##밖의
至
백인
##파크에서
승마
당국은
바다에
##국적
##고로
떨어진다
룩
충청남도
무게를
##순이
단계를
대본
##창의
도미
존재감을
##중앙회
화제다
구조조정
##린다는
리드
해리
하므로
성과가
공연이
##안으로
날은
제기한
선택의
찾아와
##천원
진단을
타인의
뜰
깨어
##oto
말씀이
치료에
돼야
띠고
##사법
1914
##엘은
dep
총리가
같다는
국한
안정된
전산
하겠다는
도시로
사람이라면
사과를
랫
먹었다
고가
부평
rem
가능하도록
개최한
##보이
파이널
소개한다
부재
가늠
내버려
짠
말하기
의원들이
불출
##지정
1200
습관을
기를
카라
임금이
스무
남편을
##향이
강력하게
##아카
기술개발
앞뒤
그리고는
군데
Ro
동정
나서야
공제
로서
기록하는
LNG
움직이지
남서
sol
celebr
건가
다중
백신
열악한
사제
사랑해
8000
쌓인
##ense
주장한
이유도
위원회
최영
##지도록
익산
중요하다고
##상황을
씨에게
일종
##ants
PO
맞을
##베스트
속해
구부
되었다는
대결을
김무
세일즈
##방해
당하는
끊이지
소리에
현실의
오산
선수의
##광이
##연승을
spe
Soc
고아
창출을
과민반응
##부상
출하
모집한다
일상을
EC
높다는
##현황
호랑
PB
##후는
##lock
둥글
대인
제목의
감면
##때문에
##바퀴
##신탁
구는
준비에
전제로
set
㉱
얻지
##자이
인정하지
SH
문학의
왓
싸울
##마르
##강이
맛집
##시픽
##lex
스물
하차
border
##티코
시크
##계산
이해하지
성추
그림과
항복
##aint
##어라
##라운드에서
뮤직뱅크
다큐멘
개혁을
##시트
카톡
오스
made
짤
##핑크
구형
공모전
단계에서
판교
빚을
근거를
오디오
##가서
적힌
##리니
370
이뤄지지
##들이었다
콜레스테롤
비춰
시키는
판정을
중지하고
##버섯
프란
가지의
생활이
##러드
눈과
##감치
엘리트
해답
강소
되므로
##하셨다
설치한
##극을
백혈
제시된
##to
못했지만
성장이
말하기를
색을
色
cy
보이기
개발과
##원칙
나비
황제의
그런가
유학생
구청장
피고인
##ady
적당히
##젝트
스릴
생선
が
서울대학교
휴대전화
手
경험한
Paris
##텍스
##ular
도래
##통일
공개해
처리하는
##처장
막판
부분이다
##락에
정오
##폭을
##저를
땅볼
##고사
대선후보가
국채
땅이
Acc
발인
광장에서
어마
객실
바나
윙
##earch
사면
훈훈한
127
##스에게
김관
아쉬움을
서두
##전부터
고려하면
구축해
撚
드러내는
##부서
##룩한
##인데도
찾는다
비닐
남성의
프로그래밍
간판
메타
생계
됐습니다
##명도
접한
심각하게
아닌지
영어로
신고리
망가
뭐야
동요
샌프란시스코
필요성이
서대문
횡단
실력이
##례가
박해
##배포
##Area
예고했다
쓸쓸
유네스코
문화와
더이상
프레시안
안타까운
앤드
급격한
유형의
make
왱
##제이
계획이라고
##서치
복면
부위
##으라고
제도가
##린과
##ural
죽음에
##폈다
기차
개최된다
Eth
宮
만난다
##원식
유선
감소했다
본격화
다음에는
후문이다
옮김
7000
전락
정권을
AB
驪
대학에서
생각했던
한가운데
무대로
##루션을
만찬
신을
불투
##직에
박수를
동물의
##리칸
춘추
모은다
농어촌
선수로
게스트
##빈의
걸어가
유격
대사를
혼란을
언제든지
하기로
UEFA
##네가
순간을
승리했다
외출
소설을
##수당
누나
박형
WBC
##이었다는
##구간
임산
##혈관
지혜를
단정
평상
##룸에서
벗겨
가마
맛과
신정
신영
책에서
스토리를
포항시
##더는
레드카펫
타깃
끝판왕
박현
밝히는
Coun
##마스터
의사의
산지
##입을
보네이버
보네이버메인에
설마
평가다
합계
##번이
여덟
자발적으로
호랑이
가방
길이는
것만으로도
조별
##oreign
nit
##벌레
UP
형식을
마이크로소프트
器
관광객이
hydroxyl
주둔
갖췄다
대대적인
대나무
자료가
##버거
태양의
##워치
책에
마케팅을
시인의
뿌려
성장하는
##버스터
구구
our
든든한
여행객
쓰다
##ecial
버섯
##동맥
리스
##상가
아니기
시연
##로봇
내놨다
선생님은
뉴스컬처
필립
현대의
선비
각성
##박물
諒
중소기업의
마지막에
103
상표
중산
퀸
##방문
들어가서
##희를
MP
다닌
전문적인
살아야
##렌즈
##피니
어플
이우
무의식
사정을
sm
##질은
이데올로
벗어날
비난을
테라
분배
선정돼
고려하여
여성들이
틀린
갤럭시노트
Grand
난민
필드
확보해
##시스트
기장
##대행소
meeting
##침에
돌을
흔적
##션이
가치는
변화하는
취재대행소
섣
기체
가져온
그때는
부응
권역
벡
##심사를
드린다
가능하고
싶어요
담겼다
드러내고
##정기
##찌감치
##해볼
정책과
##송이
텔
계기를
치안
인구는
폭넓은
신속히
##주에서
놀랄
굳건
저질
서기
재앙
##틀랜드
행사로
공감을
구급
그림이
그후
115
폭으로
정현
넓게
주춤
확산을
바꾸고
재미있
관련해서
기법
있습니까
장중
##공학과
시트
세분
##irl
##eter
이야기로
생기면
역할은
나가야
유교
후보와
장소에서
나뉜
암흑
OK
사용자의
르네
대다수
##시장과
독거
Wind
달라질
김천
동문
##센터와
諸
기능은
온천
비롯된
소액
마이크
스노
320
이연
이뤄진다
##프로골프
선수들을
유럽연합
않거나
포기하지
사랑하고
고령자
##ti
##셨습니다
조카
가르치는
문경
욕구를
벌여
장인
전통을
삿
추방
상대방이
명으로
주며
걱정을
하루를
운영된다
펴낸
항목을
오가는
옮겼다
슬퍼
화해
역할에
마세요
Min
four
관습
김씨는
평창올림픽
##정책의
問
해적
대부분을
섞여
##인프라
신진
㉯
##ote
일어난다
회의실에서
only
로비
대통령선거
know
동원해
원리를
친한
기분을
변호인
헌법재판소
역사는
안겼다
하락했다
부분의
삼았다
##평등
재활용
해운대
열대
살아있는
##커를
##태는
방안에
확인된
의상
합리적
##전지
뜨고
공화당
##터에서
##증진
우주의
쓰인
간기능
원조
비트코인
모르겠
지급하는
島
##왔을
북동
##하니까
Championships
사적
##애가
건데
믿음을
system
남기
오이
온실
아가씨
상급
##독립
공론화
지켜보고
떴
섬세한
##거래일
불명
갤러리
2022
뛰는
감사드린다
쏠리고
게임에
##삼진
##파워
하였고
지원사업
도입한
마나
崔
수요를
##너는
곡이다
##거라
것과는
추신
넘어선
화염
서울과
법제
##점슛
탐방
##바위
##골이
##통은
정상화
と
맺었다
혈당
외로
프로농구
장편
신중하게
##더가
티셔
연못
##상수
시절부터
정시
230
Can
visit
Fl
서비스의
##vers
발열
긴장을
않자
프레젠
자격증
터미널
107
ht
불이익
우병우
일괄
어리석은
##보유
트와이
확대에
##곡의
상품은
##밴드
##hes
절실
대학을
##게이트
##공에
##드려
지역과
많았고
아이들과
버그
다짐했다
질서
중년
##매체
폭스
예산이
##지검
원래의
##근은
##치아
##스토리
장소로
##ized
##ield
이르렀
박탈
한동
##모리
완성된
La
화면을
쏩
뉴데일리
##GO
졸업한
시청자들에게
집중할
##II
##협회가
발휘할
네티즌들은
좌측
해준
##법률
대화가
모욕
미르
##여행을
감추지
##분한
중에서는
요즘은
DS
태그
싶었던
서류를
것들
##조달
드라이브
컨텐츠
올라가는
혜택이
백지
##중소
##라기
##겁고
##ush
밑으로
상승을
##물이다
##PD
##여명을
##토니
##방어체계
휴가를
배터
당하고
올리며
제사
결혼식을
결혼식
감각을
정은
이만
If
##급으로
모조리
##범이
기밀
##uck
그것이다
##변의
장충
지정한
##출처
신재생에너지
바짝
가이
포함돼
현존
##oph
멈추고
##공화국
양평
FF
없었기
파면
대신해
진정으로
여배우
##지난
만전을
없이는
War
Dr
원래는
하반
밀착
와의
크기로
메카
fun
##쓰는
직업을
고요
못했을
간이
정정
##브레이
제의
호평
미얀마
Ab
쌈
명사
굵은
선정한
##베이션
성장과
홍보를
##기간에
##숨에
성균관
##자금을
##oid
장면은
##두가
교역
노리는
Mark
처분을
여전
연세
단절
떠오른
플레이를
지적이다
라디오스타
갈래
배구
섞인
스스로의
금세
샌드
비교할
북극
##조절
출전해
##갑을
##대고
칼럼
바꿨
서른
##학부
일고
농담
##키아
돌아서
세우는
긴장감을
배상
절벽
문자를
뾰족
HP
독립운동
중국어
필요도
그래요
壽
털이
##맨이
Cy
나타나면
위원장이
장교
신장애
미뤄
포부를
##사회에서
부탁드린다
##만인
##모습
가져올
보아야
힘은
KNS
死
128
가깝다
디즈
##출혈
1971
팬미
구조가
의정
두지
분야는
##노는
파업
December
더욱더
##됐을
회화
불과한
비즈니
총상금
아름다움을
마이너
외의
Ital
정권이
##자산운용
양주
햇볕
대변인
모방
##류와
증인으로
국제적
##미사
##티에
이니
파헤
그만두
불에
브랜드로
친구의
볼을
다하고
세상은
##플로
차이나
소수의
1968
대선주
동일하게
마을이
달라진다
##ger
##암의
##기관인
애널리스트
##으리라
들려왔다
일원에서
대웅
글은
Red
##연습
지성
초기에는
서울에
구성을
타원
나뉘어
읽은
도와주
능력과
크루즈
행정안전
되었던
직원들은
많기
##시경
굳게
##플릿
모리
##아래
시드
##평가를
뿌리를
타고난
##선물
##냈고
아바
어깨에
신원
경부
싫어하는
냉각
##녀를
##저런
부스
최장
NEW
시스템은
##work
백승
직전에
주요한
장시간
##번홀
포천
돌진
무단배포
戰
설명한다
지워
##키를
없었을
##ccer
항공사
##직자
의왕
양수
##설은
##능력이
의식이
입에서
##err
##연속
##먹은
압박을
##남부
이론을
신기술
국가에
##다를
재임
충무
퀘스트
각국의
것이오
제품과
연구원
좌익
공기가
꿈의
##비트
생각과
할지라도
##족이
꺾고
##기업으로
##풍의
변론
서경스타
임금을
##집단
##임의
플랫폼을
##반대
##내외
틸러
##아도
주의한다
吉
##사단
일반인
##지역으로
빅토
꼼짝
기침
##ilit
이철
##네의
사업과
청와대가
충북도
행동으로
Mus
##시네마
개최를
##왔지만
참전
##다나
##공원에서
##지사가
high
주어야
利
##ask
soccer
조사가
조은
##번호를
##욕장
동의를
막혀
##하기에는
원칙에
우익
홍수
##앤젤
##맞게
토론회
캐릭터의
탄압
##루살
뱅
주위의
그놈
##하자마자
진해
에너지가
없음을
선생의
주장에
##히게
아들은
방과
거래일
경찰서
총무
##기상
발부
고래
퍼포먼스
##이미지
딥
이놈
동사
쌓은
야마
학생을
상황과
지을
##기업을
##협동조합
##림에
던지는
변하는
서늘
##호영
공간에
선사했다
약물을
보여주며
않았으며
던전
인조
넘어가는
영세
구도
영어를
국가와
소리는
##인지는
활동은
아빠는
조준
스내
##우로
##토지
개발이
##디움에서
주의할
있으면서
뜯어
del
##값은
show
years
지식과
종전
기록은
##통계
면허
발이
조인
조치가
롯데백화점
비참
##ART
안티
우회
뭔가를
여담으로
점진
##세기의
##오카
돌아다
바르게
영혼을
자연을
##러를
食
발대
파울
##지역본부
영업을
대비한
##소스
정보의
약속한
##상인
##는다는
키우고
앰
##alue
##루미늄
##면허
##츠가
간장
서예
고인
높아진
##결이
##릿한
##카메라
펼쳐졌다
수중
樂
##야가
의아
데스
법원은
장치를
정조
선대
동작을
경기장
장기적인
##응답
방사선
묘한
보도를
보고가
##리바운드
##SA
country
그랬다
흐르고
수축
의미다
부자가
드러나는
##하더니
##정책과
받기도
해임
##적이라는
귀중한
브랜
연내
등등
만나서
사람이었다
##갑게
장남
##클레
아래의
자체에
흑자
영향은
거둘
살게
독자적인
소울
어디에서
목동
mov
##서가는
##나트륨
##원전
배에
진행을
보름
입술을
감고
비스테로이드성
커넥
시세
##족을
##집은
##VE
드라이버
화상
훔쳐
마련을
가창
전문의
수지
대도시
해발
##ethoxy
##만원이
아르바이트
솔직한
지위
실존
마운드
조언했다
흐름이
단단히
세계는
##ough
##초에
##림과
act
##오와
##문서
宋
##더욱
##사회를
나주
입대
낙동강
북한과
상륙
숫자가
안면
달을
##병원은
유쾌
민경
다루고
파우
company
달했다
생산을
유포
##분할
돼요
삼성전자의
열흘
않았다면
친화
국회에
학업
##나인
이루어질
맞붙
##자에게는
보였고
##이코노믹
유령
비슷하게
##어스
체력이
한라
##갈색
add
##ason
##시쯤
라고도
주저앉
심근
건강하게
묻어
되어서
요구한
##혜택
이장
##ross
##entr
노력했다
정식으로
작품에서
##총괄
##배당
롯데월드
작용할
총력을
##대병원
##보단
마땅히
dem
집안의
자연과
사이트를
정혜
아크
녹화
극복하고
르노
오프닝
##PM
고민이
자라는
백성을
남쪽으로
감사합니다
눈높
사옥
추종
왕비
로맨틱
서문
카타르
때문인지
도입을
띈
확정된
배양
##적이라고
##음료
리처
acc
한시
정상적으로
농산
무궁무
배우들의
귀한
공격적인
전보다
촬영한
정상에
것들은
형식의
##사고를
당나라
##모터
전쟁에
대덕
단점
의논
습격
##지역은
여기까지
굴러
##학교를
바디
만나면
何
보호하기
그제야
방법도
##쳤습니다
##도어
##연구원은
방송에서는
##ley
지원과
색채
모르겠지만
##사업과
지평
있소
바뀔
당국
##생활에
면을
그림은
Asia
김이
실리콘
IR
날아가
##크래프트
##소리로
심해
구절
딱히
올라갈
자작
##언은
장르의
##반에
자선
똑바로
커졌다
출품
후보에
이국
##정책에
하야
鮮
어업
##체제를
플러
해주고
달러로
개정안
우리들의
추가된
##폴리스
되새
법령
수행하고
토니
##결의
##배치
him
장원
옳지
공사가
필사
그분
영감을
유난
결핵
휘발
분담
내구
Festival
마마
草
편견
모시고
##페이지
before
힘들게
요인으로
노동당
점검을
##온을
##센터의
선천
##역량
근무하는
알려주는
활용하여
OO
##그린
다가왔다
드라마를
##농가
##마루
이벤트는
度
##사업자
이름이다
##리코
관객들의
미주
##학술
cre
면밀히
명백한
##비행
##ilm
해독
낮다
申
##비용을
IBK
도움으로
##지향
생기고
컨소시엄
의견도
로스앤젤
알고리즘
인연
주당
밤의
혈장
왔습니다
해남
공식적인
##질과
잔디
##세다
시뮬
look
노인이
하겠다고
행위에
산타
忠
할머니가
우물
조금은
광범위한
##초의
마찰
친구는
가족들이
전투에서
rec
##테면
저혈압
비판이
국적
지난해부터
헤라
지금부터
고마워
MB
##포는
의혹에
영수
틈을
죽일
##curity
우뚝
총선
##다의
모자를
느껴진다
product
##Ch
##루살렘
전이
개발된
##차단
##오른
쓰게
기억에
않았으나
못하다
##회담을
point
##상호
거치
지지하는
자손
받아서
탈북
교통안전
중심을
정부서울
역의
공연은
해서는
노리고
星
명명
##개편
##섬유
##지법
##세권
City
ML
선언한
중형
묻혀
용도로
만끽
김예
컴퓨터를
호위
##릭스
포함됐다
설명이
경찰청
dr
취미
##안전처
##오게
##후에
##크스
확고한
모스크바
회원들이
##시브
start
math
불면
삼촌
##위권
여성들의
화순
비즈엔터
상습
살펴보자
방안도
질주
리모델링
하니까
##uel
##트럭
이야기했다
할머니는
솔직하게
이런저런
손님이
읍면
노선을
##IST
살았던
도전을
##ior
게스트로
육성을
마무
음식점
1967
중앙에
깨닫고
##달이
않으면서
득점을
산업통상자원부
조용한
##인천
태도가
##간다는
玉
##업체의
마실
현지에서
##MA
동성애
재킷
국민적
##목의
조기에
미래가
시행하고
회장과
정체성을
함은
##기업에
차별화
선원
가능하다는
샷
만들어내는
독성
저출산
1963
양상
우즈베
있음에도
LTE
괴로
길어
희망의
기하
시전
사진과
틀림없이
쳐다보았다
##할인
이력
스내커
빅뱅
플레
##정리
부지런
제기됐다
국외
우리나라에서
배우가
곳의
##스쿨
무색
국가기
시작하고
강화에
##정보통신
##ien
전남도
잃게
왈
대수
사회는
자네가
째
사실과
한국시리즈
국왕
담당하고
골고
활기
조롱
##색과
should
##엑스포
인도의
성남시
엉뚱한
풀고
빠뜨
반란
넘지
이유에
헬스
109
고성능
##잡을
방안이
살균
괜히
압구
두려움
114
재검
경제부
마감직전
##리기도
##취업
액체
창의적인
압력
스며
경성
쌍둥이
의료기관
아쉽게
##사나
일깨
##업체인
관리하고
영상뉴스
##작물
있긴
겹쳐
챔
지시했다
뒤덮
기점으로
##AE
농축
따뜻하게
결산
자생
울진
지내고
마우
단숨에
##나서
##소비자
과거와
##었지
##예약
로컬
지중
파수꾼
chlor
##바닥에
American
이밖에도
씁
일이라고
##케이팅
메트로
1962
##명에서
miss
핵심은
벗고
##시킴
청원
화면에
진흙
병역
자사의
病
적절하게
페르시아
燎
신도시
##손해
El
##클로
제기되고
아인
울음
##터와
스폰
位
해외에서
##ICE
고안
콜롬
##ope
영상으로
오기
##품의
사업장
말자
제기했다
가급
도매
공격력
실패를
寶
사례는
아기를
전문가들이
염소
기아차
선거에서
현황을
아마추어
함경
흔적이
##함께
외래
제주특별자치
1969
##곡으로
보생
##acet
##지니
군함도
할당
비는
永
흡입
趙
영역에서
##ef
##년차
소원
기억하고
교류를
설정하고
근로자의
인가
##더의
인터넷을
서북
칭찬을
##프린
英
##근을
어둡
한도
name
동력
##건설이
공기를
현실이
추리
week
미워
대꾸
밤새
향상에
우체
여자친
저수
그러는
##회사가
프라임
##ness
트렌
특화된
해결해
전소
빠지는
##블로
기득
month
##amide
이마
성의
솔루션을
리콜
주문을
가문의
113
##머리를
감안해
七
본부장은
나타낼
이따
교회의
RPG
##랄한
기업가
##전선
##곳에서
백작
##공무
Per
인물의
비용은
##보전
안정적
다양하다
개교
도입해
만들어졌다
族
어머니와
##강은
##ird
마음속에
☎
##미경
의욕
##암은
행정구역
보생생한
연기로
집중되고
follow
핫포토
##ke
결정한다
Christ
의자에
##타와
종류가
친구맺기늘의
살아갈
##보상
게임은
하나만
지속가능한
파악하는
##녀는
정문
일조
불태
진출한
질렀다
친구들
포스트시즌
경제성
지녔
##riend
주민이
##차고
##슬라
##하느라
while
심지어는
웃어
바뀌는
묵묵히
等
##시설의
##나무가
place
대주
정보와
신현
##IO
속속
말합니다
귀신
태도로
분야별
단단한
무너뜨
##할수록
동남아시아
##소화
##부사
꼬마
발족
녀석이
멈추지
##총장
잠겨
코트
호전
sub
캡쳐
옥천
##품은
Group
##미술관
##하자고
이야기하는
회고
##alth
계단을
명장
틸러슨
학살
처음엔
좋다는
정렬
일어서
hel
##업소
##희망
Ⅱ
##으로서는
군수는
실패했다
것으로서
##소연
오름
##하듯이
공예
1948
##rench
높인
##만대
나아갈
이틀간
페널
formula
파이어
적었다
높아졌다
번째는
평면
모음
부분도
수사가
않더라도
평균자책점
##하였다고
이보
##itz
싣고
정류
목소리는
움직여
대국민
빠질
않았는데
그려진
##집으로
교감
의견은
서현
##하겠지만
##드리고
讓
지적도
지방세
##네이
확정했다
기록되어
것이냐
상품이
수없이
아래에서
시속
파인
얀
블로
조국
밀고
전략이
퇴임
늘리는
존슨
절제
끊임없는
##가인
135
##산면
##창이
오만
##ists
일찌감치
캐릭터로
입수
just
報
기온은
##방법을
wr
넓고
1∼
쿼
클라이언
트레이닝
윤동
상황이었다
죽지
이상적인
고용노동부
죽이는
##사이드
버스를
마을에서
방에서
소외계층
##터테인먼트는
위와
106
차츰
땀을
ë
의자
도와주는
것에서
매경닷컴
now
常
이해관계
이서
여느
컨벤션
##렸으며
거머
연탄
택배
금융투자
imp
##인기
議
##uman
##팀에
사명
적용하는
필자는
호소했다
논의할
흩어져
패턴을
처리를
증가에
어린이들이
아시아나
전라도
신학
면적은
##오롱
Mon
달렸다
뜨겁게
넘은
보았
양천
스리
투구
합산
어때
재편
거냐
항구
최종적으로
주상
##rent
｜
버디
##터널
##태평양
꿈에
##DC
버릇
테니스
패스트
악몽
단계로
여주
##두면
정책은
##orts
Fed
##킹을
번갈
미성
도착했다
NY
군에
강을
무방
무거
##분해
우리와
비비
##모스
프리미어리그
사설
그루
사용해야
했었다
open
최창
눈의
##히며
제왕
시스템에
쓰러져
방식에
##동원
인정했다
환승
이웃을
직원의
피드
Da
특징이
로마의
한순
BO
한발
##덩이
IBM
물질을
얼룩
달러의
원로
깨고
본관
치며
나만의
우는
물음에
장기적으로
키를
임대주택
조경
따라서는
사연을
熱
강세를
유럽에서
얼어붙
처형
낙관
##수단
이바지
퍼스트
영화로
Moon
시설이
거는
늪
최고치를
##링크
##금리를
첨부
학자
측면이
계몽
현저
언론의
날인
소주
용납
##망에
영재
##질서
참가하는
##대변
##촉진
비영
집중하고
가담
ass
꿈은
이를테면
쪽에서
스티브
새만
이관
명동
법원의
##들이는
여파로
양파
서방
점과
하신
힘의
심리학
event
디저
대강당에서
연구하는
간편하게
호기심을
##수용
기록할
차질
##폴리
설레
##ban
##사다
영향력
중이던
너무나도
고르
안았다
내부에서
triple
걸림
주를
선거를
졸업생
효율성을
분주
##노동자
날마다
홉
후임
直
##바르
원주민
받았으며
##주어
관상
다카
임진왜란
풍성
BNK
Su
확보했다
리버풀
섬세
처벌을
win
없어도
##대상은
##less
산맥
취지로
받아들이지
어디까지나
찍었다
##카드는
알려주세요
##번을
나쁘지
##진출
더더욱
##의식
형성하고
박원순
브레
##규가
Prop
##커가
국가정보
동래
티오
##대회에
음식이
##지마
완주
스쿨
##타입
홍대
##집의
PR
##록을
소염진
리허
이메일
통증을
##자면
때나
충실히
부끄
내셔널
표했다
기상청은
유가증권
불타는
##ected
시설물
매일일보
##view
위태
개발하는
한남
구성하고
##으신
##재에
사용될
촉구하는
##모임
장난감
중얼거렸다
반영된
되니
##ij
메탈
stud
cal
선물타자
왼손
##스틸
심도
##oman
옮긴이
도시계획
접할
서로에게
아레나
치켜
시와
태워
##cut
특급
치료하는
뜻은
##도다
보여줬
창을
고찰
이강
잡힌
감량
그렇습니다
위협하는
##만명을
매뉴얼
님
절단
서비스에
경험할
##창한
매직
끝내고
마리의
성장에
##노동조합
国
대를
소녀시대
칼륨
과의
반문
##조치를
광진구
##쳐야
기용
마라톤
남에게
정도이다
대박
예루살렘
이목이
재즈
사랑스러운
##상태를
##이기에
인프라를
분위기는
상원
힘써
##상품을
##자동
문화관광
##네는
언젠가는
입양
최씨
could
##게더
말부터
ㄱ
생각이다
來
나오기
채팅
불리한
신청하면
캐시
좌파
성장하고
밀가루
志
원더
옮기
##한지
당당하게
노골
##축을
타임스퀘어
##산업을
용기에
구조조
##선도
##AB
조우
범행을
전파를
##시행
##rig
갖가지
위해서다
##편에서
##기업인
욕을
도무지
해지
Cor
Li
받아들이는
내재
성희
배부
##애는
영암
##플랫폼
##국어
예산안
고충
성폭력
주십시오
##회사를
설명했습니다
##담보대출
커서
바지
씻어
이화여대
정주
첫사랑
손해배상
개화
공부하는
헤매
경향을
각별한
제안한
숙련
겪었다
닦아
이상반응은
##라이프
캄보
##oney
##노의
##ments
식용
에르
입각
##균이
血
good
삼성이
톡톡히
자금이
언제까지
지나고
##말의
##바탕
한숨
그로부터
배설
##올랐다
365
##병과
닛
우원식
플래시
발견됐다
체결하고
##하기까지
千
취하는
납세
지켰다
데에는
중성
성격의
종결
여부가
기대에
메이드
진전
돼서
도우
병력을
##스톱
은하
conf
한옥
선택해
##척을
##EV
##오르는
소리와
##락은
공급을
좋아서
##02
##남용
음악이
##국립
계약이
##쪽의
##ington
Trans
분은
시위를
시일
ins
수치가
FT
확대하는
계획하고
나흘
진천
野
농사
있을까요
경사
노래가
과제로
운동이
조계
양세
##위치
##공예
방패
##기야
편에
성화
좋지만
프로세스
空
김신
계획입니다
본사에서
위기가
세웠
명칭을
##반은
##리케
한채
기쁜
마무리했다
양재
않기로
단연
表
모두발
온전히
했어
남편과
##실습
##EF
병력
김보
##점검을
있어서도
맡는다
브리핑을
cur
들러
후유
대응하는
미드필
송중
각국
성장세를
##€™
드립니다
전한
이것도
일대에
일회
당할
1940
##월을
##월이
조약
감행
강하고
바닥을
관리할
순찰
폭을
로열
삼중결합
예상하고
이동하는
그러면서도
##돌을
##물었다
##러블
孝
카지노
〔
박물
）
##rime
##실장은
뒤에도
수출이
브랜드가
증시분석
도전하는
유예
일정으로
##케미칼
##정화
##ather
##년경
했는지
절차에
카자
쇼트
##타고
학교가
겨냥한
골고루
남자와
떨어지
쉰
세워진
기술력을
시신을
##인삼
말하였다
의사결
MO
校
대안을
산학협력
와일드
특색
웃음이
결정은
보낸다
드러난다
영종
냄새를
##제철
아이와
지식이
##동차의
Newsp
수준인
샤워
콜로
일삼
농경
where
로드맵
시작하면
이전에는
##대책을
달라는
공간에서
내놓고
지역에서는
포함하고
공개한다
지진이
자동차를
아름답게
##한은
##벽이
숨이
방문했다
세븐틴
본인은
거슬러
##TER
한번에
SN
UFC
안주
저주
대하는
##아름
경찰관
Lee
만들어서
공손
열광
우즈베키스탄
##위크
농업인
해석이
코를
대응하기
구호
확대출시
사우스
상큼
시행령
명나라
나서서
내실
고척스카이
구름이
##리스는
##했음을
선사할
작전을
늘리고
때였다
차는
김학
기도를
모습이었다
보조금
Award
別
아주머니
전문성을
대관
구멍을
다다
중소형
1965
비핵
고고도미사일
##amb
지상파
연면적
가정에서
모바일웹
거리에서
##근의
tert
##군수
하라고
EN
패치
임상시험에서
심폐
〕
간과
맴
구자
##비리
전까지는
##예선
##실내체육관에서
##줘서
##르를
느린
줄은
HOT
母
터뜨렸다
나열
체인
신체적
금액은
볼거리
商
##업계의
여기고
딸기
신입생
희망이
설치되어
자리잡고
언더
생각하기
Methyl
빈혈
2500
노인은
판단할
##ii
##증명
유난히
불만이
초조
경찰과
잠실야구장에서
익스
친일
정용
돼지고
##ole
松
##창조과학
탔다
법의
형용
종가
불과했다
##숙은
이뤄지는
조속히
이뤄지고
다룰
유정
현지시각
##SK
##ourn
##보살
훔친
막강한
피부가
않겠다고
세션
##왔다는
달간
무엇이든
맹활
요구된다
병합
혈소판
이윽
우두
・
태도는
##현동
손자
조원
화재가
청문회
파트너십
##leg
절차가
부산의
##튿날
운영되고
사전투표
미혼
나오는데
진열
##CO
깔려
오리온
있지요
풍경을
뇌물을
향토
정면으로
##sw
잃었다
국장
당대표
특검이
방송통신
과징
##나타
누르면
성찰
prop
test
취약한
오너
청사
이벤트도
나중에는
맏
##시께
허무
##hap
틀림없
데도
121
동북아
크리에
##hib
직결
과감한
정소
아군
꽃은
코코
보호하는
아메리칸
##사와의
양낙규의
지지율이
이야기도
##하네
캐리
알아볼
판단이
반쯤
밸런
공급이
않던
아쿠
##으려면
명예를
##진료
남산
##모니
##위원회와
선택이
##400
내세워
##거야
상처가
고민하고
신과
배제할
어린이의
눈치를
혀를
맑고
도울
##백이
운동의
슬라이드
##ient
##해져서
정황
까마
##해하는
구비
후지
##톤의
총체
##사키
did
롯데는
이야기에
대화의
Af
관측이
don
밝게
Spain
친구와
장신
다진
##업체가
센트
블라디
단지는
오키나와
내진
싸움이
규격
귀엽
정병
##예스포츠
토마스
무슬
otherNewsArea
##여객
270
단어가
바다로
Har
국가에서
##쳤다고
##취가
명단
##aining
〃
수제
알리기
공격수
무승
파운드
무리한
상품으로
로렌
가르침
다목적
하룻
그러지
수단을
격투
누르고
수준에서
설치를
차량의
개최했다고
맥도
##회장은
국가는
법원이
##테스트
버린다
##아이뉴스
과시했다
공범
가깝게
요원
##들지
##제에서
레저
윤석
규모다
쇠퇴
못한다는
##소개
도로를
장관을
라이브캐스트
라이브캐스트아이뉴스
water
##왔는데
노는
126
##볼넷
모델은
유니폼을
이상하게
기본으로
웨이보
지방분권
욕심
Mad
##현장에서
주먹을
번식
기능과
상대방을
CNN
협업을
##년에도
해결해야
사슴
충주시
계룡
아름답고
분수
클릭하여
##ipp
일입니다
##육성
##우스는
돌파했다
line
움직이고
무작정
즐겨찾
모로
최연
강경화
윤곽
麗
투여하는
DV
청각
폐렴
##정부는
쏜
출전한
요구되는
하나님이
그랑
우선적으로
학생과
조사는
오게
##했으니
##by
반박했다
##전에서는
##곤란
정읍
맞이한
권력의
세입
설렘
천문학
##전남
페미
샴
##련이
##일째
범위가
호의
동탄
이해와
피하는
보이기도
선거에
가입자
##노라
페이스북에
이윽고
해명했다
버리
1946
예전에는
당대
##여건
stat
발렌
판매하고
round
안개
종속
끼워
태아
시대적
##agement
1949
##메이크
가치와
택시운전
##양낙규의
##전략을
규칙을
##악을
Her
존재로
산청
##디다
탄생한
##졌으나
전통적
##백화
넣을
집행유예
챌린지
나가서
방송될
전해진다
Bo
야채
##전망
여진
추진한
##을까요
##런트
어마어
덮어
상황에서도
##질에
올린다
실질적
넋
금메달을
손톱
##컨벤션
##cal
##윤은
샘플
관점
코엑스
##분기에
공공부문
##매가
권오
알면
롯데시네마
자체적으로
영위
long
아이러
##라이더
數
와이번
##안고
작용하는
손잡고
제재를
수출입
##랭킹
뉴스서비스
held
저자는
건넸
과태료
전망을
이승엽
##깊은
동결
배우들이
수장
##귀가
이산화탄
투자에
##었으면
##aut
도발을
소통의
소진
##성적
최선
증오
##ayer
천하
연말까지
어느덧
상점
고흥
구조로
문체부
발표하는
##갑니다
##처에
나트륨
고취
인연이
ref
생생하게
경제성장
##the
잘생
예보
그들과
##시키면
final
절대적인
확대될
낙하
집회를
스포츠동아
안중
##전투
##조원을
강연을
##시설과
（
어필
##BB
##가슴
여동생
이튿날
##연료
난방
##강점
1961
이뉴스
동물을
알루미늄
셀프
잔류
제도적
마찬가지였다
죽게
연구의
##스트리
빈틈
目
지난해보다
내려와
괄
소통하는
주니어
##기능을
새겨진
로부터
단독으로
丁
하세요
##ourt
이면
찰스
송금
못했다는
설치하는
보태
사라지는
천식
격파
##증권은
중에도
숫자를
유력한
##느냐에
넘기
누구를
물품을
공명
포수
대선에서
피력
깎아
위험성을
마음과
킥
##감시
##디스크
경제에
남용
##지사는
확보하기
가려움
주관으로
개념은
조성된
amide
##측의
필요합니다
쑤
##지급
영상은
짐작할
젖은
기억해
이동할
저가
##나르
황태
주소를
흘리며
재촉
연체
處
네오
Yes
흐름에
글쎄
조사결과
연기에
Cap
##노이
관련해서는
##ros
민선
사촌
지키지
이뉴스투데이
의도를
군이
##AF
##절차를
고백했다
손잡
##킴이
민정수석
투자해
업체는
##년보다
강화하기
극단적인
재판관
want
誇
흘러내
##물류
##멸의
파격적인
달려가
##ana
##그는
놀랐
비하인드
히틀
피트
계속되고
인정받았다
##컨설팅
레이어
1952
시민과
##자재
나들이
영광을
부문의
모양이었다
집의
대륙간
선생은
트레이드
경관
열두
##변동
慶
##교섭
건설을
작업은
이뤘다
##팀과
인위
하여야
능력에
링컨
##퇴근
##하죠
수치다
벌어지고
말하자
자각
리조트
They
##기준을
村
비공개
##공시
##교육지원청
달빛
스트리
넘어섰다
다양하고
eff
##되지는
결별
행정부
##느니
##내셔널
질서를
날개를
pass
品
인슐
연달아
인용해
치료제
郡
테스트를
경제적인
설치할
近
期
아세안
대왕
##용어사전
##EP
콘크리트
장애가
뚱
House
포함한다
##자라는
で
전방
소장은
##ese
일컬
산이
모양새
아틀
새우
##말라
할리우드
성희롱
센서
界
OP
합의했다
연설을
루시
창문
우울증
##바꿈
특성이
말대로
흔들어
암시
지문
발표한다
브래
무너지
뮌
인데
미래창조과학
복부
나무가
##공인
탐지
고군
발목을
창간
ob
##단계로
잔여
건담
가성
아르헨티나
페어
지팡
국민과
완도
##들끼리
갑상선
고운
내년에
한전
들어가지
판사
등록된
박희
콘서트를
State
나뉜다
##대통령
석방
공민
박나
280
왕국
선물로
루카
##점유
깊이있는
꺼냈다
선발로
끼어
부모는
듣게
守
외상
대담
움켜
next
증가가
방향에
##する
##김없이
##해지면서
보건의료
시적
750
기회로
낳고
객관적인
러블
복숭
의사소통
마냥
##추천
국고
법원에
연속으로
##인원
##킬로미터
廣
서포터
##경색
힘차게
평일
툭
##wn
사장의
居
만족도
##진행
김규
것이라면
##ru
일정이
짚어
##도의회
잠든
텔레비
##akes
##즈로
차장
외야
엄지
거두고
코칭
전하며
시민사회
과거에는
펼치며
하필
전광
진행하며
진출에
에디션
인정할
손가락을
전현
##제주
뒤의
##네트
##련한
자리로
inf
출연하며
Center
분홍
EM
調
하면서도
##령으로
##저는
찜
유능한
제공했다
한국관광
요구가
##inese
실증
##리타
표방
제기된
##cel
일렉
이치
체제로
##천억
##개씩
뉴스를
##탄도미사일
연결해
##동향
경우에만
연도
콜롬비아
쉬지
##브는
표현하고
사다
##용수
권익
꽃잎
가상현실
fe
##놀이를
욕구
##차도
이비
아파트를
독보적인
패러디
과천
시도를
답이
景
1964
디아
자정
##미르
방법과
이기는
##오니
민병
##업종
##생명은
운동에
확보에
소득이
약탈
##가공
식품의약품
헥
스타일의
시상식에서
나간다
함정
서비스로
MD
제작진
무대가
이유에서
기다리
펼쳐질
참된
고고
카메
##씨에
과량투여
##imes
부족하다
얽힌
구멍이
##UR
커리
전기를
금리를
##위원장을
구출
플로리다
무안
차량에
힘에
한국전쟁
강조했습니다
휴먼
팀원
텃
소비자에게
핵무
내려오는
式
수석은
##건조
##가지를
있었기에
적법
장학금을
언어로
김부
##때는
典
##쳤지만
은행의
성질을
변호사가
분석된다
現
하였는데
##지방경찰청
공격하는
산성
말했고
Stud
병에
말처럼
ve
품은
##만원에서
시민은
더는
서원
은근히
백화
환율은
땅의
친해지는
보이게
확인하기
##신도
내용도
##지방법
밝힐
환하게
지배하는
##청소
실시된
해에
위함
자유의
낮고
##였어요
일선
##되었기
끝나지
굳은
법에
본연의
쉬고
運
##UM
어우러져
##OW
Phil
그려져
##라인이
Mod
섰
##이치
##장소
신성장
사고의
살린
성공의
##관계의
##연수원
충청북도
빅스
연락이
gl
간략
여유를
##지휘
트렌드를
POP
국토부
결정된
셀트리
컨디션
전자랜드
##준을
권현
찾아왔다
팁
것보다는
부인의
118
무소
종의
언급하며
소각
열이
이르게
빌리
##중에서
사회적으로
##골로
죽기
파일럿
익혀
도가
맞추는
파급
［
박선
##ris
전년동기
국정감
##름한
홈쇼핑
귀환
박혜
세울
Sum
場
차지하며
원수
##사자
들리는
尙
호날
##다시피
주도하는
##월호
중단하고
발목
오르며
파이터
##기다
건강과
##교에
초창
활동으로
##패스
##교와
##마로
시청자들을
TR
림프
청도
얻는다
대림
복면가
피자
깨어나
마을로
##조성
밝혀진
인구의
침수
##산업은
##오자
##되기를
##상도
눈빛으로
결합한
##저하
사업계획
확보하는
편을
유기농
보건소
인플레이
반지
휴스턴
밀어붙
##싸움
판단하고
##후를
Cal
사상을
패밀리
##문화재단
필터
정치적인
궁궐
발굴해
부도
가하고
과언이
아이언
나카
라인을
자녀가
昌
##량도
현관
보훈
주도한
##했지
##마리를
뛰고
르네상
부여하는
듬
##urs
정의를
설정하기여러분의
텐아시아
Fin
how
열람
사은
자신감이
##거리에
안돼
실현을
##우스의
##슈팀
폴더
두렵
##리도
프로모션을
116
##스트리트
##오피스
이름과
임대료
흘려
가면서
사랑한다
태안
양상을
##연휴
펜타
윤소
##손가락
약이
##박사
더팩트
##저의
캠퍼스
단계적으로
컨퍼런스
##해지기
거미
##de
비영리
도청
##으니까요
코오롱
건강하고
left
받으면서
##보훈
친근
안아
키울
생산성
방탄소년단
자처
디지털뉴스국
聲
##었으니
보아도
##동력
##직이
지탱
올라갔다
한수
안심하고
##학급
슬프
행운의
##oss
令
Air
라인업
갱신
자극을
보기에
Sec
교수를
사람에게는
산에
토너먼트
지난해에는
##책은
way
없이도
머릿속에
멀리서
##짐에
濟
하러
##컴퍼니
줘야
민사
잊혀
##있을
##운동에
아마이드
반입
##재단은
인정받고
##바가
운동은
##았어
공표
도시에서
스킬을
지원했다
거리는
##제도의
차이로
메시지가
MH
마인
해소를
충분하다
아리스
소설가
플래그
어린아이
어려웠다
밝히며
않으나
##포스트
찍는
왔을
think
대책이
룸
황제가
쏩니다
신청한
말만
따돌
117
##자리에서
기쁘게
노숙
이벤트가
때문으로
동점
오른다
여권
##복은
錄
초기의
예상보다
소비자들에게
교수와
성능이
전날보다
##드름
##해달라
주민자치
그렸다
사무총장
찾아내
청소년들이
다방
불의
##아티닌
##불량
팔꿈
객관적으로
路
헬기
통틀
장흥
통화에서
때로
##adium
하인
유키
앞바다
품에
낳았다
전국이
발걸음을
##ENT
축제를
전문가들의
제거하는
해볼
산업혁명의
이코노미
천사
##좋은
그랜
##시험을
상대는
얇은
이르고
이슈가
학생들
시행하는
역적
소속된
##하이닉
나오게
달성할
여긴
##ky
강조한다
김문
전압
##of
개최하는
멸종
장차
구워
기술에
물로
배는
합뉴스
음악적
학생부
양해
일제강점
성산
class
시작하면서
지점에
OCN
최첨단
대가를
민주노총
##공약
드럼
##여부
기인
맛볼
郞
만들지
##금에
sl
프로필
선발된
주택을
시가총액
자신감
경우와
Hy
만드는데
부가가치
마니아
랑
지나는
##난을
강대
쪽은
##cept
##스러웠다
퍼부
국민건강
뛰어넘는
rights
닐슨
##컴퓨터
트위터에
##케이션을
제목으로
##호르몬
##소생
한밤
자산을
##딩을
인상적인
케어
##인터뷰
생산된
안방극
북쪽으로
WH
해당되는
줍니다
144
경제적으로
압구정
오크
Mac
##산업이
##ives
스텔
것이지요
배고
종업원
감찰
Data
땅에서
마감했다
성당
##쿠라
##05
크다는
1966
##텔레콤은
##안에서
시조
행진을
시절을
지급한다
경고했다
북아
##일간의
서귀포시
##째로
코드를
연구에서
##ting
LS
원하지
성장해
파스
외국인은
넘긴
노력으로
84㎡
노원
낫다
아오
유익한
년이
##년에서
##무의
##비도
Newspim
##훈과
참석한다
##농업기술
아스피
present
다니엘
Ser
##노가
연결되는
오징
미술관
##GE
급변
박람
위헌
고객과
##play
분들
간염
싱크
궐
use
강북
##왔다고
유나이티드
##연장
##색은
Pa
루이스
남아있는
미수습자
PGA
팜
미야
류현진은
불안정
관광지
기준은
전하
##기관과
고고도미사일방어체계
둔다
뱉
##광주
가루
Bu
옥수수
여성가족
쿠키뉴스
##렬하게
배럴
##라이어
##클린
##퍼런
##토크
절도
##idge
##께끼
만주
##프로그램을
##각의
품질을
모클
오대
심심
省
##매치
동영상을
##윤리
科
대표팀은
경전
初
##준과
도리어
##메가
남경필
흘렸다
가르침을
엔씨
악기
선동
자녀의
Ag
휴일
서쪽으로
Il
효과도
음악과
프리스
표현해
힘과
##영역
제도의
자유무역
조건에
마틴
외화
실수요
##로디핀
##익은
##시설에
##iver
##칙을
동쪽으로
##면접
더할
위엄
스케줄
##get
산업을
객관적
따라가
##웍스
부산광역시
낮춰
속성을
조세일보
하긴
추세다
##랑을
공허
환급
딜러
드리고
걸어서
쳐들어
##포드
찬양
초래할
임을
##란트
CPU
##전통
얕
평을
불완
초음
흉내
洪
Bel
일으키고
論
##ling
생명과
시각을
##폐기
헤르
iss
羅
말없이
딛
원칙적으로
직원들에게
］
담을
이루지
중시하는
##년부터는
마녀
well
칼리
발언이
알려졌습니다
##메뉴
고척스카이돔에서
##테스
##커의
여태
출발한
따름
무너져
권한대행은
욕망을
입이
##혼을
##aster
물건이
존재의
가평
쉬워
##정보의
##티어
별이
부모와
미운
한약
살인사건
향기
##아미
품위
무궁무진한
##고등
중으로
六
홍삼
Sa
##QL
청나라
누리꾼들은
398
진주시
랜덤
평화와
재원
코카
촬영에
##막염
##erem
비명을
친구맺기동차의
맞추고
성황리에
박광
헌정
발생하면
원소
부종
음력
이제부터
췌
修
불행한
늘어났
노스
절로
참가자들이
울산시
##하기보다는
녹지
재수
승계
##들에겐
##전당
배분
민요
dimethyl
##날의
출발해
가급적
두꺼운
비해서
의료기기
선생이
휘둘
부모를
지금껏
최윤
담임
원거리
거느리고
창녕
남이
환경의
나오면서
하고자
깊숙이
260
때문일
머물고
##그릇
벤츠
지쳐
질적
연출을
서울을
햇빛
주최하는
의약
형태는
##화되는
피지
##요리
cm
##것이다
의원들의
잇달아
외계
應
구속영장
주말드라마
뇌졸
둘의
갔다가
##ission
##매장
총장이
걸리
오른손
마음도
콘셉트
포용
매트
멍청
중재
team
父
고유한
위대
##번째로
무심
하더라
내로
예정돼
모으는
고루
##페인
##ogr
어우러진
협동
##대도
##버는
시험에
미사일을
민주당은
회원국
검토해
외부의
색이
##스테이트
##됐으나
좀비
없었다고
주도권을
##The
국민들에게
던지고
인근에서
민관
정영
##학과를
간격으로
부양
당사에서
SO
반려동물
코어
중요하지만
우아한
사무실에서
##흐름
일으켰
내세운
모던
평가하고
봄이
##했듯이
##부에서는
탐사
從
親
클린턴
##망의
精
가칭
활동의
주거환경
##인가요
일시적인
몸무
정도면
뒤따
allow
need
이동해
의사는
들으면
해왔다
자전거를
즐거움
흔적을
괴로워
스마트폰을
명실
토지를
##레이트
예가
##기보다
가나
본래의
소방관
언어의
마법을
멀어
관악
##층과
Britain
어울리지
애완
##ico
예측할
백종
생각하게
명목으로
국내에서는
궁금한
##짓을
롯데그룹
인정한
존재할
孫
법이다
##KB
##코리아는
달성한
보드
교육감
보병
122
여론이
바라고
전원이
급한
乙
類
##옵션
진리
가문
唐
Ass
고민하는
투자할
##티모
대회가
##사회는
OUT
복음
基
두근
받아들이고
비를
정찬
##억여
##전자가
무비
사외
정중
near
stand
이빨
금토
신종
국가적
124
글의
뜻의
이상반응이
사탕
무궁화
쿠바
##용지
##당할
카탈
ten
##총회를
마지막까지
김효
관심은
return
초반부터
문법
부문에
목적에
잔을
##하시고
net
##icle
후보자에
통합을
象
노인의
##전사
##히면
초빙
##공사를
불려
차마
설문조사
상사
아아
타카
##민들의
##스타인
썸
백색
부시
##맛이
조성해
ACE
붙여진
피겨
캄보디아
로스앤젤레스
적극적
있기도
어디서나
business
김석
##나무를
회복을
의문의
##너의
하룻밤
이근
트럼프의
음악에
마련하는
##요양
가드
이용하고
##율의
진리를
사이다
자연환경
없거나
편한
아이오
터라
무기로
발전할
브레이크
##하든
돌입했다
만들겠다
언제든
##사업부
##쯤은
양양
뿜어
업체의
##힘을
온도가
##포지엄
우월
##누스
삼는
주최한
##대왕
흥부가
##테마
의문이
평생교육
통과한
##너가
Pri
##맛을
동맥
사람처럼
윤성
##균의
리틀
##귀한
Mic
이홍
##래는
##iary
개최해
순위를
결혼한
선택하여
##보면서
##soci
사망했다
구동
올림
절을
쓰러진
개봉한
케이스
##도시로
유무
총수
무주
흔들었다
##운송
카페에서
##율과
업체인
가방을
시장과
국민의당이
정규리그
업적을
농도
코엑
벌써부터
불황
페니
뉴스의
미국인
리튬
더러운
바람직하지
##조사에
많다고
구한
##ief
##스와의
환경과
##omb
어리석
하늘에서
해당된다
역사적인
날렸다
초중
한국전력
承
구제역
김하
##로에서
즈음
상태이다
성숙한
工
반등
인간에게
공청
하였으며
즐겨찾는
증가와
대사가
선고했다
부득
prim
협력업체
##보와
##피의
총재
공산당
##구려
농사를
관해서는
마블
제고를
돌아오지
##랑은
방학
배웠
##암이
자아낸다
느끼며
카운티
##박람
하버드
드레스
띈다
부탁을
도시가
제작보고
로즈
푸틴
꿰뚫
정윤
##학적인
하루가
European
By
규정이
활동과
몰락
돗
폐기물
사실도
묻는다
중소벤처기업
괌
##시계
전통의
##상태에
암로디핀
부사장은
보고는
팔고
##명씩
남짓
최고경영자
JYP
시민들은
##승이
저녁에
##화도
방송이
CU
먹이를
배치를
범죄를
아기가
어려서
1910
##량한
엔터
##오버
##팀장은
동명
알라
감상할
##배구
모모
김옥
필요에
한국에서는
상태의
성분을
호는
이용이
관찰하고
##커니즘
##르와
에너지경제신문
##쳤을
Off
의심을
천정
155
재건
안착
의원들은
00020170
功
해온
##만명이
보고서는
비하여
철학을
경연
랜섬
교육부는
##보관
저에게
state
##서부
NCT
tourn
매칭
결정적
새만금
##인포
위치가
강아지
청구할
차지한다
##문학의
##품과
##식도
드러났
투여시
##RS
Tri
설령
주인은
택시운전사
소유자
천지일보
스코틀랜드
작년에
봐요
살리기
피해는
##탄은
납입
##기관을
##행위에
역임했다
허벅
잊을
학력
성벽
슈퍼주
##회사인
##니에
급제
HMS
있기는
공자
##군사
맞물려
##ession
표면에
TO
##처벌
전문가의
퍼즐
사춘
않고도
질문이
fo
Lo
그리기
사이드
있었는지
##정신을
##ORPG
##찬은
깨끗하게
##상거래
##ars
##겠고
환산
##질적인
오후에
출루
다우
않으려고
단양
330
다이아몬드
Gre
##쪽을
살펴본
소개한
극도로
Int
尹
當
좁아
##CI
##중개
각광
이불
##하마
행하는
시체
##ones
무시무
Party
인물은
##릴라
좋아하지
시기의
경산
지대
뒤흔
바로가기뉴시스
공개하며
공판
심장이
알린
부드럽고
안무
홍진
선생님의
인디언
수수께끼
iMBC
라이언
##인지라
##겼고
##리시
찾아오는
상관없
자료는
레이더
연기자
영덕
구성했다
조선일보
찔러
전문가가
멘토링
만이다
정신건강
식이
럭셔
액세서
제공하며
##펙트
tournament
mm
감기
법과
##해야한다
파도
호박
깊고
##보스
니코
의사결정
개원
보였던
計
##03
소유하고
관광객들이
경우의
실수로
뷔
총독
연구팀은
극의
독립을
학교는
깐
rep
##묘하게
左
비난했다
매혹
##썼다
페널티
##편은
##부종
파르
배웠다
참배
스포티비뉴스
##부전
##위안
이득을
##봐도
개정안을
##건만
##교환
꼬집었다
좋아하고
준우승
굶주
말이오
html
寒
싶으면
돌리고
객체
##갔습니다
시청률을
임창
##방과
전동
##철학
앞에는
반항
sign
됐다는
빔
##가수
##zole
1900
주장이다
##이라니
##나리
하였으나
##프스
##베리아
서머
공평
제게
##ball
장현
Mer
올라와
주민들에게
놀이터
미생
회의에
##조약
sw
증후군
확대와
세미
##단백
유언
지날
물놀이
심층
LCD
##FM
加
목재
하마
장애를
시군
145
아담
없는지
진솔
##간스포츠
넥슨
물질이
구속기소
oper
나이를
쏟아지는
##유플러
입으로
풍자
경위
미드필더
##하루
##일이다
정책위의
고을
궁극적으로
생명이
##치료를
박시
초부터
작게
비자
교보
거행
어른이
로고
문건
연맹
감정의
보너스
복수를
송정
##손해보험
##벨트
도보
농촌진흥
손익
싶어하는
##ohol
##나물
지켜보는
##공주
건물은
돌아간
자유한국당은
공산주의
이온
장관의
주제는
매운
국민은
##우에
##고시
##패가
##본부가
돌며
뮌헨
##일기
자라고
참가했다
줄줄이
祭
금리가
받았습니다
원숭이
영혼의
극복할
주에
남성은
따서
##운동이
그리워
벌어질
##항만
화답
소통과
Wash
##파리
##해결
##참모
벌을
가금
일자리가
환기
청순
##농장
##화하여
지향하는
토요
마지
##for
선거벽보
##했음에도
기여하고
경청
정자
愛
그녀와
일만
##ract
급하게
사용되었다
마이너스
학부
제사를
##보좌
고른
등록을
무한한
econom
invest
빌어
개선과
도를
있었다면
평가에서
유발할
many
conference
이긴
##설턴
닷
걸린다
다니며
만약에
이통
##LA
수익률을
막대
대사는
##세상
따른다
리베
포상
체코
대포
부흥
재가
중이라고
늑대
꼬리를
방송은
##우먼
디자인이
팀장은
도적
##불가
may
인피니
##타임즈
종목은
공감대를
배추
견뎌
##대회는
까다로운
약사
수산물
少
의도가
오해를
숲을
매체는
예배
치를
적재
##채용
공개적으로
겨울을
줄어들고
발전의
##겼던
심의를
박소
신차
안보리
알릴
##가지로
들으며
쐐
간담회에서
기자는
적에게
아우르는
상설
안종
##나가고
일상적인
배급
##라지
develop
秋
만세
농약
##년대의
機
한잔
##복의
제출했다
갑질
윤영
전해져
훤
과정의
##거니와
드라마로
진술을
헬스케어
##칼리
활용하고
부어
요청에
##틱스
옮기는
성향을
##월드컵경기장에서
##팰리스
소실
TOP
나름의
##형성
Australia
브라우
정신의
ri
실천하는
##영기자
실체
눕
방통
齋
##액에
블룸
아니더라도
서울경제와
농부
못지않게
##개월이
놓는
양호
충격적인
1958
경직
김상조
시너지를
어렵다고
##조류
##퍼시픽
앗
용법용량
거센
원도
조동
먼지
경력을
＜
갑작스러운
유배
경위를
준비할
조윤선
##두의
Chinese
계속될
아니오
힘들었다
개인은
않으니
달러에
과열
저작권자서울경제
##아카데미
들의
엄마를
##가도
##여겨
탈바꿈
##총회에서
##chnology
##하리
##됨으로써
EPL
끌어들
윤정
##오드
조금이나마
필요하지
고부가
경감
릴레이
나이로
##gg
집단의
##말은
필수적인
이순신
계열의
##최고
reserv
CB
폭격
##IAL
지배구조
조사해
being
い
지난해에
발전시켜
개정을
측면을
못하였다
재조명
##대회가
조성에
귀추가
측에서
퍼포먼스를
봉쇄
모시
환상적인
##인들과
##cohol
순서대로
서강
그린다
청와대에서
벤처기업
정치에
공용
⑥
짝이
##례로
##기록을
평가할
비추어
##킵니다
샀다
##판과
분위기다
##공과
브레이크뉴스
##치도
거둬
대선을
산재
받았지만
##성능
매달려
쓸모
##발전에
자식을
인천국제공항을
##업무를
자유민주
승용차
떠나지
##피부
방문하여
선택했다
##실질
개회
김호
남게
영천
전보
히어로즈
##엘이
말초
판로
공동대표
Gener
박승
Sup
##원기자
순간이
##신라
관계의
Love
비관
자리는
내적
부족으로
##icy
##인지도
낯설
금산
신라의
리뷰
논산
음향
그리스도의
支
Mr
의도적으로
##대강
참가자들은
##주머니
방향이
##왔으며
모서
최동
인생은
매립
알을
눈썹
기관과
##ao
##란드의
선수들
유류
목소리도
허물
결과다
##lease
들어가기
##시간의
수입을
상권
볼륨
돌봄
바른정당은
극적인
현대건설
사용에
##기름
##이름
현실과
섀
기피
##신청을
##직업
제조사
부위에
##점이다
1919
있을지도
GE
주인공의
많았던
이야기하고
##리아는
밟고
불사
좌석
##월은
결여
울트라
창건
Will
불길
공개할
##있지
시인이
##나라를
대우조선해양
어느정도
판단해
##말에
##급히
사거리
구독해주세요
##도구
쓸데없는
##tra
한국형
오케스트라
추진에
간절히
괜찮아
##블루
인사가
캐주얼
##제인
밝아
##포장
깔끔한
##ature
망명
##들이나
##라비아
제거하고
크리스탈
문성
제공을
resp
##포인
대문
가끔씩
say
광해
방대한
효소
##LY
왕을
##겠느냐
##이크
하사
합의가
##탱크
주최로
##ica
살리
윤상
##더니즘
##WC
진단했다
안치
리얼리티
##에너
자치단체
기대했다
핀란드
##윤이
건조한
후반기
수필
과반
550
있단
聞
칠곡
미쓰
바뀌고
상품에
인건비
##중간
##러브
더운
##rid
김시
동창
표창을
자외선
조정을
빚어
##가격은
어워드
개념으로
Yon
##수기
133
내려온
선의
##티노
요건을
판단에
추궁
##ched
아낌
곁을
패배를
##장에게
쥔
##물인
최원
장래
시험에서
검토할
빠지지
##볼루션
##TP
가던
##은행과
fin
Char
정신적인
Inter
평생을
했지
모유
요구할
조수
하느님의
##이었어요
노력과
난이도
쪼개
유발하는
證
##스트의
소녀상
殿
PM
미쳐
각인
반납
당사자
源
살아가
book
불고
판매량
##표시
넘겼다
고심
손질
에스테르
##에어
당국이
학생들과
제한이
동조
섬에
문화에
집무
나인
노력한
주택담보대출
##IVE
기대되는
천명
##맞는
che
##점인
##04
즐거워
起
##초는
음악의
장마
최적화된
##공공
섬의
변했다
용인시
겁니까
제네시스
점점더
##inc
다정한
##oon
か
##았다는
랜섬웨어
시그니
원활하게
돔
염증
약물의
축제의
영화에서
조사할
스토어
엄마와
구매하는
정세균
배로
분별
##gram
전쟁에서
변모
스타투데이
일간스포츠
평생학습
망원
더해져
외치고
Net
백업
전립
누구의
황해북도
관리자
##투게더
성장했다
진심
경로를
전두환
매드
Em
쿠데
공장에서
거래소
출범한
효능효과
##ering
##원자력
##혈성
최형
기와
일본으로
글자를
IF
##IE
걱정하지
존재하고
레몬
스스로가
행성
승리의
이용한다
줄어드는
足
상대에게
##엔지니어링
##년동안
벽돌
館
보호하고
##합병
섹시
출마를
반복되는
mL
##수련
##객이
황해남도
차차
눈여겨
1956
統
간질
신문을
하와이
사물을
급속히
가정에
의기
대내외
도시에
티켓을
업데이트를
440
불교의
증가한다
공기청
사례로
경진
맹세
목소리에
한림
가도
일상의
짧고
이랜드
지나간
##캡슐
두려움을
침대에
##론으로
MMORPG
스포일러
여인의
market
WS
##제어
전년보다
cor
##강좌
분야로
##선수권대회
왔는데
##해라
##rame
뛰었다
심폐소생
자동화
감옥에
##마라
세라
##야를
실장은
##항이
럭비
규제가
뻐
방화
##공모
다뤄
##겠네
##iki
어울려
##전국
퇴장
고군분
영월
##잠수
활동한
후예
##역할
리처드
싫은
##트레이
##셨으면
虛
다가온
실온
여러모로
##아들
청계
cond
후진
##reak
멀쩡
티베
##승인
##물질을
재위
마크롱
서재
시각이
믿었다
##욱의
미녀
究
붙이고
tbs
찾아보기
재외
논문을
말라는
화려하게
달의
높아진다
노란색
공단
##자라고
谷
전화가
안정성
협동조합
요동
##내면
##경향신문
이름도
엔씨소프트
이브
##니카
상승이
##uclear
LO
답하고
현대백화점
원화
직원들을
묻지
##탈삼진
##군다나
전기자
鎭
경영권
고뇌
스타크래프트
##na
팬미팅
ETF
##찬이
상공
라운
양호한
보관할
갑옷
이어가
들어가고
https
공간의
있었어
지리산
페이스북을
잠재적
여인이
전쟁은
##협력을
공개하고
만회
갸
조장
##테크노
기법을
블록체인
복수의
없었다는
끈질
도구를
교직원
피해자가
제작해
동안은
##행성
아테네
##혐의
마음가
정리한
남쪽에
##교과서
우정을
대구경북
커진
치른다
예정으로
쓰러뜨
부총리
내밀었다
학대
가족은
대놓고
##교부
끝없이
부작용이
경향신문
##리브
간호사
party
없애고
##만원까지
선수단
리바
김사
##모비스
있더라도
무수
BBC
산업단지
##무용
##어드
##편성
빽
진상규
중앙선거
acetate
##저스
뒤인
획득한
직관
역대급
문재
광경을
##절의
이제야
증액
입어
격렬한
##나드는
읽을거리
가미
견본
main
바뀌어
반포
졸음
사람이나
발원
己
멜론
야심
현대차는
단점이
判
미묘한
이탈리아의
##부도
장로
##훈기자
##루타를
구조적
김기춘
쓸어
존속
##사유
##2016
##차례에
##항은
참가할
들어섰다
##구독
정보화
판단하는
##유플러스
삭감
탄산
안녕하세요
높다고
토크쇼
듀오
교향
악용
듣는다
무모
직원은
중요하지
##공사의
예제
위에는
프랑크
##카운트
건드
수납
곤두
부분으로
안될
##수익률
##어링
노력은
말기
대표이사는
시내버스
##음으로써
미루어
유도하는
신청은
공영방송
오신
##대륙
총기
고령화
##겠나
結
한명
1959
French
##가들이
의병
항일
가솔
김동연
##강하
조망
돌려보
개발했다
##닐라
못했습니다
##산림
상세히
당당한
##TR
이동이
##인사를
가운데서
갈고
狀
기대하는
푸르
##부분에
완벽히
종자
제각
잔잔
샤이니
##오일
##자키
치과
피리
##뿐인
dd
저장방법
죄책
##에게로
아지
일레븐
게으
##백한
민박
침을
돌아가고
핵심적인
##로마
##광은
그대는
내린다
시작했습니다
##치킨
열연
작별
##부작
##장에서는
위험성이
노력해야
참여가
스텝
버는
만족할
대청
토종
두터
빠지게
사용상
흔들리는
##CBS
반려견
직속
약에
무서워
발전소
순서로
못해서
##예금
최지
##유형
엑스포
지점에서
##플렉스
필기
발언은
금강일보
훈련에
종사자
문제이다
監
##공립
늘릴
재확인
나가지
팽창
당이
뜻밖의
배드
뽑는
번갈아
##위키
코엑스에서
##탑을
해법
다큐멘터리
##ared
##천리
##가격이
인정을
모릅니다
하시는
누군가를
열기
인상이
선점
아닙니까
심재
RE
메트
디자인과
칙
펼치
##엔터테인먼트는
맡았던
##랗게
또래
힘들고
그때부터
##격의
선택하면
여우
벌떡
시에서
수입이
1953
않아야
속도는
기량을
必
##지지만
들었습니다
직장을
쥐어
자유와
명칭은
신촌
Aut
효과적이다
attend
##인자
캡슐
아시아나항공
TC
조직에
특례
문학적
##차관
기초로
경품
1800
하도급
연초
파악해
물량이
하되
같으면
창당
해저
제공되는
떴다
에듀
역학
청와대에
상당수
보도가
한국농
소외된
쾌적
타운
카드가
부지에
시도하고
양대
##ustom
참지
##공여
FM
안도
도입된
토로했다
메신
##생들이
약점을
유방암
##꽃이
Mal
리서치
양심
##병원에서
132
순조롭게
보호무역
##Hz
설명회
home
League
현실은
수박
Russia
재평가
받았다는
퇴적
할인된
사죄
결실을
당당히
문정
Er
제도는
퀄리티
차태
##건물
##양과
해결책을
아크로
정찰
강화와
영화관
##ilitary
##금액은
일행은
매력으로
성분정보
손가락으로
##바뀐
헝가리
##지하
예방하기
##투자를
사계
##만명의
전향
##임대주택
단일결합로
공짜
심혈관계
##항에서
통화를
봉건
사라진다
개성을
단번에
##오르
준비된
예술적
Def
##베르크
외형정보
##IB
미쳤다
런닝
media
소방서
발언에
공학
천문
이야기할
기자간담회에서
##범은
외교적
미달
소녀의
사라질
루트
의무가
주관한
##항목
##규정
자릿
올라왔다
경인
##민들이
명도
예견
부는
##ethan
—
않다면
음식물
##푸르
##무대
선구
##개동
##어업
자바
모른다고
King
다져
안전에
##실업
봉인
따르지
복종
##류로
air
##문헌
경주시
자부심을
##무니
DVD
##태의
여름에
il
1954
##득한
##주체
단골
증상은
##쇼핑몰
과감하게
수비를
##스탠드
치밀
소유한
##지출
챙긴
상세한
소용이
시간당
안전과
갑작스런
수행한다
##이냐
거쳐야
예수의
##ns
머리는
사냥꾼
전략은
촉촉
우량
구입한
바다가
퀴즈
보이면서
요소로
숱
읊
학위를
미친다
##등급을
공기업
1955
사임당
##creen
국민들은
AA
##금고
날에
가세
##짓는
들어설
것이죠
재래
불로
##되다
歸
맞이해
자들이
수단이
위조
유지해
의미와
살리는
CV
##만원이다
전자상거래
유의해야
믹스
별개로
메디컬
Elect
수익률은
##메이드
##레니
구매한
패스를
##활동이
유치를
##격은
두개
새로이
높지
스릴러
손아
역할과
##게임즈
검사가
수고
賢
去
##유도
살을
걱정하는
우세
성폭행
믹
더군다나
양식을
양동
Win
과실
##자원을
닿는
도봉순
학위
곡은
녀석은
한반도의
##복음
강해
Dem
##양식
녹여
문화뉴스
##표의
요건
견학
남미
##만장
##상부
궁금해
커지는
##어가고
똘
##백과
예뻐
保
뽑은
##휴양
얘기는
##수화
짜증
본질을
##모집
회사로
이문
Sl
시비
도로가
커져
한달간
기준금리
반영하는
##열과
강아
눈부신
천둥
것뿐
##것으로
##나간
##트러
자체로
끓는
형을
영산
급기야
야스
피카
되어주세요
케이크
공매
말린
##my
perform
##압의
공개될
송승
가입한
##발한
인생에
최수
버렸
시리즈를
오오
혼돈
##분별
##이다가
##read
마포
법은
악수
전했습니다
계정
담는
돌아온다
나옵니다
HM
입구에
성매매
##go
책으로
나쁨
표현은
권혁
정월
보류
상자를
해보고
봉화
##주기를
불문
##바람이
복통
눈에는
한편으로
현주
배경이
##동부
##gency
##처의
과정과
증가해
학교폭력
정성을
다가올
권위를
가습
##으시
여럿
당을
175
sing
되거나
처해
콰
홍석
완성했다
##ule
장영
##센스
영화다
슬기
안나
##발성
못한다면
酒
교육청
전면에
명성
자세가
##셨어요
기반이
##여개의
높아지는
##앉아
사로잡는다
aut
char
결집
선한
##전담
city
경쟁력이
이야기의
믿음이
이미지로
현실에서
승리한
##프에
시인은
오른쪽으로
복면가왕
확인되지
아들인
영예를
댁
세대의
라우
##투성이
무섭게
따를
이상해
조성하고
총재는
글씨
의성
스트리트
연이
##협의체
조성하는
청장
Berlin
Yonhap
무게가
갔을
밝히지
요코
승차
대학이
노르웨이
업무보고
##거는
멤버로
1947
송민
문지
친정
정리하고
이덕
##백은
##됐는데
시급한
장관과
지원한
나르
각계
달라붙
이따금
선관
help
##med
變
형의
PH
한끼
돕는다
造
∼
가설
미팅
최현
추천하는
##시간대
햇살
##남이
우선순
이사를
##clo
화석
데미지를
쿵
피츠
##실록
이씨는
Cam
##세무
Je
청년이
영장실질
한미동맹
분의
##대조
##황의
香
최규
교부
부산에서
##연설
변성
투자한
이루어지지
위기의
상응
##만하게
재치
Hol
##add
우려도
##가지의
여성과
증가를
삼국지
##190
준다는
쇼미
##trib
새벽에
정치의
부리는
##하오
뒤이어
요구한다
그동안의
알면서도
띄게
유상증
요정
가든
빛깔
공화국
튀는
인사하고
후반에
신음
##하였지만
뻔한
떠나고
##부패
##범의
##우수
수비수
수록된
때문이라는
##ffff
선사한다
소재지
모바일게임
손학
부족해
실패로
결선
휠체
골자로
전철
曲
조절할
호조
베스트셀러
##승은
Washington
당황한
모셔
센트럴
모여서
##퍼를
생동
투자자들이
talk
금액이
차례에
금융당
##돌고
Port
인생이
떠오르고
깨뜨
불규칙
1957
환한
지능형
##어진다
공직선거
유소년
운수
비용으로
##폭탄
##mL
참관
야권
##ashion
정전
##ffere
만났을
##ajor
태양이
○○
el
터진
미소가
##600
받았을
650
살해한
요청한
text
사우디아
경복
작성하는
##작인
하이드
노조는
당국의
##리조트
북쪽에
혐의가
댈
Vol
중요하다는
##통한
장안
##행에
성북
일요신문
메달
봅시다
##합이
지창
거시
특별법
대상의
기록했고
뜸
하늘로
관제
##공동모금
프레젠테이션
##TC
트루
##기사제보
미미
비판하는
말이에요
##상이다
제한된
신중한
연한
##tract
##등기
##시대를
주인공으로
오브젝
국회가
local
129
인간적인
희미
겪어
탈모
성인이
##AV
왕국의
잠수함
##수엘
디자인의
##바겐
장담
전투기
##여고
었다
기능에
채찍
조재
배우자
##블랜드
이미지의
까닭에
아비
염기
무술
##회사로
165
파키스탄
기절
alcohol
돌리는
首
잃을
##유와
想
##발에
136
재구성
##이긴
무형
일이지만
##보존
영혼이
지방에
달달
##선한
제출하면
##여부를
##방학
##상공회의소
수용할
직영
기다릴
##커피
##주면서
tertiary
##등은
법학
결단
발암
나보다
개신
현대모비스
방정
도지사
생산한
사람들로
##ify
사교육
붙였다
뒤섞
라인업을
두들
##계수
격차를
사태에
##달러를
평행
##해에
IOC
희석
잔인
##물질이
皇
다친
회사채
##활용
글로벌이코노믹
##대성
##ta
영화제
자연히
프롤
크다고
##사지
몫을
옷차
배재
##책에
됐으면
産
Republic
##동아리
프로그램에서
클라우
놓지
사지
글에서
변수가
창업을
##체육관
##막에
우러
문턱
부산국제
다르지만
번거
맡기
싸이
자식이
매몰
시간대
불확실성이
##gin
상황에서는
형성하는
##구장
학계
##시킨다는
##겠다며
관해서
아랑
종이를
악수를
총알
제한을
김현정
배우로
탐욕
황색
잡아당
효과로
번호를
호칭
pop
통틀어
위치한다
##브레
초라
제반
##위반
중남
##있다는
하나에
##라에
137
불리며
창문을
통하지
이정미
무성
강인
쫄
Py
㉰
젖어
##계획에
러닝
탱크
덥
##olution
뉴스스탠드
지금까지의
주체가
없다며
현명
토벌
##내면서
##송을
sch
도교육청
상태는
손은
～
##PP
북경
하백의
131
##할머니
김두
할아버지는
원한다
##트럼
인원이
극복하기
증설
끌어당
정해져
188
파기
이즈
고군분투
성장률
아이디어가
##loy
건물에
##골의
개선하고
##bo
##실천
##억원에서
##관념
청중
이슈에
김씨
##도까지
적용했다
##회까지
##reet
황금빛
像
리메이크
交
예스
010
특검의
잡는다
확대되고
##척이
야수
##년제
기후변화
도마
표현의
##마이데일리
저작권자마이데일리
불거진
##거의
Sing
BI
천주교
##섭은
##쿠스
들었던
실점
푸는
한식
러블리즈
##극의
men
線
정을
보이는데
필두로
안산시
빼앗아
Sci
성동구
##리히
당면
분과
그것으로
열정과
##연계
##평생
중이었다
유니버
km
##대금
person
보장하는
格
다국적
##olf
##rov
세속
##회째를
내비쳤다
하나님을
##웅이
먹어야
업체를
##회차
위협이
##새끼
물질의
##고속
철원
9000
남는다
위협에
국정기획자문
만나지
다자
서비스와
얼굴과
##마니아
시체를
놀러
##파티
위력을
봄철
선풍
여타
모토
손목
미스터리
##에게만
감정에
이룩
김동철
수익이
의구
예방에
grow
사기꾼
헌혈
디즈니
테마로
실물
나도펀딩
##턴은
낭독
풍속
입증했다
공소
대서
관리와
지식재산
구치
##분까지
묶여
플라이
진작
등급을
엄중
사장을
##그라운드
##전달
소화기
주권
입주민
경영을
친구들은
若
출퇴근
카리스마
창의적
##리학
이슈팀
고마움을
팬들
화기
최전
병사들이
힘쓰
심은
##당해
상황으로
지시한
##인수
기초를
##면세점
##필름
##플라자
웨이보간스포츠
못하며
피는
소홀히
견고
무명
틴
해라
##ands
##미야
##션은
걸스
##상업
군포
1300
맺어
투자자들의
지우
원치
체력을
##투자가
통지
텃밭
134
Bank
입장은
만족도를
사치
사투
부녀
쓰다듬
겨레
설정한
치르는
마련된다
우연
삼성물산
거리의
##시키면서
수록되어
기아자동차
##센터장
있네
好
opp
于
욕심을
유지하면서
##춧가루
##살인
스쳐
식당에서
이사는
상무는
열매를
영국에서
버리지
##단지를
##일세
주파수
성장의
판사는
농도는
##바이러스
부탁해
인기만화
수출을
자갈
연구결과
고마운
누군가의
미시
국제적인
브렉
무너진
국방부는
##호남
기울여야
수줍
장시
놀고
북방
이후부터
順
사회적인
찾아라
열띤
청년들이
잎은
언론시
순례
무리를
##슬링
##산리
국영
탁월
부조
포드
동반한
하늘과
리더십을
speak
민첩
Ob
선정하고
미생물
권총
연구와
##크라이나
분위기에
장으로
색소
비누
석가
오줌
죽는다
크레아티닌
이미지와
투약
##스도
들리지
소요되는
초연
제시할
현대캐피탈
기름을
해치
##당으로
States
마드리드
##ama
그곳을
대리인
##짐이
들어보
슬픔을
꼼꼼하게
FR
Mc
당신도
등지에서
湖
슬쩍
환경오염
##관계는
전반을
##영양
Exp
도피
기사의
수로
개봉을
행동하는
빌보드
##화에서는
메커니즘
메일
따위는
import
축사
인접한
##커뮤니
변명
성공하는
##하였다는
kn
무제한
어미
따랐다
나왔습니다
금융위
캐릭터에
공급할
취업을
거래되고
##검진
접종
개발할
새겨져
전략이다
부탁했다
##경쟁력
##취약
구축하는
정이
##ona
명단에
목적의
半
##제재
향상과
부적절한
퇴진
상관이
하느님
유태
제대
청양
##소수
모노
흡사
개인과
김일성
진출했다
보편적
생기지
##줄기
SKT
등에게
금융감독원
아모레
CR
##았다고
펼쳐져
##rc
넘었다
만나기
한없이
모이는
사주
공방
거두었다
##인조
##사장
##통과
보정
확신을
##살의
조연
개미
비추
확인을
##웠지만
이곳의
ffffff
사신
遺
##문고
올려다
필요했다
짧아
잘할
이루며
여러분께
성추행
조직은
로보
##ux
including
타이완
차입
정책으로
출발을
운영하며
자긍
##진에게
##적에
단말기
##투자증권은
##sy
홍종
Chlor
나치
충실한
##화했다
마인드
영향력이
##르탄
차량은
우수성을
기울였다
인정받은
약혼
연소
포털사이트
구조의
##옥은
보편적인
미성년
의지와
자기도
보탬
나을
신민
공사는
San
서태
생겨난
만나러
##ius
을지
스톤
EV
저널
선택한다
태조
알아보고
容
간접적으로
Up
수습기자
##어버린
##손실
이제까지
過
숙종
죽음이
경작
자이언츠
연신
##되었다가
##익스피
웃으면서
거기에는
연준
무죄를
강화된
메르세
둘레
재검토
##상태가
확인해야
III
협력사
##eng
##iol
##생활의
장소가
제주의
방지를
애틋
지적한
사진출처
멧
스타들의
遠
##아아
지구를
##기업은
장단
##신경계
보통의
세월을
돌격
산업에
엔진을
##EE
##게이
정대
것이라며
에티
면도
아날
거치면서
##토토
붙잡고
뿐입니다
겪게
적용될
카자흐
세자
움직였다
천안시
안토니
##대신
##IK
호감을
유비
일리
around
이후로는
##내용을
##uthor
다르다는
오연
일생
페이지를
아들과
폐하
##분류
직권남용
진행되었다
##키와
측정하는
142
신성한
충고
하죠
대목이다
정인
손학규
바라볼
담겨있다
싸우고
이루기
보이콧
본관은
##ury
Windows
신문은
##스트가
케미
제철
##oprop
안전성을
조제
##울을
##장일
시즌에
숭배
합류한
아스널
펴고
진공
거기다
##등으로
거부하고
##증상
##수수료
가결
당혹
만들어지는
알뜰하게
藏
개구
급락
돌출
정치적으로
iframe
##시켜서
##ocr
고품질
자연스레
FN
탄력을
##Copyrights
##width
카운터
세인트루
##측이
설립을
무자
구속된
아토피
개선해
상원의
경쟁에서
？
의혹과
과도하게
카카오뱅크
##족은
당신과
자네는
骨
만져
PER
네트
신지
일주일에
found
판매량이
##스러울
##덕을
신나는
소리도
IA
서양의
단독주택
실황
올드
구로구
열중
시신
##너를
벌레
##담당관
분명했다
종양
##UCK
일지
衛
값은
베네수엘
대상자
웬만한
power
하나님께
Ste
문명의
##성향
##정권
이때부터
지수가
사항이
사무실을
역할도
금융권
##위도
서울역
사람이라고
손실이
상상을
##천동
연관이
많으며
증평
강은
달성을
##매는
주어지는
##수아
침범
자산관리
사무실에
털어놓
의사와
잘하고
자기자본
동반성장
내한
우크라이나
亦
術
##감각
##분비
용어를
드라마의
##만원씩
##단체장
떨었다
성적은
ABC
맞선
primary
##이트의
##경정
##히트
현저히
청탁금지
##산동
식중독
교사가
나타나기
통해서도
시스템으로
Mor
##더군
##홀딩스
춥
판단한
대치동
사업부
##제도가
운명의
마셔
지식의
물러서
지적을
##오며
데가
아니지
취득한
벤치마
업체들이
하계
##곳으로
렌즈
왕조
나이는
갑작스럽게
호흡곤란
적폐청산
##겹게
발굴하고
김양
언론은
위해서도
어워즈
##르자
묻은
어둠의
튼튼한
가져왔다
양국의
글루
##사적
Dim
양복
유대인
##여년
##보다가
서초동
태우고
공로를
급진
##프로젝트
##06
수레
차근
연예계
獨
##탈출
도시락
仙
배의
##공산
게이밍
해석을
##클라
질문에는
시니어
굴복
##천지
사람인
##방법은
깨달은
대체할
도착해
부통령
공격할
색깔을
가져가
격차가
기원하는
시작하기
##put
출격
##기자가
자산운용
정령
끓여
주기적으로
괴산
##행의
Prime
해결에
##레저
지리적
##럴림픽
단속을
뭔지
재회
기형
연관된
단체가
호국
지어진
클러스터
##전력
##사항이
클리블랜드
수산기
리뉴얼
##검색
산업이
광대
존엄
##TH
선수들에게
박신
되었지만
영조
동그
##경기장
왔으며
악취
해피투게더
##료만화
군청
##거지
아이스크림
##돼지
강화했다
##오로
찍을
##적이지만
##봉이
강타
개발도
콘셉트로
내뿜
말하면서
##군에게
흘렀다
떨리는
힘껏
신체의
결정했다고
그것의
전문가를
날리고
변비
##버렸
다녔다
명중
##간접
순창
레이스
very
log
##eremony
제니
##ety
레지
##뉴스통신사
특검팀은
시킨
내려갔다
스톰
##술이
室
##승의
##만들기
군대가
1600
국정운영
보았을
전년도
##IR
상단
국제사회의
우리나라가
홍익
거래량은
하이퍼
ㄴ
pe
##인이라는
대역
##선대
##itle
구조와
##돌았다
프로젝트의
남양주
그때까지
정차
미국에서는
여자들이
연방준비
##막한
하기에
키운
살지
트라이
생산하고
Pal
##들한테
##부여
없어진
고도의
찻
둘을
##활성화
양키
누리고
湯
무엇인가를
업체에
국가주
##혈당
노태
주장도
##중단
##OA
##번은
백년
사용해서
설정을
##앙일보
##해보자
구간을
심포지엄
제한하는
CL
몰린
##이노베이션
앵커멘트
농지
강다니
반가운
바라본
선수와
시대에는
위배
醫
녹는
본토
문수
섭외
UC
뺑
몸무게
언니는
##istory
##세트를
항목에
인스타그램을
존재는
##크림
##아나
##크루
유격수
몸에서
장은
부진한
일방적인
실적은
養
##entral
공유할
거란
편곡
전화로
초판
극우
찬반
참석할
서는
화살을
##봅니다
나오자
##nam
여성들은
##받으며
애틀
천장
경험은
상이
재료로
시행할
하부
회생
number
너머로
전문가로
주제가
##하키
위상
크리스티
##삼아
런칭
청송
십자
편도
슬리
체인지
자위
보고서에
머물렀다
판매한
신랑
##지수가
임시완
##하리라
정교한
국회를
##공사와
봄을
함락
제휴를
봉황
미숙
강서구
약정
송혜
놓을
est
경제뉴스통신사
##했기에
contin
소니
하루는
다운받기
뇌의
입성
생각해서
크리스마
##미네
무기력
##합창
말미암
인정되는
금토드라마
급격하게
분석하는
##가능한
##층에는
조혜
카네
먹여
팬텀
데이터가
생산되는
##지었다
##까봐
통장
보수적인
스펙트럼
음모
줄리
##버스를
##에의
상대방에게
사회와
마련하기
SOC
향하여
고온
모자라
교훈을
##아르
과정으로
원칙으로
시작해서
建
##였어
구인
한승
상암
청룡
깃털
##업계는
##막의
일축
##ude
죄가
불투명
한국지
중부매일
막걸
수년
브리핑에서
소년은
##학대
여지
윤지
무슬림
콘스탄
작가와
시원하게
논리를
칠레
蘇
지적하고
##언스
##교육원
곱게
해양수산부
제도다
학기
마리를
씁쓸
##용과
아리스토
지낼
##되어서
방제
필요성
우리들
결론이
결정하고
능가
정몽
##ste
시어머니
every
친구에게
이벤트에
알아보기
먹이
열혈
튕
제시한다
네놈
송지
##장치를
선에서
점수가
달성하기
##순은
댓글을
은은
##그로
꼭대
겉으로
관전
타당성
커튼
쓰일
비율로
강조하며
저렴하게
달라지는
만루
기세를
낙엽
성서
##대표팀
아무렇
thio
친구들을
형평
바다에서
공의
기념식
compet
유저들이
관계자가
키움
오시
민간인
음식은
유보
##그네슘
한마디로
##amin
낮추는
대표적이다
138
##개년
보여주기
최고급
동생이
국립중앙
벌일
右
입상
함유된
부위를
있지는
말에서
수첩
내년에는
생김
저와
##궁의
##체육회
머신
##다녔
##cle
간장애
뭐라
대응해
주민들을
emb
모호
게임에서
사망자
외치며
서비스도
책임지는
##못해
박유
##아이가
케네
GP
안팎의
수익률이
official
장벽
former
Get
원한다면
##민정
##곡동
남녀노
멜로
방문할
탄핵을
##mit
부디
심리를
사전예약
SR
상승할
##공간으로
기능도
충동
우루
##lt
올라간다
##셨던
전전
밝혀지지
소양
쌀을
권태
정태
작성해
해소하기
##대학의
분들께
주한미군
##여자프로골프
準
차용
##리스의
신개념
지정해
모텔
출시했다고
##가지고
##링이
소화해
##업체에
노력에
유지되고
마취
넘버
말문을
동쪽에
한국인의
데미지
##술은
##처로
##습관
##800
자리한
##자이자
진보언론
##어린
##cd
사우디아라비아
둘러보고
출고
CES
무지개
여건이
심정
##해지면
되는지
바람의
문화일보
##학교로
재계
넘어서는
##잖은
富
##들였다
강신
갈아입
##악산
BL
보성
전략으로
##미국
멀티미디어
reserved
지금처럼
##맨의
##etr
아내에게
부분적으로
MTN
놀랍게도
##학교에
정서적
##캠퍼
##처에서
개최할
효성
판결이
받아들였다
프로젝트는
국유
통째로
吳
허가사항
##unic
Act
응원을
무시할
##코르
션
맛있게
농도를
어쩌다
자랑했다
기사입니다
때처럼
꾸민
개개인의
이분
추천한다
프로그램과
잉여
ANW
놀이를
##하천
감각적인
수녀
개최됐다
경제는
비둘
애착
절대적으로
기상청
women
하단
##tries
##alt
논의하고
題
고경
획득할
사사
이론과
영상편집
랭크
##ading
둬
##복무
##ls
##저축은행
원산
##민에게
경악
않았어요
BD
자리하고
남들이
謂
##의식을
fact
AND
산과
주교
증세
경질
게르
禮
war
경력이
물어보
##unt
정부서울청사에서
號
million
임금의
아인슈타
만인
뉴스룸
JB
感
관건
어두워
징계를
##휴가
지정되었다
Step
다하는
김생
정글의
한탄
대기오염
정상회담을
이범
생육
##식사
피해야
사용하며
오리엔
사고는
Copy
진료를
강승
거부하는
##란스
작정
##리그에서
##osition
Rec
나누며
바뀐다
민중의소리
미적
그대의
따르고
복숭아
왔다는
지속되는
가파른
개선될
떠올렸다
오가며
박철
##부인과
여주인
상승에
잠재력을
##alle
희생자
som
##ison
여자와
넷플
##해는
##ape
Sk
전입
열거
성금
##중심의
시작될
높인다
다졌다
터무니
흥국
올랐고
근처에서
##ournal
김철
했다면
다스리는
인스턴
friend
##회사는
긴장이
불빛
List
##urch
고동
홍길
공직자
티잼인기
스탈
##최신만화
신뢰할
任
맞대결
##최근
박사가
티잼인기최신만화
지나면서
어떡
##시킴으로써
내면의
넬
##켓을
재미가
주변에는
선우
##iron
놀라움을
##리드
##민주화
취했다
##급이
유수
내려앉
##현상
레닌
##해주신
Ir
팝업
편의성을
일본에서는
돌아다니
##인이다
1939
운명이
##rile
저당
##단체의
자치구
코르티코
리더가
친절한
向
##대며
불복
필라델
숨기고
파주시
온실가스
2∼
국소
소를
획기적인
떠난다
샤를
덩어
##nes
이들과
물었고
팡
서운
##리는데
무분별
根
UHD
##되나
으뜸
##됐기
지난날
외치는
분량
news
##돈이
와인을
신안
아줌마
then
동일하다
예산은
조류인
하얗
조속한
철학적
##ETH
감염병
찾게
출석하고
##과목
##거리로
양성을
##수준을
헤지
##불리
자발적인
나루
대금
캠퍼
행동의
TK
스파이더
틀림없다
Franc
##군데
액티브
섬을
기숙사
회동
두산은
Pyr
##속도가
##개교
교내
너에게
환자들은
##이오
마케
##점수
은혜를
##cript
부안
정체가
흥겨울
고려하지
마오
핸드폰
봇
공동의
##효진
자극하는
손님을
구축할
집안에
자동차의
衣
##득점을
포기할
분출
사회로
한번은
여부와
##랭크
服
質
문구
읽어주는
불균
Awards
##IF
##강과
##람을
내딛
MLB
마이웨이
1936
원통
습관이
전문기업
대통령도
정부세종
팀으로
##남은
확산되고
접근이
창조적
취재진의
서너
중점적으로
떠들
보려고
##공유
##우드
##범을
판단된다
게이머
##장구
##료로
멍하니
##술의
높이가
##비용이
##대학교는
아쉬워
몰아넣
품종
전설의
럭셔리
교토
안개가
##결승
전북도
청담동
office
168
맞이하는
„
아리랑
커리어
##혜는
뜻과
전할
소관
백일
장경
말이지
맥스
숙성
소속의
제작에
지시에
조개
요괴
기자간담회를
돈의
이전부터
사이에서는
맡을
스타디움에서
##논문
것인지를
정했다
주민과
훑
당근
걸러
##남녀
해본
소크라
더보기
손상을
##이죠
##채는
##끄러운
##방향으로
구성이
指
답답한
담당자
퇴출
주중
맨시티
상고
##담은
하든
노래는
뛰어나다
공은
추이를
인근의
시킬
끝없는
불안감을
팍
146
형은
##찮은
건넸다
제지
해부
말려
내놓을
상수도
뜨겁다
##회사에
분들은
board
##푸스
##충전
##지시
의미이다
앞에서는
자율주행차
흐뭇
지점을
시작과
독립된
활기를
##세미
##측에
브이
백성들이
##국수
오두
핫포토데일리
의의와
아날로그
준비해야
석회
##분야의
##매니
기회에
사물의
마누
계기
奉
##애의
es
보던
울렸다
일어나서
두어야
치면
정예
향이
##배나
##단체가
유일의
‰
모차
##턴의
살며
하자는
스케치
물량을
바나나
##남의
상부
신주
條
귀순
느낌의
사내가
싸늘
##la
금천
세컨
어촌
##기원
정론
한국사
Week
우리들은
매물
출연진
사령관
무시무시한
늘면서
미세한
##활한
셰프
소아에
실크
하우
신비한
바꿨다
사항에
##효가
##지니아
맞는다
##초로
반대의
변하고
size
##지기를
##가장
##경으로
규정한
갖기
골수
##어가는
##일에도
돌발
Point
##언어
참여하여
펫
의견에
전경련
현실이다
##온라인
어리더
성지
음주운전
깨우
##응고
그림의
##발은
인천광역시
폭력을
문제들을
프로젝트에
트랜스
##민원
할부
##공단은
질이
피라미
경우엔
걸리지
절친이
tennis
##평판
고통이
대답은
##anish
방황
##병증
마당에
인접해
시대는
채운
지속되고
Let
##들이고
날리는
감탄을
대상이다
##료의
도리
연구하고
##정책이
2025
192
감당할
##거가
##대인
삼은
못했다고
##정민
##oper
신입사원
전선
접수된
지방에서
##본은
USB
경련
put
##틸리케
오타
유지를
뛴
##극장에서
##곡은
추가했다
동해안
손에서
번은
충당
prof
쇼미더
Fre
역사적으로
바란
아버지에게
다케
니트로
민영
##개혁을
냥
로빈
딛고
근육이
여드름
복용하는
유리하다
온도를
확인한다
포획
##ours
모처럼
##왕에
학창
때문인
광주광역시
색상을
지드래곤
의상을
증가시킬
확인이
나무위키
결합된
식물의
포함되지
수돗
보기에는
할머니의
계속된다
주인의
맡는
##발전소
개칭
재선
그러기
##동네
마련돼
벌인다
##바를
##행은
##프레스
뿐더러
뜬다
분사
최종예선
##하십니까
넘을
파악하기
적용을
##시켰고
따스
대륙간탄도미사일
오르내
개선하는
그림으로
AUC
##었다가
tablewidth
유라
Econom
위장관
삼성그룹
Dep
맨유
반찬
보탬이
가며
하나같이
since
특허를
관절염
direct
길드
배우의
여고
##치자
시뮬레이션
배낭
##콜라
노출된
##의사
디저트
동종
루비
사극
친밀
하였습니다
끼어들
청소년의
##개발사업
가락
가할
한국으로
흔하게
##장기
##ebo
무신
무도
서천
##세인
must
##가구가
왼쪽으로
창출에
빈도
##탄올
because
果
신혜
구내
필자가
밤낮
쳐서
치러진
prom
간격을
해외로
##전공
주호영
사당
세르비아
육아휴
##브가
불신
次
##해운
나뭇잎
해소하고
##직은
머뭇
대답이
##토스
왔다고
늘어나면서
AFC
부총리는
FBI
촘
아침부터
완수
서로가
둘러싸여
계속된
##독성
##지배
##시키려는
이겼다
제너
환수
방사능
수준은
EXID
##표로
촬영이
박살
살았
기병
맞췄다
않느냐
춘향
두세
##김치
인생에서
내면서
High
##테러
투자자들은
국립공원
143
##ried
재판이
소득세
보수를
이벤트로
Test
한민
종합적인
서적
##서원
지방을
착륙
정운
141
가족들은
##유공자
푸짐
##ired
매듭
현실적
마사지
과자
##ring
넣는다
선수들과
##Wh
맥도날
##ala
제작을
차질이
##입니
쭈
다가와
신관
왔고
##형제
도구로
컨설턴
산의
허영
##소득세
올라간
##ille
서늘한
김건
반란을
vol
신기한
考
런닝맨
메이커
챙기
관점을
딸은
우리나라에
##열차
원스톱
웹드라마
##유적
미네소
패턴이
제작발표회가
없었다면
탤
최상위
##투자는
삼진
지진으로
홈플러스
가족들과
##졌어요
나라로
애리조
##ource
서동
이것저
곡이
나타났습니다
맞출
바울
무림
陳
방향과
뛰쳐
##원장은
##지라도
HTML
시나리오를
공주시
지원은
마쓰
참석자들이
##문제에
쿄
##만개
달랐
신한카드
朱
##택이
공격은
##산업에
단점을
내던
##하시기
빡
화천
알아듣
##웅은
##모닝
Class
##측정
좁혀
모델의
이때는
탑재한
억울한
아들로
투자는
들었을
비서실장
이뤄져야
제주항공
발맞
##는지에
소재의
##장군
않는가
봄에
테일러
det
##율로
##티콘
##cil
단체는
##하이닉스
법안을
과감히
성공적
藥
스페이스
맞추기
나타납니다
결심을
개는
전폭
성향이
생각해야
때다
줄리아
##학적으로
공급하고
가처분
4441
CT
##uf
##iam
arriv
알아보는
모닝
근래
##솔루션
이승만
다이노
나스
청소년들의
동상
기술이다
슈틸리케
summ
##서스
이십
구운
일제의
매거진
활성화와
메르세데스
##직으로
##ESS
##인용
##활동의
노릇을
뚜렷하게
##브의
수락
직거래
자로
최병
거리로
시립
##요구
Donald
##클래스
##항쟁
##게이션
엠넷
소중히
경제협력
되돌려
운영한다고
미션을
지닌다
전통적으로
관심도
않았나
형성되어
세척
아파트는
그지
책임은
포크
##프라이즈
물러났다
대회의
인터넷에
동백
성과는
살다
중심지
하라는
##탕을
Since
스님은
##FL
##ats
변신을
공개돼
##국악
비아
##인가를
보일러
Geor
곁에서
피살
기록했다고
##문제가
##출력
있고요
프로그램인
서쪽에
기관에
post
##erest
┃
번개
##align
주장하며
심야
특징으로
가까스로
깔끔하게
구본
포로
경이
##ulture
서울은
易
##메이트
동종목에
going
분을
##위까지
어조로
보도자료를
##형인
보시
호투
인벤
끌어내
English
기대해
빵을
##성이라는
##항으로
##제일제
숙여
incre
책임감을
서대문구
보였지만
##관찰
전병
law
재능이
통학
연고
##ought
following
판촉
나영
비공식
유현
##업체를
중요합니다
탈피
딸과
##교동
관찰을
방광
늘어난다
소원을
148
성범죄
단체의
경보
법적으로
##주에게
브러
니가
##팀으로
##출연
소설은
예방접
여과
뤼
토목
Of
##서에서
주면서
붙이는
도입했다
닐슨코리아
##재배
중원
외부에서
기사문의
소염진통
回
취지
##엘의
##맛있는
종사하는
의례
신문구독
총회
태종
수화
설명은
결심했다
##근로자
시도하는
##쿠르
세기
적자를
비서관
達
##ma
평평
정보에
life
요소는
판매할
##acy
지나갔다
셔츠
들어서고
검토를
PLUS
합동으로
신봉
아슬
사단법인
사의
상여
##진로
다름없
뜨는
틈새
상품권
지게
##맥이
치열하게
사슬
예기
##법이다
위반한
서유기
##ava
전투가
智
사교
특산
DD
부모님이
김성진
커진다
##스마트
##실적을
##방사
EBN
願
어버
##메시
##ience
부적합
짜릿한
져
두부
##가들은
##연구회
##수업
껍질을
##탈을
Hel
감각이
건가요
데려다
255
언론이
유모
제작사
논평을
ISO
##ittle
##임과
신고가
접견
기대와
아모레퍼시픽
##사항에
마을은
배경에
종교의
치르고
##서버
영역의
정보기술
竹
##주소
추가해
##들게
로사
떨쳐
박스오피스
천만
명실상부
build
눈빛을
박한
스커
##제도는
##테리아
골프장
因
고병원
그때의
jebo
수수료를
wiki
202
견본주택
충청투데이
수하
대처할
##idd
시장으로
헬로
1937
볼때
##이스트
##길에서
약세
마련해야
UAE
산은
환경영향
함유하고
주워
설명회를
공휴
##손이
중이
지원금
민주주의를
했더니
##긋한
쇼미더머니
수년간
##각은
##화하기
##나라에
##기업과
흥미진
밧
명상
지저
거침없이
##포털
침공
구석구
fare
케빈
만들어져
##해인
식재료
질환을
##투자의견
design
태도에
147
목포신
乃
##매물
봉투
욕심이
지르며
법적인
존재한다는
##aff
##raw
##티지
##품에
만화만의
##TION
호흡기
초과하는
##되길
대중에게
리포
발표에
151
##일지도
질병관리
##가구를
##럽다
해결하고
敬
##유사
맥락에서
시도한
향을
동포
##린다고
김과장
##지원사업
가량의
부합하는
아님을
요가
뚜껑을
nine
##르드
사랑으로
저었다
특강을
실재
꾼
##지도자
피서
머무는
##권익
모두발언을
겨레신문
받던
##시설은
슐
팽팽한
요령
아빠의
ap
이토록
모멘
월스트리트
신예
##행위가
잡아먹
intern
##영어
##취재단
이들도
원금
##변화에
불분
반영하고
좌우로
##이후
##코와
##파괴
공격으로
여겨진다
내서
protest
수상자
손흥민은
호소하는
매니지
##맥주
중단을
도와줄
학문을
does
김영삼
α
나가면
사리
그립
##불명
후인
부유한
생존을
소나
획기적으로
hy
남학생
사유가
kil
With
드라마다
현실로
일쑤
오스트레일
##ift
인플루엔자
##칼슘
뜻에
Out
기록에
접근을
누락
##성인
##그를
에이전
##냈습니다
##국회
뉴시스를
아들에게
男
수량
사람들에
열정이
가능하다고
관계에서
하프
브랜드는
말야
조건은
始
고품
함평
경로당
동학
빨아
총리의
##민속
##타나
420
##lis
고액
한국당은
하느냐
##스케이팅
##ample
모티브로
줄고
목표에
When
##알라
완성도를
조업
기르는
조각을
Global
바로가기네이버
터보
분들의
卷
##특위
사연
139
##다섯
여사
宣
처참
##병원에
공부하고
Work
바비
기업체
##하냐
##렸으나
바빠
강변
멋지게
밤에는
콜린
사기를
말씀하신
순간적으로
일한
받침
강간
허나
보관한다
취급하는
##타에
##수화물
가계대출
##ildren
##로부터의
쿡
152
데다가
153
설치했다
##토벤
소득을
인식하는
種
구릉
근심
대학은
##전에는
공무원이
##대요
안종범
팥
활력
##란에
달인
췌장
노동자의
##리온
불쑥
##시즘
##메르
##rive
##남자
장소는
##이닝을
접근성이
exper
차지할
고객들을
삼성생명
격려했다
함유되어
선명
쌓고
1929
웨어
경쟁률을
머리와
건강관리
승무원
뇌물수수
자서
겨울에
네팔
평온
개표
##범으로
타이거즈
bro
폭넓게
드리는
##혜의
분석됐다
모임을
##자리가
쯤
##그리고
##나이트
포맷
수출은
##ney
소년이
관객들에게
불가피한
흐트러
##가구로
##eep
하원
##영수
출구
기여를
##건과
##차근
시간으로
##재활
뚫어
엔젤
##ganization
기회는
刻
치료는
話
受
annual
폭주
신분을
Men
老
양일간
##조례
##hel
##비어
매료
보인다고
마법의
##주어야
은평
sk
끊고
현충
##상황에
Cons
막론
나자
레시피양낙규의
우리나라에서는
사생활
브라이언
##iday
자리에는
연주를
국제공항
제주특별자치도
증식
사무실로
나니
신경이
##봉사단
운영되는
선발투수
행정자치부
꾸짖
印
부문은
금품을
가사를
##쳤다는
야당의
##천에
256
협정
call
좋겠습니다
##우진
미라
연필
활약이
운을
##문재인
단추
축제가
문장이
일차
뿌듯
##쪽은
LUCK
허경
생물학적
##플라이
됐을
보증금
시장점유
별명을
논평
다르고
보수의
##석유
살피고
Mag
불허
변한다
외신
빼놓을
건넨
여겼다
자책
麗
도시바
영유아
勝
워킹
1938
대권
夏
무당
##이라고는
세대를
화성시
됐던
##션의
눈도
주재로
만들어냈다
생각해요
성도
조희
이기고
시작해야
##지원과
脈
presidential
차례의
색깔이
##용역
##페어
な
안경을
국책
##라이드
알려지면서
폭포
향수
정도만
##지오텐
조치로
추자
항생제
##프릴
최씨는
울리는
미래전략
私
##arbox
당기순이익은
발전하는
그대가
##ider
비밀의
살아남은
저감
최문
031
ESS
마르크스
막힌
매스
사용자는
##aly
가졌다고
남자친구
##lection
##인데다
##숙하게
반대를
polit
블레이
제천시
기다려야
##사업본부
지난해까지
느껴질
##vis
가리는
흐른
장르를
적임
##교육은
가솔린
경상도
##려던
외국의
라파
오다
HU
전에도
##강에서
이동하고
##대박
안타까움을
요컨대
부인했다
value
외부에
에반
남아있다
배워야
##훈을
귀속
포화
곤란한
중고차
글쓰기
거머쥐
것만은
날이다
문무
##타워에서
레코
멤버십
항소심
##이
##다
##.
##는
##에
##의
##을
##하
##지
##고
##가
##로
##,
##한
##기
##서
##은
##e
##사
##를
##자
##도
##대
##1
##시
##a
##o
##리
##인
##t
##해
##수
##어
##있
##으
##0
##아
##i
##정
##스
##n
##나
##그
##전
##2
##)
##일
##(
##r
##라
##들
##보
##부
##제
##장
##과
##s
##상
##원
##주
##게
##만
##l
##했
##성
##적
##것
##구
##면
##니
##국
##3
##소
##여
##경
##동
##위
##공
##신
##문
##화
##조
##h
##d
##'
##진
##마
##비
##우
##관
##c
##개
##무
##중
##선
##와
##회
##모
##m
##내
##오
##재
##었
##5
##유
##되
##u
##등
##미
##연
##4
##용
##세
##할
##계
##트
##"
##드
##생
##분
##며
##요
##년
##안
##업
##영
##치
##단
##거
##간
##통
##9
##7
##데
##방
##러
##명
##산
##터
##행
##-
##된
##실
##6
##당
##발
##학
##운
##야
##교
##8
##금
##차
##말
##f
##g
##바
##=
##포
##물
##체
##p
##결
##후
##식
##려
##S
##역
##민
##반
##작
##없
##]
##현
##타
##때
##음
##[
##않
##각
##히
##까
##르
##강
##입
##’
##표
##양
##‘
##최
##출
##배
##합
##습
##C
##월
##A
##“
##력
##”
##프
##b
##호
##감
##두
##설
##예
##매
##건
##속
##y
##심
##더
##형
##난
##점
##남
##임
##직
##청
##파
##T
##저
##래
##울
##던
##종
##법
##함
##불
##본
##·
##노
##람
##약
##김
##달
##크
##처
##레
##권
##v
##번
##았
##추
##준
##증
##B
##받
##I
##및
##피
##투
##천
##였
##뉴
##열
##군
##른
##박
##D
##록
##능
##:
##같
##집
##환
##석
##태
##목
##활
##품
##린
##버
##특
##근
##w
##질
##외
##또
##디
##M
##날
##따
##판
##P
##복
##편
##토
##카
##격
##확
##초
##올
##평
##알
##?
##N
##승
##료
##급
##E
##변
##많
##향
##북
##술
##/
##코
##루
##든
##참
##런
##살
##독
##O
##육
##언
##광
##키
##절
##겠
##령
##%
##담
##련
##총
##항
##병
##책
##온
##황
##론
##F
##L
##새
##못
##별
##험
##창
##K
##순
##G
##란
##송
##!
##께
##필
##너
##티
##네
##억
##축
##규
##k
##브
##검
##메
##협
##앞
##R
##돌
##페
##길
##됐
##름
##손
##테
##채
##워
##량
##망
##족
##느
##애
##럼
##립
##좋
##친
##극
##밝
##백
##머
##랑
##씨
##늘
##류
##V
##될
##H
##충
##접
##*
##존
##취
##림
##걸
##희
##삼
##누
##즈
##졌
##악
##맞
##택
##철
##응
##농
##높
##녀
##막
##져
##움
##글
##눈
##렇
##견
##벌
##색
##클
##플
##획
##잘
##찰
##범
##츠
##곳
##탄
##줄
##~
##패
##효
##혔
##&
##션
##쪽
##베
##뒤
##커
##갈
##완
##침
##>
##볼
##얼
##잡
##겨
##렸
##왕
##익
##;
##객
##찾
##U
##율
##허
##왔
##z
##W
##케
##홍
##골
##…
##쳐
##혼
##님
##팀
##센
##락
##쟁
##측
##엔
##봉
##득
##큰
##긴
##밀
##액
##힘
##놓
##랜
##폭
##블
##J
##쓰
##째
##례
##귀
##윤
##죽
##릭
##먹
##x
##곡
##답
##엄
##|
##빠
##퍼
##먼
##혁
##넘
##훈
##혜
##듯
##논
##착
##갖
##찬
##염
##끝
##탈
##층
##돼
##굴
##뿐
##풍
##럽
##암
##첫
##났
##흥
##균
##싶
##램
##혈
##융
##덕
##잠
##률
##념
##욱
##떠
##널
##롯
##냐
##떤
##징
##몸
##숙
##틀
##써
##끼
##몰
##슬
##핵
##폐
###
##혀
##웃
##앙
##밖
##헌
##갔
##압
##좌
##붙
##캐
##릴
##닌
##므
##꾸
##큼
##렌
##혹
##풀
##뜻
##켜
##냈
##떨
##낸
##휴
##벽
##콘
##빈
##놀
##돈
##▲
##둘
##략
##끌
##Y
##템
##깨
##욕
##십
##웨
##궁
##얻
##헤
##즉
##벤
##팅
##슈
##떻
##탁
##홈
##룹
##즌
##갑
##옥
##싸
##슨
##즐
##몇
##죄
##엇
##팔
##<
##링
##빛
##숨
##낮
##쿠
##왜
##△
##쉽
##퇴
##컴
##X
##휘
##쇼
##텔
##컨
##곤
##꽃
##척
##춘
##ㆍ
##밤
##칠
##칭
##쳤
##괴
##맥
##@
##털
##킨
##짜
##턴
##엘
##쉬
##잔
##펼
##섬
##맡
##넷
##펴
##_
##맨
##칼
##킬
##+
##뛰
##섭
##맹
##짓
##흐
##칙
##롭
##좀
##팬
##싱
##뜨
##텐
##삶
##랐
##델
##솔
##홀
##촉
##흔
##핑
##넣
##푸
##꿈
##j
##죠
##맛
##씩
##폰
##닥
##탕
##깊
##뮤
##낙
##빌
##웠
##컬
##픽
##믿
##겼
##촌
##납
##읽
##럴
##녹
##묘
##흡
##듣
##빨
##벨
##힌
##땅
##봐
##곧
##찍
##콜
##냥
##렵
##앉
##」
##둔
##「
##웅
##뇌
##혐
##짐
##흘
##q
##졸
##뷰
##셔
##딩
##캠
##짝
##딸
##둥
##』
##촬
##몬
##겁
##탑
##얘
##『
##벗
##셨
##섰
##폴
##값
##셀
##옵
##`
##꺼
##켰
##찌
##뤄
##멀
##닝
##샤
##춤
##끄
##낼
##앨
##빼
##뢰
##픈
##쓸
##젊
##【
##】
##탐
##옷
##렀
##Q
##펀
##넓
##킹
##묻
##꼭
##릿
##첨
##랫
##춰
##렉
##슴
##튼
##잃
##덧
##봤
##젝
##멤
##즘
##밥
##럭
##맺
##뭐
##옆
##옮
##틴
##앤
##핀
##냉
##컵
##몽
##걱
##슷
##톤
##렬
##켓
##왼
##읍
##닷
##쇄
##빙
##닐
##씀
##낌
##랙
##∼
##훌
##묵
##됩
##빅
##겸
##멸
##섯
##롤
##엑
##끊
##흑
##봄
##겪
##쾌
##퓨
##젠
##씬
##힐
##엽
##쓴
##렴
##짧
##꼬
##》
##《
##멘
##웹
##칸
##펜
##밑
##콩
##놈
##끈
##뷔
##Z
##쌓
##늦
##폼
##텍
##똑
##쯤
##옛
##룡
##}
##훨
##잇
##끔
##벼
##덜
##잉
##꾼
##뿌
##셜
##깔
##톡
##튜
##듀
##㎡
##낭
##헬
##줬
##●
##껴
##롱
##듬
##긍
##꼽
##릉
##캡
##닉
##뒷
##콤
##쁜
##삭
##윈
##셈
##뱅
##륙
##쌍
##띠
##쥐
##잊
##녁
##쇠
##숲
##큐
##뽑
##셋
##챔
##{
##쁘
##갤
##–
##랍
##톨
##딱
##곽
##틱
##봇
##→
##틸
##덩
##줘
##굳
##잖
##옹
##닫
##덤
##◇
##쏟
##멋
##잎
##걷
##멍
##之
##뇨
##①
##大
##딜
##뀌
##팩
##빵
##듭
##톱
##넥
##붕
##괄
##랄
##■
##겐
##닭
##싫
##숭
##쌀
##•
##②
##딘
##밍
##멈
##찮
##앱
##랭
##맑
##돕
##뼈
##덴
##룬
##밭
##싼
##쫓
##흉
##컷
##젤
##◆
##룩
##떼
##앗
##됨
##멜
##릇
##앵
##엠
##썼
##붉
##떡
##뚜
##뭔
##人
##엉
##믹
##文
##팽
##밴
##챙
##\
##첩
##얀
##곱
##븐
##횡
##냄
##껏
##띄
##낳
##괜
##눔
##룸
##탠
##깃
##덮
##깜
##륭
##꿀
##퀴
##굉
##子
##쩌
##숫
##틈
##〉
##흰
##돋
##山
##핫
##렁
##，
##탓
##녕
##댄
##눌
##〈
##꼼
##샘
##셉
##섞
##좁
##③
##끗
##닛
##랬
##뚫
##쿨
##※
##낄
##빚
##中
##빗
##튀
##밸
##벅
##셰
##섹
##꽤
##쏘
##둑
##쩍
##國
##겹
##랩
##○
##탱
##一
##룰
##뭇
##륨
##쿄
##옳
##젖
##묶
##깝
##웰
##윌
##픔
##밟
##곁
##헨
##닿
##깐
##쁨
##낀
##핸
##캔
##㈜
##턱
##흙
##㎞
##뻐
##뚝
##궤
##＞
##롬
##－
##×
##넌
##햇
##꼈
##꼴
##훼
##日
##릎
##퀘
##긋
##三
##꿔
##☞
##솟
##팝
##王
##▷
##삽
##굽
##곰
##늬
##촛
##펠
##샌
##눠
##學
##끓
##륜
##닙
##둠
##뒀
##땀
##の
##뻔
##★
##天
##렛
##▶
##쩔
##윗
##렷
##。
##딕
##④
##갱
##道
##굿
##툴
##뭉
##췄
##쏠
##쿼
##맵
##닮
##$
##샷
##펙
##者
##줌
##갓
##켈
##生
##꺾
##不
##낚
##놨
##낯
##퉁
##い
##톰
##뚱
##맘
##볍
##℃
##앓
##東
##팡
##上
##킴
##書
##쨌
##흩
##엿
##金
##썩
##슐
##有
##뭘
##켄
##잭
##겉
##멕
##無
##궐
##事
##낫
##댓
##뱀
##붓
##휩
##뻗
##닦
##삐
##흠
##봅
##뉘
##핏
##녔
##햄
##싹
##씻
##릅
##줍
##렘
##딪
##法
##짚
##뜬
##텀
##뜰
##홉
##갚
##컸
##而
##뱃
##껍
##웬
##州
##以
##첼
##잼
##넉
##캘
##툰
##돔
##뜩
##풋
##：
##し
##윙
##公
##쭉
##푼
##│
##칫
##훔
##神
##年
##뽐
##숍
##솜
##깥
##늙
##몫
##헛
##地
##理
##뿔
##｜
##뀐
##슛
##맙
##몹
##덱
##水
##렐
##딴
##ì
##♥
##콧
##넬
##る
##也
##た
##安
##行
##찔
##칩
##펄
##經
##的
##쥬
##下
##心
##明
##南
##‧
##킷
##짙
##新
##쑥
##썰
##本
##に
##^
##㎝
##슘
##얽
##펌
##□
##小
##正
##횟
##랴
##뭄
##핍
##氣
##平
##깎
##꽂
##꾀
##二
##Δ
##땐
##其
##캄
##─
##댐
##헐
##붐
##․
##밌
##長
##늄
##家
##옴
##、
##性
##時
##と
##킥
##휠
##故
##쉐
##⑤
##띤
##é
##城
##펫
##義
##高
##굵
##댔
##韓
##北
##벳
##갯
##陽
##李
##젓
##뿜
##成
##샵
##美
##팎
##爲
##갇
##口
##石
##不
##月
##뜯
##自
##主
##똥
##짱
##엎
##十
##う
##찢
##料
##五
##前
##둬
##◎
##海
##툼
##～
##會
##民
##늑
##쉴
##엣
##を
##宗
##헝
##西
##잦
##史
##쪼
##잣
##꽉
##世
##볶
##넨
##즙
##겔
##軍
##所
##얹
##德
##元
##か
##金
##知
##白
##朝
##펑
##門
##씌
##럿
##낱
##얄
##뤘
##李
##핌
##太
##は
##な
##힙
##相
##が
##낡
##官
##푹
##四
##方
##씽
##化
##敎
##漢
##짖
##言
##팜
##벚
##ん
##部
##寺
##쑤
##걀
##뱉
##â
##껑
##꿇
##代
##엮
##콕
##벙
##ë
##°
##벡
##里
##後
##淸
##댁
##꽁
##す
##て
##同
##流
##出
##記
##で
##듈
##使
##詩
##物
##뜸
##뤼
##빔
##놔
##뽀
##政
##古
##얇
##탔
##훗
##於
##川
##風
##―
##社
##君
##꿰
##돗
##圖
##씹
##江
##삿
##윽
##內
##탭
##外
##㎜
##傳
##í
##왈
##名
##是
##通
##€
##챌
##＝
##굶
##탬
##漆
##字
##府
##퀄
##光
##Ⅱ
##팍
##냅
##花
##仁
##士
##分
##作
##퀸
##찜
##뮬
##깍
##面
##빡
##用
##合
##눴
##깡
##氏
##馬
##딛
##밋
##如
##在
##룻
##定
##츄
##쉼
##集
##폈
##京
##都
##可
##샀
##語
##볕
##體
##朴
##◀
##옐
##夫
##댈
##田
##則
##院
##動
##싣
##說
##짤
##텅
##샐
##뺏
##엌
##팁
##뺨
##썸
##木
##武
##聖
##和
##全
##黃
##㎏
##뾰
##形
##く
##™
##土
##썬
##‥
##쉰
##빽
##ン
##佛
##㉯
##㉮
##콰
##뀔
##情
##善
##쿵
##業
##司
##㉰
##團
##ㅇ
##웍
##㉱
##©
##萬
##師
##쌈
##先
##껄
##原
##둡
##見
##得
##팟
##늠
##꿨
##要
##甲
##덟
##똘
##왠
##쩡
##쎄
##雲
##륵
##맷
##論
##ま
##實
##챈
##堂
##％
##帝
##뺀
##섣
##툭
##曰
##春
##뎌
##入
##긁
##멧
##≫
##＋
##₩
##こ
##왓
##間
##意
##첸
##洞
##第
##쥔
##關
##對
##將
##훤
##솥
##身
##췌
##∙
##龍
##ⓒ
##靑
##き
##귤
##ㅣ
##制
##多
##治
##캉
##≪
##重
##周
##命
##っ
##我
##九
##百
##臺
##튬
##信
##開
##鄭
##火
##앰
##춧
##끽
##與
##れ
##촘
##딧
##然
##非
##縣
##陰
##☆
##ら
##反
##市
##能
##興
##歌
##發
##臣
##力
##짠
##り
##立
##겟
##궈
##쭈
##¡
##頭
##禮
##ㅋ
##進
##귓
##觀
##華
##떴
##祖
##未
##林
##今
##識
##늪
##權
##八
##河
##張
##쯔
##썹
##츰
##福
##章
##此
##깅
##女
##팰
##解
##탤
##音
##ê
##思
##젯
##ｍ
##眞
##ー
##惡
##兵
##à
##헥
##팥
##뽕
##컫
##節
##至
##딥
##샹
##뺑
##샴
##왱
##色
##手
##撚
##띈
##宮
##驪
##괘
##ㄱ
##器
##諒
##Ⅰ
##뉜
##さ
##텝
##諸
##問
##島
##崔
##넛
##も
##쏩
##㎢
##콥
##눕
##壽
##텃
##а
##死
##튿
##戰
##吉
##눅
##利
##맴
##食
##だ
##樂
##곶
##씁
##宋
##킵
##쿤
##칵
##☎
##何
##鮮
##草
##쐐
##度
##申
##忠
##星
##玉
##랗
##뮌
##病
##싯
##燎
##位
##寶
##永
##趙
##英
##셸
##七
##族
##等
##⑥
##讓
##報
##常
##議
##맏
##熱
##直
##컥
##国
##렙
##來
##志
##血
##千
##쏜
##깁
##野
##ス
##空
##表
##あ
##孝
##〔
##）
##찼
##校
##썽
##퐁
##ㄴ
##別
##〕
##母
##商
##㎥
##松
##・
##넋
##쿡
##〃
##α
##麗
##о
##룽
##넸
##數
##슭
##つ
##（
##目
##丁
##덥
##섀
##處
##誇
##慶
##村
##品
##郡
##近
##期
##界
##守
##＜
##廣
##居
##調
##景
##式
##典
##現
##運
##［
##딤
##場
##尙
##ル
##昌
##ℓ
##聲
##令
##찻
##濟
##쫄
##錄
##路
##큘
##郞
##얕
##省
##科
##初
##洪
##論
##羅
##］
##쟈
##괌
##六
##修
##캣
##應
##샬
##÷
##父
##갸
##從
##親
##精
##┃
##孫
##乙
##類
##唐
##基
##象
##녘
##承
##工
##숱
##쩨
##±
##功
##è
##뵙
##尹
##當
##떳
##計
##左
##寒
##加
##²
##祭
##愛
##少
##秋
##機
##齋
##춥
##얗
##支
##퍽
##聞
##땡
##꾹
##á
##お
##팠
##證
##殿
##源
##起
##뎀
##팸
##足
##館
##統
##虛
##究
##谷
##鎭
##밧
##己
##判
##結
##狀
##랠
##監
##必
##댕
##읊
##け
##꿋
##—
##Ⅲ
##옌
##歸
##賢
##去
##保
##酒
##н
##귄
##變
##造
##香
##曲
##首
##想
##и
##샅
##皇
##産
##탯
##μ
##像
##交
##線
##퀀
##格
##뛴
##若
##틋
##好
##于
##順
##湖
##半
##⑦
##遺
##ㅠ
##꽝
##容
##얌
##過
##띔
##遠
##よ
##藏
##？
##骨
##웜
##衛
##亦
##術
##獨
##仙
##궂
##室
##¤
##튕
##湯
##醫
##養
##ょ
##œ
##建
##↑
##蘇
##쩐
##右
##찡
##準
##富
##吳
##쏙
##題
##謂
##禮
##號
##感
##숯
##팻
##任
##훑
##向
##根
##¸
##衣
##じ
##服
##質
##„
##ち
##指
##ど
##奉
##‰
##條
##뻑
##헉
##果
##次
##짬
##뛸
##考
##陳
##朱
##藥
##易
##回
##達
##쓱
##智
##願
##홋
##竹
##펩
##因
##´
##乃
##숟
##敬
##뻘
##랏
##좇
##男
##始
##卷
##宣
##種
##刻
##話
##受
##老
##１
##め
##印
##챗
##麗
##勝
##夏
##脈
##私
##比
##求
##玄
##異
##せ
##農
##↓
##副
##β
##矣
##又
##云
##쏴
##え
##及
##雨
##е
##車
##㏊
##阿
##쾅
##葉
##取
##イ
##圓
##營
##夜
##員
##벵
##깬
##極
##泰
##讀
##陵
##邪
##儀
##益
##午
##望
##왁
##請
##戶
##텨
##р
##㎍
##參
##務
##쎈
##管
##鐵
##習
##퓰
##亭
##許
##良
##句
##켠
##욘
##欲
##˜
##難
##辛
##資
##맣
##訓
##皆
##素
##轉
##散
##紀
##鄕
##몄
##共
##總
##뻣
##쉘
##硏
##電
##畵
##禪
##꺽
##丙
##序
##編
##活
##繼
##補
##¼
##設
##챠
##致
##땠
##職
##젬
##찐
##沙
##園
##윷
##康
##伯
##孔
##뻤
##辰
##わ
##角
##뵈
##告
##헷
##餘
##엥
##ㅎ
##튠
##빤
##냇
##龍
##痛
##試
##ㄷ
##빴
##御
##六
##탰
##米
##寅
##뿍
##遊
##ト
##얏
##寧
##魚
##舍
##짊
##約
##船
##失
##財
##井
##貞
##쁠
##≥
##派
##客
##㎎
##샨
##離
##侍
##貴
##靈
##ã
##Ｎ
##′
##篇
##波
##샛
##各
##찹
##憲
##房
##л
##選
##隱
##溪
##뗐
##뻥
##密
##잿
##챘
##柱
##味
##點
##提
##崙
##욜
##뗄
##с
##曹
##т
##퀵
##돛
##§
##酉
##滿
##詞
##Œ
##植
##２
##み
##碑
##젼
##譯
##女
##０
##友
##徐
##燕
##ü
##▼
##帶
##옅
##端
##末
##布
##そ
##他
##銀
##浦
##雪
##老
##켐
##最
##鳳
##㎖
##細
##辭
##잤
##뫼
##育
##靈
##展
##舊
##綠
##캅
##后
##坐
##僧
##察
##柳
##牛
##奇
##藝
##や
##泉
##齊
##雄
##榮
##펭
##廳
##改
##峰
##止
##飛
##乾
##誠
##¬
##멩
##池
##錢
##由
##溫
##橋
##領
##樓
##系
##믈
##覺
##恩
##局
##了
##紅
##赤
##再
##껌
##卽
##톈
##吾
##備
##樹
##終
##秦
##雜
##⑧
##特
##殺
##밈
##楊
##區
##▦
##®
##博
##剛
##斷
##具
##尊
##釋
##靜
##嚴
##夢
##쌌
##衆
##텁
##쇽
##價
##認
##登
##ˆ
##쥘
##護
##폄
##墓
##儒
##黑
##苦
##强
##置
##巨
##復
##쵸
##ア
##深
##穴
##來
##已
##符
##멱
##乎
##消
##津
##皮
##眼
##듐
##歲
##持
##干
##延
##製
##½
##禁
##視
##뒹
##舞
##引
##弘
##耳
##才
##毛
##덫
##傷
##還
##童
##丹
##Ⅳ
##喜
##뎅
##虎
##勢
##澤
##注
##閣
##챕
##숏
##엷
##³
##晋
##黨
##띨
##策
##程
##蒙
##邊
##載
##羅
##鳥
##版
##횃
##弟
##型
##･
##放
##秀
##윅
##뚤
##存
##胡
##惠
##著
##筆
##꿍
##屬
##仄
##ó
##巖
##洋
##⅓
##決
##積
##←
##兒
##律
##群
##肉
##談
##孟
##施
##微
##害
##破
##뼛
##脚
##γ
##．
##뇽
##輪
##ッ
##寫
##錫
##岩
##ㄹ
##講
##ウ
##構
##板
##防
##侯
##或
##훅
##ラ
##檢
##案
##ク
##誰
##ㅁ
##聯
##꼿
##朧
##述
##î
##卯
##웁
##＿
##婦
##姜
##連
##亥
##‹
##갭
##壬
##줏
##切
##俗
##盡
##念
##ュ
##姓
##擧
##갛
##戊
##戌
##住
##ä
##会
##仲
##單
##示
##誌
##樂
##零
##限
##射
##ㅅ
##兩
##豊
##封
##힝
##밉
##緣
##量
##庚
##昭
##洲
##顯
##技
##兩
##影
##ム
##役
##¥
##卿
##座
##境
##斗
##劍
##罪
##便
##刑
##亡
##ニ
##巳
##廟
##휙
##丑
##熙
##退
##‚
##д
##浮
##爭
##劉
##끙
##⅔
##適
##獻
##脫
##쳇
##쬐
##莊
##⑨
##в
##普
##鍾
##接
##球
##鐘
##移
##茶
##헹
##숀
##컹
##照
##甘
##絶
##推
##盛
##冠
##喪
##久
##塔
##蓋
##낵
##淵
##｣
##毒
##紙
##乘
##協
##｢
##맬
##越
##伊
##純
##雙
##梅
##㉠
##晉
##멎
##¹
##꿉
##닳
##癸
##徒
##送
##就
##겅
##鬼
##ù
##뗀
##뺄
##궜
##邑
##配
##症
##台
##ゅ
##到
##リ
##Ã
##캇
##庫
##胃
##烏
##樂
##ろ
##崇
##ç
##뭣
##濯
##魏
##쯧
##際
##ば
##譜
##嘉
##雖
##쌔
##逆
##ö
##林
##俊
##臨
##꿩
##敵
##戒
##촨
##鶴
##待
##牧
##收
##숴
##註
##曆
##導
##亞
##短
##往
##ジ
##附
##麻
##稱
##괭
##假
##뷴
##텟
##助
##¨
##鏡
##г
##留
##梁
##那
##ㅡ
##宜
##警
##休
##츤
##規
##步
##숄
##冬
##織
##魔
##莫
##㉡
##珠
##環
##克
##刀
##シ
##降
##評
##焉
##ㅂ
##넙
##묽
##騷
##執
##旨
##庵
##宇
##隨
##†
##維
##⊙
##完
##固
##演
##겜
##籍
##滅
##倉
##휼
##잽
##濕
##吏
##у
##域
##係
##å
##Â
##件
##材
##튤
##갠
##앳
##♡
##¶
##ô
##柳
##淨
##驛
##啓
##簡
##⇒
##퉈
##哲
##佐
##幸
##韻
##差
##刊
##候
##疑
##琴
##層
##威
##妙
##ひ
##鑑
##看
##鼓
##爾
##腎
##珍
##옻
##亂
##均
##梁
##庭
##銅
##被
##腹
##劉
##━
##彼
##됫
##깼
##汝
##雌
##놋
##к
##屋
##店
##斯
##健
##뺐
##委
##늉
##陶
##署
##￦
##陸
##왑
##橫
##肝
##急
##씰
##落
##刺
##投
##π
##깽
##훙
##略
##嶺
##稅
##↔
##≤
##疏
##宿
##網
##贊
##鼎
##賦
##葬
##굼
##ド
##賞
##쪄
##增
##厚
##볐
##盤
##弱
##큽
##걔
##찧
##夷
##兄
##錦
##沈
##壇
##엾
##創
##ž
##켤
##촐
##쇳
##督
##瑞
##倍
##尾
##桂
##街
##楚
##樞
##着
##銘
##飮
##Ｉ
##追
##핥
##雅
##м
##震
##틔
##授
##ソ
##肺
##息
##쿰
##サ
##超
##丘
##翼
##뎠
##惟
##除
##녜
##幽
##續
##잰
##祠
##拜
##範
##ⓐ
##階
##季
##プ
##렝
##넵
##背
##賜
##悲
##契
##妃
##듦
##態
##答
##咸
##納
##鱗
##遂
##３
##供
##ε
##핼
##깻
##奎
##避
##彦
##掌
##組
##燈
##町
##理
##땄
##甚
##擊
##伏
##⑴
##郭
##輔
##Š
##ā
##紫
##땜
##й
##岳
##쑨
##峯
##탉
##뮈
##ご
##퀼
##発
##似
##タ
##秘
##뗏
##壁
##犯
##暇
##冊
##뮴
##윔
##テ
##熊
##顔
##叔
##脾
##凡
##打
##慈
##祥
##볏
##浩
##兼
##妻
##項
##哀
##蘭
##革
##査
##片
##龜
##希
##깰
##孤
##넝
##迎
##옇
##顧
##恭
##列
##摩
##奏
##走
##笑
##卦
##헴
##謝
##段
##烈
##ほ
##標
##尺
##懷
##徵
##腸
##£
##辨
##卒
##宰
##큭
##າ
##依
##婚
##歷
##訴
##且
##遷
##Ｅ
##驚
##鳴
##賊
##隊
##疾
##晩
##♪
##旣
##쌩
##底
##ゃ
##振
##Ａ
##셧
##曾
##劇
##땔
##쭤
##슥
##油
##◈
##側
##獄
##班
##э
##禹
##쟝
##꽈
##枝
##墨
##筋
##更
##郎
##⑵
##쫀
##ນ
##閔
##允
##닻
##貢
##只
##救
##羽
##꼰
##⑩
##騎
##σ
##쟤
##▣
##淳
##¦
##諦
##給
##謙
##빕
##磁
##桃
##例
##甫
##カ
##쏭
##旗
##홑
##輕
##陣
##갉
##ㅜ
##洙
##θ
##審
##每
##藤
##㎛
##聽
##唱
##恒
##連
##彌
##べ
##專
##ㅈ
##異
##賓
##놉
##免
##須
##綱
##殷
##遣
##課
##х
##淑
##露
##軒
##介
##ず
##ú
##愚
##廷
##«
##ね
##댑
##灣
##ぶ
##㉢
##콸
##祝
##げ
##띵
##귈
##蒸
##升
##蓮
##쫑
##텼
##祿
##菩
##坤
##核
##짭
##偏
##む
##復
##據
##５
##겋
##ふ
##炎
##チ
##慧
##亂
##奴
##맸
##齒
##憂
##蓮
##豆
##♂
##忘
##攻
##唯
##鉉
##煥
##翁
##胎
##酸
##敗
##頂
##丸
##呼
##›
##慕
##셴
##찝
##圭
##港
##裝
##席
##앴
##↘
##雷
##캬
##予
##쿱
##效
##＊
##速
##漂
##弓
##敏
##４
##펍
##抗
##뵐
##フ
##レ
##슝
##쭐
##勇
##薩
##㎿
##엡
##揚
##솎
##愼
##耶
##賣
##눗
##솝
##渡
##包
##觸
##穀
##㎾
##驗
##邦
##巡
##µ
##減
##舌
##早
##빳
##マ
##輸
##乳
##杜
##率
##行
##幕
##앎
##肅
##톳
##幾
##臟
##裁
##般
##隆
##遇
##暗
##ョ
##災
##裏
##腦
##庶
##諫
##絲
##š
##τ
##亨
##∴
##倫
##ρ
##ロ
##롄
##쌤
##靖
##舟
##瓦
##勳
##企
##쑹
##仰
##堅
##쾨
##蔡
##賀
##윕
##壓
##低
##퓌
##쫙
##哉
##鷄
##測
##õ
##敢
##튈
##立
##猶
##聚
##짰
##♧
##址
##び
##勿
##腫
##央
##グ
##輿
##液
##奈
##痰
##ा
##岸
##칡
##쐈
##彩
##折
##弼
##巫
##費
##勞
##；
##쾰
##飜
##긱
##磨
##汗
##ò
##淺
##庸
##襲
##廢
##羊
##쫒
##슌
##狂
##訪
##盧
##逸
##ν
##砂
##潤
##윳
##株
##衡
##뭍
##ⓑ
##ミ
##Ⅴ
##謀
##窮
##危
##뎃
##祀
##б
##錄
##兆
##優
##対
##丈
##倭
##床
##キ
##算
##潮
##뮐
##셍
##針
##沈
##樣
##コ
##壯
##尉
##負
##胞
##λ
##個
##폿
##鍵
##秉
##匠
##禍
##æ
##潭
##突
##貨
##関
##率
##寬
##兪
##뭡
##列
##尼
##獸
##函
##落
##魂
##覆
##付
##覽
##恨
##岡
##整
##責
##∞
##否
##茂
##ы
##路
##둣
##碧
##柔
##鋼
##겊
##余
##漁
##킁
##콴
##歷
##バ
##模
##但
##誤
##伐
##桓
##熟
##鎬
##含
##漸
##聾
##葛
##換
##엊
##캥
##吐
##曉
##굣
##メ
##믄
##扶
##敦
##万
##頌
##셩
##쨍
##級
##征
##뎁
##飯
##ぎ
##〓
##輝
##飾
##芳
##㈔
##郵
##ñ
##짢
##寧
##寂
##檀
##絡
##却
##갗
##烈
##曺
##쥴
##坊
##援
##享
##束
##魯
##壺
##쉔
##菜
##뷸
##麥
##贈
##홧
##築
##潛
##叢
##召
##紋
##翰
##्
##荷
##占
##塵
##操
##я
##盟
##忽
##旅
##炳
##뼉
##損
##令
##６
##蟲
##洗
##鬪
##灌
##薄
##п
##昇
##鼻
##牌
##陀
##仕
##宴
##障
##額
##⑪
##耐
##ビ
##７
##需
##勤
##♀
##＂
##帖
##힉
##恐
##氷
##膜
##戱
##Ｘ
##排
##違
##넴
##寸
##ㅊ
##蒼
##洛
##낑
##劑
##섶
##髮
##番
##牙
##佳
##借
##へ
##ι
##쩜
##豈
##쐬
##츨
##患
##索
##욤
##瀉
##峴
##９
##煩
##訟
##燮
##更
##充
##쌉
##勞
##讚
##뻬
##週
##ກ
##爵
##内
##彈
##游
##㉣
##穆
##鹽
##胸
##봬
##杯
##햅
##ា
##♣
##멥
##衰
##稿
##映
##買
##８
##芝
##詳
##棄
##量
##簿
##パ
##믐
##確
##念
##閑
##夕
##忍
##寄
##伽
##倒
##丞
##˚
##र
##麟
##្
##욥
##停
##셌
##迷
##貧
##舜
##浪
##緊
##厥
##票
##歡
##蘿
##ω
##뇰
##า
##綠
##謠
##펨
##뼘
##犬
##껐
##殊
##粒
##펐
##씸
##幹
##億
##兮
##某
##坪
##岐
##蛇
##嘗
##淡
##招
##怒
##ː
##摠
##僕
##粉
##縮
##怨
##逢
##ぐ
##꺄
##넜
##衝
##染
##흄
##ο
##膽
##ь
##森
##貫
##땋
##誘
##⑶
##悟
##点
##屈
##混
##ィ
##쥰
##淮
##割
##燒
##デ
##홱
##낍
##購
##僉
##響
##險
##怪
##尋
##複
##ï
##朔
##沿
##藍
##魯
##況
##巴
##쨩
##꿎
##硬
##垂
##긔
##Ⅵ
##딨
[UNK]
[CLS]
[SEP]
[MASK]
