[PAD]
[UNK]
[CLS]
[SEP]
[MASK]
##en
##er
.
s
##ar
##an
##et
##in
f
m
d
##ll
o
##at
,
##st
h
##ör
t
##är
v
k
##om
##ch
b
p
i
##de
##ig
##or
##on
och
##ed
##ing
a
##sk
##att
##na
för
##ra
l
S
##ag
att
##tt
g
##el
-
n
är
##ck
u
##ill
##än
en
D
1
in
##re
##al
av
med
som
på
##kt
##ån
##ri
##ss
##år
##ning
##te
till
##am
##pp
st
##un
##and
det
M
##il
##ol
##id
sk
##lig
##ade
##der
##it
e
2
##ro
##ter
var
den
"
H
om
A
de
##ad
B
##ver
T
r
har
##as
fr
##ett
E
j
##ik
##are
##is
F
ut
##ska
K
V
##ur
##ion
L
##em
:
inte
##äl
##ot
##ande
N
##äg
P
ö
I
##li
ett
##ätt
##00
##es
##åg
an
R
J
##ut
från
##het
##ens
##för
G
C
##ast
##äll
##ent
##iv
han
##all
re
3
Det
upp
kom
##ång
##us
##sta
år
O
##da
##ort
##ven
)
all
##ell
##ak
##den
un
(
kan
##itt
##äm
så
##ram
##erna
##isk
##arna
vi
##art
be
##yck
19
##mer
##fter
sam
##ans
sig
sp
##ger
man
St
5
##ru
##ist
över
4
##var
##ller
00
##inn
##del
##bet
##le
##ft
##ud
##og
##la
men
jag
må
Den
##sp
##rä
##ock
##ation
##ligt
##ma
##ats
##ber
å
##ul
när
##ull
##sl
##ff
##yg
U
pro
##ta
##äst
##äng
##av
##und
##land
sin
under
någ
##igt
##ök
bli
##arbet
##um
##ningen
vid
##eter
kon
##ord
där
##els
sj
##änd
##dag
##ok
bar
mot
eller
0
##ick
20
##iska
##os
##ek
##per
##sson
6
sl
efter
##så
##enom
##yr
kl
##ön
ny
##od
##ingen
/
En
##aste
##ark
##ers
##im
tid
##est
del
kv
c
hon
7
kr
##ilj
Men
##gen
tv
?
##ef
##bb
##edan
hel
##änn
##ka
min
hö
##eg
##liga
fl
##ust
##rö
##sm
##ant
##sam
8
##ne
fram
##aren
säg
##rå
##opp
ska
då
##ste
##äk
##eri
ha
W
9
##yn
De
##org
ock
##olm
##rik
##kten
An
dag
##je
##ov
kun
nu
också
or
arbet
##ost
få
pl
##ets
##ann
##öd
du
##iga
vara
För
In
Jag
##eck
##andra
##tid
hade
Vi
##era
tr
stor
##erb
Han
##åll
10
##ycket
##holm
##sn
se
##ningar
##ling
##ld
##atur
här
##ott
##va
##ulle
genom
##rat
##uv
##yd
än
säger
##inns
får
##ligen
gör
förs
kommer
vill
##man
ä
##kl
ex
bör
##ika
##ci
##ser
##ress
mycket
skulle
land
##ack
vär
andra
ber
##akt
##erk
15
##edel
30
##ari
!
##örd
finns
##orm
##öj
##bl
##uvud
##ug
##tal
väl
##olk
##ygg
två
##ir
##vis
##sen
##ster
##unt
##ades
alla
##ockholm
spel
allt
blir
##sb
##oll
bet
sen
##ild
##ass
ann
##berg
##ic
##ts
sv
Stockholm
##nad
hög
##ställ
##op
reg
##lev
°
##des
komm
18
huvud
bara
##ytt
själ
##tem
Ä
##red
##verk
##ånga
##ederb
tra
sven
lig
utan
verk
##verig
gr
##ekt
##ris
##erson
200
##naden
##ala
##ederbörd
12
##pl
##ring
Å
[
]
Sverig
201
ju
hem
##iskt
##ighet
ing
beh
sedan
##nar
##öp
##skap
mer
##åt
##ien
skall
ra
vis
##mar
##nings
ri
Sk
##öl
barn
##kon
bra
går
även
##ab
##ju
##gi
##ansk
sm
##riv
pol
##ellan
sitt
##stad
person
ligger
int
##ank
tal
led
hand
bl
##ägg
##alt
##ssa
##nas
##kom
blev
någon
vil
Och
##håll
##sa
##vär
##ier
gång
ta
##ård
dem
##aget
fick
##det
##oh
mat
##ind
##ende
##ym
##ja
li
bes
ol
tre
##ult
åt
##io
##itet
fin
första
gj
stör
##röm
##äck
##ap
##gr
##heten
##aturen
samt
##eb
något
##jäl
kall
själv
När
mellan
17
##iss
##snitt
##arl
Ö
##ia
16
11
vad
sina
##sätt
##anska
milj
##orna
Sverige
måste
##som
hur
##rar
##ikt
ställ
##ang
##rag
tor
rätt
##ål
många
##son
13
slut
Fr
000
##jän
Sven
##ering
runt
Du
##erade
km
##min
liv
Ch
##ern
##fr
bil
##peraturen
el
##enn
##ung
månaden
14
##ys
mm
##ars
##cent
fort
##heter
ro
inom
detta
först
ans
##edeltem
börj
##edeltemperaturen
varit
##änt
lag
vä
nya
fråg
##gång
##sten
##lar
Th
läng
vår
##fatt
##men
per
##else
pre
##se
##pa
Ar
mig
##led
21
##rig
##ce
nederbörd
hela
##orde
##ken
##äv
gå
##sh
sätt
50
bå
##eras
ord
br
##ara
hans
##dagen
##uk
22
##atten
några
Un
##igare
##ire
gl
ch
##ob
##ie
##ölj
##änder
##ägen
##äd
##rum
stora
##ämn
##iken
ung
er
##ionen
inv
ser
##slag
##rupp
##dre
mål
fri
På
##gram
##jär
##yst
'
meter
Om
göra
##lag
##merik
##ella
inne
##ukt
vet
kron
landet
##sv
lång
##rott
199
##öm
##giv
##äns
Del
25
##erie
##ket
gäll
bland
trakten
oss
ur
##ten
##eng
##ina
rå
fall
##mat
Re
##veck
##ästa
##dom
Joh
åter
##rätt
##if
;
##sf
##sak
tyck
svenska
##ös
ma
Ny
##maste
##ske
sn
##yra
honom
fil
##ard
##hus
##irekt
##bild
##ometer
Sp
möj
le
best
##orr
##ilometer
##rist
helt
kronor
##änk
##én
##ningarna
Hon
##tern
##ex
akt
tel
ingen
förb
männ
kont
All
ar
sak
##nade
Där
föret
##borg
folk
vin
denna
##alm
##ER
##sför
olika
tro
behö
##upp
Man
23
##oci
eg
##amilj
##hand
Även
##dan
hav
delen
kommun
##rakt
annat
##ruk
trä
Med
##rin
Nu
##usik
##omm
res
Ber
##ry
40
kra
##ors
ty
##ström
##ät
##alen
kunna
Ett
##erar
veck
##gör
##unn
##erad
konst
samma
väg
fast
##rit
rikt
##utom
##äker
År
##åra
sök
##elsen
gam
håll
hjäl
45
##obb
kunde
plats
##by
##yrk
läm
##igaste
berätt
lite
##pel
bort
##jör
##älj
lik
##lighet
procent
fått
##lass
bygg
stad
tidigare
##ås
##app
dock
##ånd
##hl
##staden
##häll
##oder
änd
lär
##öder
##nan
##spel
##vin
anv
##eller
na
plan
dess
regn
##alv
redan
##par
##aka
fem
for
sjuk
##lut
svensk
##rad
hos
par
Y
##med
Al
##årt
havet
##ac
gäller
mö
##ej
Till
##tag
##mans
##öst
##ativ
intress
nog
större
##uter
##nader
##EN
##res
##err
##andet
##rid
##anden
##ärk
##form
bak
198
Gö
Sam
##skil
&
##ub
polit
##vet
##ib
##ubb
##konom
match
flera
Av
Genom
Efter
em
van
öpp
nord
gick
utveck
kvinn
##atan
##amp
##gel
tjän
##AR
##ldrig
vikt
både
##ret
si
människ
##ellt
##anu
##erat
hus
skol
värld
god
##yss
hör
val
form
väx
##ow
##går
##raf
##unkt
enligt
##blem
##yll
##uss
dessa
Så
##äster
aldrig
##äs
##merikansk
ner
##anuari
läg
##äder
##ister
##orn
##rådet
##SA
januari
mest
mark
##ont
##skol
##iet
fär
##rev
##ända
full
##ings
##of
55
lätt
soci
part
följ
Le
tar
##gifter
##yt
förl
##pro
##ående
ger
grund
kanske
##uro
mindre
ekonom
po
##ron
Ex
varje
##ationen
35
##limat
##rama
##vit
##ga
dig
##arn
stat
egen
reger
polis
svar
samhäll
##ritt
familj
Att
huvudstaden
##met
##ationer
##fta
##fl
##eh
syd
Ander
tog
##istor
genomsnitt
##ättre
##räck
Sv
tillb
##ystem
##nabb
ytt
gjorde
##yk
sid
direkt
##ember
natur
##oner
gen
##imeter
hitt
Bo
##dukt
##åller
sön
##drag
tror
cent
##pt
kör
##lägg
Pro
##edi
vilket
säker
fyra
##klar
bättre
##me
##sök
dom
##lick
##ekn
##agen
fot
197
Svensk
TV
Under
##ren
känn
just
vän
##mn
skri
inför
*
invån
on
##yl
öv
Årsm
varmaste
ön
##anis
jobb
##sg
kvad
kallaste
##ore
##råk
Ut
##raste
kvar
##onen
kvadrat
gjort
annan
##AN
komma
##jur
Var
ök
syn
Har
##ran
##ip
mill
##ond
##satt
roll
##varande
rik
mån
al
juli
ned
##ras
##far
ge
##sdag
##ioner
står
invånare
##äkt
Upp
mitt
##samhet
sär
millimeter
##vs
##illa
bok
äg
rad
red
ind
före
lyck
##ian
äl
förv
Z
Genomsnitt
##eci
köp
##under
Då
##nat
Genomsnittlig
##hör
lön
årsn
torraste
regnigaste
årsnederbörd
##kilometer
snabb
##gift
##trä
##skar
##ög
##ess
pass
exem
igen
##lingen
24
vatten
##IN
##van
våra
tiden
senare
senast
innan
id
##lek
lika
##ons
##ligare
ni
##vent
sådan
##kte
##bildning
kän
sex
försök
##ater
##andel
huvudsak
##bef
Som
##las
08
##öt
alltid
kost
##ektiv
Ro
Tel
##port
blivit
Erik
##our
##orter
Br
##int
##ressen
Vid
##ött
tycker
##stånd
te
halv
off
##pris
##ennes
års
##män
##ner
USA
Här
##väst
Reg
##från
start
196
änn
El
##ärna
##ynd
ännu
##ryck
##sammans
kväll
företag
##ote
##sid
Per
##rade
##faren
##köp
##rikt
##ingar
##ultur
rör
musik
Amerikansk
Mar
tim
nära
tag
##etta
##fråg
##he
inneb
Dag
100
problem
beg
fred
död
kort
##jer
hopp
##its
förm
tillbaka
sa
därför
bästa
##öv
##tidigt
program
##iver
ad
##ugust
låg
##iker
Johan
samman
##ich
beslut
##ift
##iten
##okrat
##fall
Vad
##olog
##slut
Ol
##nen
##ct
Gu
nytt
##äpp
ca
människor
sista
##inner
##takt
krä
exempel
##sst
##ära
Ma
##ått
stort
##osit
senaste
bef
övr
lå
rum
ytter
##lem
##uni
##ängen
The
deras
pris
peng
##una
##efon
##up
##ultat
##ument
05
grupp
behöver
##ST
##talet
Karl
##ral
Tra
komp
##befolk
##chef
ganska
anställ
##ernas
##eln
##ysk
räk
namn
jäm
speci
film
##elt
största
maj
utt
personer
60
hjälp
##val
##ffär
Exp
##terna
##jud
mil
##mark
##teborg
Kan
##ON
##ena
##lden
##ator
flyg
##dast
Hans
miljoner
styr
fler
näst
august
bek
##inna
talet
söker
##ke
##vist
##vid
högsta
små
##spl
miss
Fl
augusti
##OR
besk
%
fakt
ofta
främ
##gren
fortsätt
DN
##plan
##enne
##lingar
##boll
gamla
Detta
Stockholms
kär
##ham
##ada
vidare
stället
Göteborg
lok
tillsammans
lör
längre
##uc
ins
##kur
##jö
ansvar
##als
juni
arbete
sol
hennes
svårt
tekn
haft
slag
Hur
Ne
##elser
bestäm
gärna
##ostad
##lder
disk
##etter
##väg
Från
##digt
Kom
##bart
hän
råder
org
##äx
bety
framför
Dan
##isst
bed
social
w
##ey
##agn
Malm
ändå
##ester
##ay
henne
året
Jan
vänt
##iva
##enter
und
far
histor
##roll
rep
##arnas
##dem
##farenhet
satt
195
ingår
fann
##dde
tur
##ton
länge
##jekt
särskil
långt
Söder
kap
##fäll
dec
kro
alltså
##plats
visar
ext
##oda
dra
Ni
##bruk
Lind
194
##jus
##ubl
bel
AB
trän
Euro
##ändigt
ih
krig
##ong
närheten
Ste
Er
Norr
##unkten
Mari
##lade
##napp
##ou
##ften
##olag
tän
ute
##bil
##bygg
klar
##olit
##olv
##bar
tjänst
produkt
sä
##unda
Carl
moder
kn
##ine
bild
Ing
stud
Berg
säga
förut
omk
Sch
Stor
ob
##lands
klass
bor
föd
enk
kval
##yndighet
träff
enda
såg
##ET
##uld
##tta
häl
##stid
##farande
Fin
Nor
kraft
hemma
Bl
##arbete
Hel
##ald
skatt
##ösa
##bland
började
Trakten
kontakt
eftersom
provin
fel
intern
nästan
##use
art
endast
ungdom
##pen
stark
inst
fört
##net
rel
##ydd
Mo
berättar
##LL
##gård
##pri
fle
##bund
allmän
båda
Nord
täv
män
##mare
##förs
##skin
Se
väst
bo
trots
feb
början
pri
##fri
##age
Nil
dagar
Björ
##ension
inget
##ograf
##kar
uppl
själva
Regi
pengar
gången
##unger
##ker
minst
skick
utanför
##ansen
##mi
utred
##uper
John
##ita
försvar
##ux
Q
90
##tr
##sdagen
pr
ring
26
norr
##fil
Någ
##ah
spelar
Sedan
##äld
##rand
##reg
##ruari
Gun
framtid
innebär
##över
##spro
medan
inga
##ode
Runt
##ge
##qu
27
##ler
arbets
omfatt
februari
##ädd
##errängen
Sveriges
tred
Sh
gått
fråga
nor
et
Lund
##ork
Britt
##rukt
##fär
Peter
riktigt
gra
fortfarande
##sikt
ville
provinsen
lever
sade
kons
##lin
flytt
##IK
##jut
of
vissa
omkring
ant
##förande
viss
##ata
förklar
använd
##ält
jord
80
gener
dr
##åd
##ert
sep
28
omgiv
fanns
klart
##styr
sett
håller
sag
##cen
helst
organis
ytterligare
Repris
##ev
tänk
##ivt
kilometer
borde
tio
##äss
##skog
##cis
världen
länder
mars
läk
lu
##band
liten
resultat
##råden
##ander
fj
##formation
vann
##tember
70
##ige
##itu
##for
»
särskilt
##bud
dri
stöd
##skri
##lac
Inte
papp
VM
december
lopp
risk
kar
Väst
La
nästa
september
prakt
väldigt
öster
##nande
bruk
flick
Pl
##åga
utbildning
egna
telefon
kultur
knapp
eff
bostad
##ition
ly
punkten
^
##räd
sek
chef
##aten
vilka
affär
nov
bakom
Ham
Par
koll
##ämt
erfarenhet
kring
din
##befolkat
ög
amerik
##lund
##alis
##chen
Expressen
tredje
söndag
Är
engel
minuter
samtidigt
heller
Ja
##gar
sy
Ad
gånger
ej
##klag
vack
##okument
seger
##slaget
03
##ins
##minist
Eng
##derna
##kor
##ustri
topp
##samma
kvinnor
Enligt
##end
förra
##delning
hund
##cke
##ören
##amm
29
gav
Alla
##emot
tank
tom
säson
rollerna
tot
Ed
ham
Or
31
söder
skad
##part
gott
hålla
Kon
##ana
##ober
Jon
##juk
##ärt
kvm
New
##bo
##anter
ålder
kri
konkur
börjar
utveckling
ste
and
75
##olf
##ice
##råd
vilken
cir
im
krit
medlem
regeringen
Lars
flesta
okt
extra
näm
erb
Arbet
handlar
##ämp
goda
##one
##utt
Gusta
##ING
besök
utl
##annen
Andersson
stra
##orgon
##75
am
##smark
##rän
##köping
lördag
alls
##råde
##full
##jänst
##vård
##ligheter
känner
Dess
avl
månader
deb
emot
##enskap
vårt
dagen
##ringar
mots
dessutom
hjär
by
Sa
##jen
##amma
##ställning
svår
forsk
förhåll
Lin
Malmö
##anc
##iel
brö
åren
ihop
##gär
di
##demokrat
##sd
län
kommit
##sin
Fri
Tro
Tv
##väll
önsk
##olis
häst
kur
##rala
berg
skog
##igheter
##arm
spela
##delse
##fer
Dagens
tu
titt
##kn
##bert
internation
dist
##itut
tem
dram
tis
Fred
##ha
##pe
##mal
skriv
##vik
öst
behand
##öts
##ledare
seri
##senter
ansök
##pril
##ellertid
##oss
##huset
rapp
system
resp
bad
Kl
föränd
##br
misst
##20
##iller
ens
ton
##unnit
kor
##efter
tyd
klubb
tj
##qvist
##änner
##gården
oktober
tillfäll
##tes
består
kvinna
icke
##ykt
fotboll
Johansson
##ake
livet
allvar
verksamhet
Nyheter
##och
säll
##SK
500
april
väster
y
november
information
lägg
författ
stod
##skatt
kyrk
##åld
##bro
bas
sälj
förslag
bid
##liv
##aler
Svenska
Be
svart
##uella
priv
poäng
##ions
##syk
##ödra
höj
Terrängen
sidan
##off
personal
##väl
##åde
sju
sommar
##ille
frågan
bud
gar
brott
nordväst
X
##repp
Program
met
Gör
##öll
Tid
pä
##ifrån
##yng
##ills
förlor
##ric
växer
uppgift
Bar
tagit
##kta
##ext
Anders
kam
Vär
emellertid
utom
råd
anser
##rog
##ierna
rom
##olut
möjligt
##tar
lä
skriver
hot
##eder
##lad
posit
##talien
##unden
##rek
##kommen
giv
stan
##märk
övriga
betal
verkligen
stats
##ären
frågor
området
Sm
##erande
mass
##verket
Pa
Sund
polisen
drama
##räff
##skt
försv
##AT
##räng
##ite
##kont
##skott
varandra
##usk
arbetar
##följ
##gj
chans
##mera
ovan
Kar
Jo
Frank
##alk
##ure
fatt
traf
##ivers
##ity
##ening
uppgifter
snabbt
gem
##AL
##otell
##be
##lla
krav
##till
##rep
dans
##öter
##eställ
##raft
märk
född
bäst
##enten
Kung
##rust
dam
##lat
funger
##fess
##30
Dessutom
##örj
##entligen
vård
nation
##lic
Am
##ilja
föräld
##skaper
delar
##orit
Sol
veckan
##orge
##väx
##komm
ab
##serv
##skan
Drama
##ligheten
fart
centrala
##ligtvis
sov
##get
seg
menar
##gatan
amerikanska
Allt
Min
försälj
varför
##ium
##ummer
inter
föres
tack
prat
ljus
##iz
dö
kök
##rör
jämför
dott
nämligen
Beng
Car
lös
stu
Ind
äldre
Än
prin
samhälle
##ep
##samheten
##lipp
lägen
##jet
##wa
Sen
##handling
##cker
sats
sådana
marknad
medel
natt
hy
##klimat
##punkt
SV
##ärn
timmar
the
##åk
lug
##nytt
##gående
trev
regering
pat
Ul
Djur
precis
##40
##grupp
myndighet
engelska
teck
##igen
##sättning
meddel
65
##skriv
nöd
##skolan
##oden
kropp
##fin
##bin
publ
##täck
liksom
Svar
tving
##kade
vägen
antal
betyd
sitter
EU
mor
##ysningar
avgör
månad
##uppgifter
##ledning
sagt
snart
veta
##19
##samt
##omas
post
+
cirka
Pris
peri
ka
mera
fortsatt
##rarna
förek
##ood
##alet
##rip
bank
Barn
Gr
##ivå
högre
räck
##stol
höll
slutet
##si
spelare
litet
##lande
##ach
undersök
##ersätt
32
ja
våld
ST
tje
Hen
33
2014
##likt
##list
Två
Ingen
Ge
trö
fisk
pension
serv
milit
Lar
##mäl
##oj
##ix
händer
##ny
##yskland
##abrik
Bengt
##oligt
matchen
##AG
Kh
##okumentär
hoppas
##dar
##teck
sydväst
Europa
Fil
##entet
stäm
bred
Tor
möjlighet
plac
guld
Ju
gammal
##ue
skr
situ
##rike
##otten
kat
behov
vecka
sem
##örer
Dav
##blad
##ökte
Folk
heter
ske
##oret
##håller
Öst
avslut
skär
låt
sjö
nöj
##10
##ourna
##th
|
Mart
Tre
##itter
bit
känns
##asin
ordförande
##olaget
Rad
##ssk
##ager
miljö
Sl
scen
Nilsson
poj
finans
tills
##värd
säkerhet
##hem
säkert
##orten
unga
arbeta
yrk
fördel
mode
laget
36
##äkring
ibland
##uellt
slog
##mast
oper
visade
##står
talar
pop
psyk
fant
politiska
##ppar
släpp
presid
verkar
##illar
Ta
egentligen
ren
rö
##iti
##alj
dju
##cess
##oppen
ögon
övrigt
##skomm
lev
##på
spår
##röv
dryg
##ovis
lin
##anske
Vil
Mot
##sled
jul
star
##lex
eget
Gunnar
projekt
främst
kommuna
##ände
komedi
ör
framgång
##splats
##rikes
is
Ring
fyll
##ändska
##ständ
nämn
##efär
Mon
norm
fru
##sut
Ek
samband
193
And
2015
fredag
##oter
##sav
##lunda
##we
Lond
Res
resa
##igh
Björn
spelade
##anta
gles
rek
##iteten
##juder
industri
##riller
Lu
inb
##deles
son
Bro
rädd
båt
Ann
##ction
Hög
höst
##co
##ferens
##gräns
##au
faktiskt
##delningen
tänker
vind
Mich
##komst
##bara
##amen
##dant
Brittisk
dubb
brukar
##mär
insats
huvudsakligen
ekonomiska
trafik
enkelt
##staur
färg
##ordet
##omb
##genom
##70
##emang
stå
intresse
vinna
2013
##oende
##vänd
platt
jätt
##åning
##ath
djur
Bir
##anen
åtgär
##arbetare
därmed
Christ
ry
##reter
##sel
##old
tät
Em
##ahl
##istiska
##dags
grä
läge
##jan
##EL
hum
Anna
##skapet
##ever
##resent
##15
##förbund
##ve
##iner
kärlek
utför
do
##anan
vux
##ula
uppe
drabb
skrev
omgivningarna
krimin
gemens
dröm
##etag
##ÖR
Upps
##pass
##hav
press
Komm
röst
##ökt
lämnas
arbetet
##ktor
fortsätter
London
bal
morgon
##60
genomför
profess
##sgatan
hårt
##ius
ansökan
klara
##18
Öster
##onst
åtta
##SS
Komedi
mör
inled
lek
##fors
hård
träd
SM
uttryck
##när
stopp
##nt
He
anställda
materi
dit
##ugg
##rister
barnen
maskin
ersätt
Sand
Många
##bergs
sång
Co
Programledare
Krist
kunnat
tillhör
Musik
amb
##eta
mina
##gå
visa
veckor
via
Ha
klimat
exp
##ästare
steg
antalet
mar
##24
lilla
lämna
offent
##edis
fastighet
fjär
slå
##ivil
vit
34
beräk
förbund
nr
Sc
ener
##gången
gym
##ternativ
dagens
Finland
##uren
sida
glesbefolkat
Bland
straff
Eric
häls
tryck
tyska
##ns
##95
##usen
familjen
##25
##65
##ica
##ij
Rik
##fekt
önskar
viktigt
##uell
språk
vitt
##rav
##sc
alldeles
Hall
försöker
##inne
bi
kamp
85
univers
gt
##stående
Stad
##po
upptäck
OS
ben
##CK
##enting
saker
södra
Därför
värde
##ännande
Vis
##ölja
presenter
ensam
vattendrag
##iddag
ifrån
Rom
##atern
##yld
##inge
fjol
Ros
ena
kuper
dels
betyder
##organis
##ipp
Uppsala
##vakt
skap
##vju
trans
uppdrag
##barn
##järn
tillg
##shus
såväl
##ism
sker
ungefär
##läg
förstås
Nej
2010
Land
##aga
sist
Gl
##sch
Samtidigt
2016
##äls
kuperad
öppet
me
##ias
samarbet
Närmaste
långa
##oppet
Göran
##ännen
tung
färd
2012
skäl
England
igenom
##dera
skolan
drygt
2011
världens
##mål
##ventyr
Sov
##zz
typ
historia
Syd
York
##året
##90
merit
##rande
förutsätt
jordbruk
staden
##ida
drag
Vill
##ängd
närmare
uppfatt
##aket
vem
snar
##eld
##minister
sport
##ora
dör
bered
##ror
Ph
prov
##urg
politik
eng
handel
underhåll
##arder
kast
##polit
socialdemokrat
real
38
idrott
##urt
02
##RI
hotell
fack
sådant
##ymp
mannen
köpa
##OM
tala
avtal
högt
bedöm
##ningens
##ningss
##miär
nordost
Bor
##sett
våg
##agasin
ang
skydd
ev
tänka
utgör
Lac
2008
sätta
##öf
dat
##ningsm
Väl
##ds
##af
##rym
##ötsligt
fäng
##området
##inal
##ediserie
sch
naturligtvis
tillverk
diskuter
os
##östra
Denna
motstånd
##allen
bolag
##bok
##nämn
300
2009
låter
Martin
Olof
bill
##PP
skill
44
häv
Will
Gustaf
##ital
höger
##styrelsen
##öcker
Larsson
Lenn
##ash
rev
##inst
Sten
For
pub
##ider
Qu
##aj
olyck
sjukhus
parti
##13
##anna
##ådespel
lov
Ser
hittills
britt
rym
stil
95
Sök
ok
yng
torsdag
brev
##over
##14
nå
##bel
##önster
demokrat
infl
##vägen
##AD
deltag
##hopp
back
Lake
##lös
##rem
tycks
Paris
Vår
civil
##eringen
Bil
##bord
effektiv
Väster
##add
fest
norra
##grund
Kanada
fören
##skola
gäst
##ford
##cher
borta
Si
ter
##uck
järn
park
##rom
motor
##alla
vänner
huset
Tim
SVT
Eller
blå
##minst
förekom
##slös
##TT
upplysningar
##asse
buss
##OL
##onn
central
##12
matcher
##unk
hitta
##her
##IF
kostar
bev
miljarder
däremot
Te
Köp
Eriksson
rapporter
nuvarande
##värt
##ration
rut
Magn
##splan
privat
##arie
klock
möjligheter
grän
gro
##ips
Norge
Her
Holm
övert
starkt
kontroll
läs
betala
##rang
##ND
makt
ek
liknande
David
föresl
anal
Bra
Varför
special
##hamn
##olin
följande
Is
kräver
Hem
trad
##verka
elever
##fan
exper
Tyskland
##klart
glad
##skild
måndag
42
##80
bilen
arm
onsdag
##17
redovis
ingenting
Åke
##dels
sten
president
Kal
Robert
##brott
##yrka
journa
sjön
AIK
kontor
använda
2000
##vens
Kanske
port
##anda
samtliga
##film
grader
Tom
dikt
mång
amerikansk
2007
konstat
##eringar
##ffa
##ley
Danmark
##iam
##erligen
säsongen
##ph
##anken
service
höga
##ax
##isa
mär
##yheter
Toppen
årets
##skad
bilden
sydost
öppna
ark
##valt
förstå
##akom
käll
abs
san
Sjö
##kort
##ael
skön
utbild
triv
restaur
##skont
##iden
siff
Cer
##16
anledning
syss
begräns
lämp
områden
##erades
##AM
at
##ide
Kat
Fredrik
öppen
represent
kopp
##visning
vanligt
Sy
Thomas
Hammar
ekonomi
bygga
bär
vore
##ämm
##olisen
##chefen
väder
##lare
påverk
lyss
##minstone
fullt
Frankrike
##iot
##ädda
orsak
Persson
försöka
Lennart
vilja
##ette
##slöj
##uten
##jöl
Själ
knappast
event
Mat
frukt
ac
Ty
##skväll
##innes
blod
börja
##olt
##emål
anmäl
##jung
lägga
Fast
band
mamma
vap
2006
37
byggnad
låta
to
##person
##stå
bidrag
##imm
##rali
Mark
Nyhet
ledningen
43
sträck
##ägare
hår
##spekt
förbätt
leder
popul
39
tävling
skapa
känna
skriva
##ården
oför
alternativ
förhand
SK
Matt
internationella
##ola
##ama
numera
public
##istan
Trots
##spr
##len
##ader
##duc
princi
Stefan
##ici
Sovjet
##RE
##onom
hal
##ativt
##gick
därefter
varm
somm
delst
48
rök
text
##yta
2005
samtal
föreställ
##partem
uppmärk
artik
Mc
##naderna
lö
känsl
vatt
vänster
##icin
kommunen
intervju
##orden
lyckades
##ständigt
pa
##yrå
Holl
lån
##ustrali
flykt
betydelse
franska
dokumentär
hjälpa
but
##ockey
undan
Mel
—
imp
muse
##ringen
Akt
##snämn
th
aktiv
tyckte
fortsätta
Gar
##ira
luft
##usten
filmen
käns
riksdag
tåg
indiv
##hang
vars
Box
##handel
tidigt
Ekon
##rej
##elsing
kul
idé
landst
kvart
område
53
Dom
##unch
##sert
##AS
årig
##lagt
##seende
##ibli
ställer
ditt
Sal
vinst
föräldrar
##aserie
Sn
##lle
54
kol
##ilt
byg
dotter
Olsson
##reterare
Ekonyheter
Karlsson
närmaste
vanliga
##samling
motsvarande
kände
teater
regel
##frågan
sän
bilar
Dram
Några
##tet
viktig
samarbete
Först
##still
utnytt
konkurr
400
##obbet
Pat
högst
cm
samhället
##rick
Tr
##zonen
yrkes
##orer
riktning
73
grön
Din
sann
Över
Helsing
drog
##läggning
Cerro
##aden
ov
dis
Soci
##räde
##avann
behövs
spar
##san
elekt
framtiden
##jön
mus
##program
##NING
##fart
skådespel
##cep
Mer
##IG
betydligt
tillräck
##avorit
##ekar
##entligt
##ies
2017
##ith
##änga
##olen
Svenskt
##edt
tjej
##iens
säm
##oms
Dessa
fantast
Italien
inkl
boll
överra
##änsyn
institut
##aterna
##tera
Jos
kallas
##vinn
##utbildning
her
vinn
Val
väntar
ford
Maria
mening
totalt
åka
Kn
lock
uttal
kung
Mal
##slagen
organisation
##skor
##64
ställa
52
##ustrin
##rop
##sträck
följa
glöm
gläd
##IL
fina
Michael
konstnär
##anne
euro
sjukdom
plötsligt
41
trodde
Paul
serie
Ag
kombin
##enden
känd
stund
##ÄR
anses
Svensson
allmänna
medarbetare
exempelvis
nej
Kultur
avslöj
nät
Person
fritid
Liv
mon
vanlig
##ps
2004
leva
tas
krävs
Sim
landets
sh
ämn
##fton
Cent
ide
upplev
Ulf
##skade
EM
##ensen
annars
Just
##otek
beror
bro
Bert
välja
##träd
##uga
betrakt
##IS
enskil
lagen
Je
radio
förvalt
TT
leda
##vok
Cl
lära
##isten
59
Mats
##istr
IF
##amer
åtminstone
glas
_
San
Kj
##ativa
behöv
finnas
##hets
vinter
##äget
Stig
skola
följer
ledning
##verksamhet
Öre
döm
komediserie
Ryss
litter
Jam
lokal
##arens
##färd
villkor
torde
förhållande
ryska
##kast
skid
FN
od
absolut
åtgärder
visat
trygg
58
pappa
Ab
sikt
Alex
mak
prote
tri
gymnas
förmåga
##out
ställning
Cla
##iter
rent
utrikes
tisdag
Ra
hr
programmet
administ
förn
närmast
##anten
höra
tätbefolkat
ent
last
Ansök
##ila
hänsyn
Huvud
##befolkad
46
City
##ärer
alltför
omedel
svarar
ko
universitet
säsong
Vem
förel
Daniel
##sklimat
Hed
##byggnad
uts
##okus
##23
##eman
##udd
kö
intressant
kunskap
allra
löp
kompl
##urs
effekt
fjärde
##oni
Australi
47
##entar
äventyr
##ställningen
svåra
##roller
östra
Mad
##rätten
läns
##iddagen
nivå
sommaren
##atis
##iske
tradition
premiär
##igg
##serie
01
taget
2003
Gam
##vändigt
##ektive
idag
Sve
##hlm
##klam
avs
Örebro
vapen
natten
givet
visst
##anschen
fö
obefolkad
viktiga
07
##kr
modern
##acka
Familj
innehåll
herr
kriget
##igheten
##rak
##åda
Fär
##urser
##fred
##tter
##spolit
##ingenjör
##NG
skjut
##nam
sänd
##isterna
Mex
##lan
Sw
##maskin
erk
Själv
##elb
##ting
betyg
funkt
möter
växt
##batt
tidningen
78
räcker
##ise
##språk
Hell
enbart
kunder
##elsens
gemensam
##ema
##sman
49
Lid
##ittén
Radio
platser
##pet
Wall
fir
respektive
smak
sociala
##ink
##ffe
##företag
##juda
##rare
Bill
engag
##yp
##28
bevis
ansåg
ledare
##rika
##skill
hust
99
##sland
div
##ec
hjärt
ram
tit
förf
nio
arbetsuppgifter
##ines
##tion
Bara
spännande
Gud
Bet
vare
fas
godk
oro
##rustning
konf
Nils
Tur
Palm
distrikt
Eg
italien
fång
väck
läsa
Sport
Lön
##arta
##ikation
##igur
150
##uver
Ben
Gen
##ona
lägre
sent
##rafik
tapp
fabrik
jobbet
kunskaper
företaget
Sthlm
Fram
##larna
##livet
Kjell
kommunal
sym
##nes
dyr
##AND
sal
vetenskap
dags
##läk
##betal
skiv
##ump
##acken
##klubb
##ILL
##mor
##klass
åker
##älje
##elserna
Red
##mant
##uff
2002
träning
visste
##endet
Nya
##skvällen
Rich
staten
Fal
skratt
##ruppen
framåt
##ottag
Bel
nyligen
befolk
##irektör
Do
börjat
Ka
Petter
64
miljon
Djurgården
satte
Jön
##rael
##blick
energi
budget
##fören
produktion
Varje
##lav
##za
Andre
##frågor
sammanhang
88
leg
04
uppf
At
##rim
##etten
##jänsten
medvet
gillar
övertyg
##inder
190
modell
##verkan
loppet
såsom
bestämm
Col
##ågan
medlemmar
##äste
värd
punkt
Ax
##63
Otta
##räk
##vara
kvällen
säl
beroende
##fte
ret
##ekonom
##let
västra
sål
läkare
##riget
mått
Jak
Förs
##sfull
2001
fallet
lärare
förord
##cern
Ottawa
hit
fint
målet
Olle
bilder
##kommer
förstår
publik
sätter
ökat
någonsin
drar
invest
noter
innehåller
fungerar
svag
##lapp
##anj
omöj
##tälje
medför
mod
försökte
besked
avlid
##erats
Henrik
reser
##smedel
test
professor
grad
gal
##skydd
gift
67
dåligt
##27
##oreala
debatt
takt
##aner
klimatzonen
saknar
##istisk
besvär
utvecklingen
pot
medborg
##bes
fys
tyst
slags
Eva
##ministern
driv
karri
##höj
##skär
tanke
fredagen
##enskomm
##egr
cyk
rol
terr
##ställd
##spir
rätta
##kraft
böcker
63
Wil
57
initi
##iat
##smål
öka
snö
vackra
##gh
ökar
hundra
ver
utman
ökade
ras
##ish
saken
##gg
material
doll
regl
##yller
kärn
gruppen
diskuss
##sked
##partiet
Moder
op
resor
omfattande
Omgiv
kvalitet
sock
bygger
74
avst
närvarande
##68
verksamheten
##itta
oav
sub
nummer
##arbetet
##aller
styck
region
mag
##sats
##åren
gäng
##kontor
trol
Social
nyheter
kräv
följd
##eriet
##ystemet
slutade
oft
##ologi
##stedt
mött
##landet
Action
##gn
##umb
grå
Dal
co
Redan
strid
regionen
##itets
Vin
##utveck
##ific
lämnade
##fält
##NA
Ke
sydöstra
##givare
klockan
kallade
##roende
Omgivningarna
valet
täck
accep
##oln
återv
karakt
centrum
$
äger
allsven
slår
försäljning
##imer
Dig
tillgång
##sprogram
##ssan
##sprung
##lack
Inga
##edag
##RA
##29
##ilver
Däremot
##itar
Fran
förber
köra
##syn
##äkra
priser
Fot
tax
##andard
##förbundet
ne
##oper
speciellt
förd
ill
lägenhet
Marie
använder
Magnus
förr
boken
##une
Hus
##ogen
Jack
detalj
##elle
berättade
brand
vita
Någon
domstol
kompet
röd
##ansch
försäkring
berör
Kron
Andra
##värr
dina
##ox
kass
Pre
1999
West
ir
mänsk
##ign
##oc
Gustav
pröv
##fot
##anien
starka
uppen
tvätt
##svägen
söndagen
varav
##atiska
##ori
##TER
Carlsson
söka
anslut
lyckas
Li
##ologiska
årige
gett
##ly
##lats
von
lägger
##abil
##lades
adress
perfekt
period
##abl
We
##orlunda
Skån
viktigaste
1998
Spel
##stift
fartyg
##HL
##orgonen
mesta
##but
##öta
illa
##hjäl
##cept
plus
dyg
publiken
##ive
används
kritik
Ur
##orp
inträff
utgång
favorit
medicin
förhållanden
avgörande
Charl
partiet
Bred
pers
knappt
undant
grat
släkt
ungdomar
##hel
begär
1997
läget
tillräckligt
vunnit
princip
server
direktör
##itekt
räkna
mörd
lämnar
##partementet
opp
##ionerna
ot
kok
defin
##IT
förvänt
inrikt
Arne
tillstånd
reklam
torsdagen
Amer
##ate
annon
svarade
Mil
hösten
välj
måndagen
##iff
landsting
ass
##ura
Mitt
befatt
moderna
Dahl
##ungen
delstaten
fotograf
sällan
##produkt
svara
Stora
papper
uppskatt
1990
Volv
Kina
##ng
##yrelsen
behandling
##CH
LO
sort
omfattar
##mannen
hälften
##stans
Telefon
##malm
löne
##skning
98
mitten
##rimin
##onden
##sdel
83
lyckats
##ement
##ES
sälja
68
förrän
##iljö
räknar
77
arg
serien
kille
##iteter
trött
tvek
God
alk
##anger
vuxna
tisdagen
##67
förlust
inkomst
##lim
brist
rejäl
djup
##rof
priset
utmär
Medel
anst
##rot
domin
ordning
84
##önst
rull
vattnet
##platsen
skrivit
erbjuder
AR
##ingarna
beskriv
##uri
stig
##anti
##frika
kött
Far
600
onsdagen
kyrka
lördagen
##ED
tysk
Hela
87
##amrat
Ger
individ
##egång
Wal
Don
##skrifter
##ctor
##vän
resten
Lag
##weiz
misstän
##nack
Solna
##arken
roligt
##dens
kostnad
##makt
major
Po
strax
##ight
militär
##yrkan
regler
##allt
stäng
huvudet
initiativ
##omma
##yrån
ak
Mycket
höjd
tekniska
Phil
##du
##hög
pengarna
89
##ION
fria
kroppen
##åndet
##resa
##amb
Go
pj
Gösta
tunn
##apport
studer
Ryssland
ledam
##uel
Int
Kont
kand
mord
Vidare
ansikt
hyll
62
prom
lo
ges
Europ
sannol
inf
Låt
författare
##ienter
Leif
ligga
94
trevlig
föred
forskning
överenskomm
##ställa
någonting
väljer
ursprung
politiker
Ström
##ér
56
##sättningen
Eftersom
namnet
påp
##stjänst
fortsatte
flicka
överl
tex
final
##ony
rygg
##jöd
Ki
93
invand
Con
chansen
rän
Natur
skott
1994
##inen
Norrköping
ledande
närings
Mor
VI
##anskt
beröm
temper
spets
omedelbart
##ningsk
timme
ident
tänkte
delvis
ledde
Hag
föll
produkter
vänta
Richard
berätta
##innan
lokaler
##röna
##tog
##ca
##uta
tjänsten
##edd
##11
Ansökan
Intern
##musik
avlidit
avsnitt
09
##ho
skil
utsatt
Bertil
##resenter
##öken
1996
##lia
marknaden
skrift
dramaserie
användas
##agnar
kända
vak
##öte
##orget
Håk
kön
Bygg
##arlam
hänt
72
Vet
förbi
lugn
äm
##wood
trädgård
Gra
plock
kallt
funder
##kan
pågår
skyld
2018
ång
##atta
spelat
OO
människa
fi
yngre
##svall
ringa
ljud
##erier
sällskap
jobbar
##kadem
sämre
situation
Bok
##quist
givetvis
##amn
dollar
##ordes
##älla
##rapp
förmån
##peiska
69
fritt
Thriller
##ones
##RO
sitta
lokala
##skåd
##öld
##lever
##ionens
anfall
ordin
##histor
##US
förklarade
Mosk
Inom
visserligen
intresserad
1995
ekonomisk
Birg
kund
##fört
riksdagen
str
##smin
Vas
##idrag
upprätt
relig
bakgrund
kläder
Ung
##erings
landslag
##sholm
ban
##imul
James
II
##onde
Pe
##ritann
passar
##69
##läggningar
tolv
tomt
hind
oer
##ärare
##bladet
Bern
intill
möte
##lyck
Storb
älskar
##redningen
Lasse
##träff
träffa
strå
intens
grann
Västerås
anpass
##försälj
dagarna
korre
Od
##odde
##omp
51
##världen
pen
visas
William
##tekn
tänkt
##ongen
des
nyhet
##ucc
gi
lämn
yt
kontrakt
svarta
teknik
##ney
erbjud
Bör
Sara
botten
##alle
Port
800
##dahl
##isar
Stat
##sent
semester
ända
##tré
nödvänd
af
dvs
##cken
##leken
Pri
eld
##lir
vardag
frisk
ort
förklarar
lättare
norska
göras
##räffande
advok
skild
Håkan
1980
jobba
Hj
behöva
rädda
##50
sold
##delser
prata
lant
##itys
##äsen
aktie
kg
uppehåll
Mika
aktier
särskild
ständigt
stjärn
Flera
tillämp
hushåll
demonst
tolk
120
##pråk
kil
statliga
Sture
##stiden
Köpen
brittiska
##dal
konsek
studier
##teckning
Ba
##ations
vik
##flytt
tillträ
kraftigt
Väx
regiss
Ska
##ile
79
##set
Storbritann
minns
##ationerna
##skat
##usch
folket
82
##gl
förekommer
överv
Lena
gällande
Ca
##ppet
troligen
\
mjöl
##EM
lunch
halvt
##kra
alkoh
##änning
Hammarby
mej
Rob
Reger
Tomm
tjänster
##mästare
allm
##vall
vinner
sovrum
##äp
##gav
##sidan
##xt
klarar
##stag
##röst
Karin
##höll
gransk
anklag
varier
##osa
spring
räknas
svenskt
##otta
syssels
prop
Gre
världsk
1970
«
representer
##växt
offici
##edom
##område
Verk
smör
##atet
utnyttj
sammant
##laget
rekord
Ör
##marna
##eger
förhandling
kallar
ingenjör
kvinnan
utsträck
##dex
läser
drift
hittar
mob
dog
Utan
ökad
tillfälle
fyr
##hört
Jac
Mål
##tligen
Fort
kli
##ial
rim
=
ström
##sförbund
##erien
hov
registr
motsvar
##ini
Bras
utrym
##rottning
Lou
Östers
##urn
turn
##släpp
##varo
ork
Lill
##områden
främsta
##bol
##river
##måga
humor
lät
behåll
borger
##ningsb
fängelse
bibli
kem
anl
grupper
##burg
åkte
enskilda
lösa
##punkter
intressen
Arbetet
##åningom
dy
körde
överens
kors
bestämt
97
Text
jämn
##skraft
skillnad
##osition
##ID
skull
efterm
Lok
##viken
##då
##gått
##intress
Kvinn
##uts
##ässigt
förmod
arbetsmark
produc
Jap
flytta
enkel
ses
Jonas
fokus
undantag
utländska
sjukvård
Angel
##edit
svenskar
segern
mörk
erhåll
bru
##arb
1993
gat
situationen
86
reda
##jor
prest
##atiskt
otr
##nades
66
##OT
tvingas
Väder
##ställda
inner
varken
##kel
romant
##visa
##emedel
##agg
##strand
funktion
Hennes
##smat
##rest
tak
Park
##kall
##rats
dubbel
disp
##andin
##rateg
super
##ostäder
##radion
##rinnings
jordbruksmark
stanna
Berlin
fly
finna
##akomedi
##sspel
dator
perioden
ankn
##ranger
##arv
##medel
lösning
##spektiv
##sområdet
Borg
##årig
##ättning
åringen
©
Ob
##lor
Kod
Bes
klipp
##ytande
hjälper
prä
ifråg
slott
känsla
relativt
våren
##aktion
Post
##skost
andel
##istik
##ordning
Något
Lång
##strukt
Ast
Polisen
villa
Ljung
Södertälje
kontroller
danska
bilj
platsen
tränare
##isen
småningom
resultatet
skilj
##ieb
##35
##oster
Gäv
##former
Tommy
Pet
utredningen
Spanien
##mande
kapit
Ant
karaktär
värme
##båt
kyrkan
##handlingar
självständigt
lt
ap
tusen
hände
handlingar
##ledningen
jämfört
Mikael
##uft
##ryss
Bu
105
reserv
Sj
##mäkt
väntas
Pettersson
pian
ref
tydligt
tillgäng
og
vacker
Ir
##atisk
stol
92
##ityserie
ager
vers
Visst
##kong
##ansvar
96
##45
hästar
Köpenhamn
erfaren
##ästaren
##RÄ
##cia
slipp
Rätt
##sålder
##vi
##ryt
##ene
annorlunda
titta
misslyck
##anser
##rummet
##ih
Sön
förening
skul
proc
250
ombord
##llen
##rump
nöjd
##stin
utb
skador
anställning
antag
##ane
gräns
utveckla
##tiden
kommuner
process
Första
##ward
kurs
spelet
kompetens
normalt
##stället
Därefter
Direkt
700
##rona
##änderna
##ges
export
##vika
insatser
national
oftast
Volvo
lager
##aljer
stri
Osc
synner
Da
äta
##nal
talade
##rades
hämt
##adens
förlorade
sörj
##ändsk
##ya
##fest
##yggen
##jul
standard
Moskva
väd
Närmare
rock
frihet
kommande
##ligaste
##unde
##ekreterare
utredning
SA
##äger
bord
gränsen
##risk
Sig
##örerna
##yser
tings
respekt
Mån
91
spelas
##ätter
##spelet
##andinav
städer
restaurang
kalla
##piskt
kommunala
Uppl
##ledes
sönder
aktuella
Axel
Ker
log
åtal
##ikationer
resurser
ti
##ändes
##ence
##cka
förvär
dålig
fjäll
Ho
##undersök
jorden
förslaget
Gävle
##förening
lagt
motiver
Film
Id
Gamla
Tidigare
Rolf
##jörn
klubben
##vill
##beth
Värld
Me
autom
häng
basen
##handa
tips
##snämnden
banan
##industrin
tand
bolaget
känt
##KT
rest
inköp
journalist
Storbritannien
neg
kart
privata
Välkommen
ordinarie
sökande
linje
##skande
gratis
Blom
AN
thriller
parlam
##mak
förstör
##ätta
Bri
arbetslös
Margar
kollektiv
##räft
intell
com
teknisk
koncent
stick
avse
fält
stimul
##central
hast
opt
##utbild
middag
##iftet
##fullt
järnväg
kines
##gjorde
Victor
levande
politisk
##komna
sim
##fallet
##ington
1992
framgångs
mid
städ
Både
fåg
etabl
##tering
##entals
##iko
Södra
kamrat
exakt
##ino
##löst
snarast
##hall
ögonblick
report
aukt
##mot
befinner
hört
inre
etc
plast
##irig
medverk
offentliga
rekommen
06
##ugo
världs
##sköter
##fulla
sluta
Tot
##ssons
##SU
##klara
##göring
marknadsför
administrat
Ga
##gas
filmer
##98
utsträckning
Mannen
##alserie
verket
1991
karriär
general
tydligen
dukt
raka
z
kapital
minska
##ros
hemib
##råket
Äl
order
##vand
finalen
hemiboreala
Marc
snygg
Kr
##ländska
##eden
##bolag
##lie
##gjort
bjuder
startade
storlek
Jer
##estånd
Ele
76
##gent
##iment
sån
bos
frågar
##stod
##eth
IFK
##ico
kvinnliga
ost
##kör
vakt
personliga
kvalific
##atik
Sof
##namn
##räv
##ili
##unna
Lule
inspir
71
lämnat
samling
formen
allmänhet
Skog
sköt
##ben
##männen
vari
Helsingfors
KV
Norrland
gård
Fem
krist
arranger
##huvud
##skrivning
jakt
##leva
femte
##enta
underst
##srätt
##ävling
inl
Konst
församling
##gra
hörde
lugnt
##ismen
frågade
##tryck
litteratur
Nik
Mag
##ynn
Got
denne
hyres
försikt
##säg
##egor
undersökning
ish
helg
ambass
Mellan
##bor
##vision
studen
lj
nödvändigt
##ugh
61
delta
utgår
##CO
Lik
positiv
beräknas
##åp
##delsen
Max
tillgod
Island
tecken
förtroende
Savann
##bum
Stud
vardags
Prin
##riska
vand
förutsättningar
##äna
Dam
la
##les
Arbets
Savannklimat
präg
utsikt
FÖR
flickor
glädje
##feld
moln
scenen
##astrof
##ruv
realityserie
bekant
##etaget
1989
##kommit
ordet
följde
pojk
##lösa
mäster
Ali
##ktorn
On
##komma
Frö
##ublik
##enny
##sse
##sons
finner
##skjut
##amål
betalar
nyck
##vården
överenskommelse
flyttade
##alitet
särskilda
inn
##har
Cre
snarare
##upen
##skr
äkten
##annes
Tänk
terrängen
##uden
möta
81
max
skade
myndigheter
##kap
##iven
total
Sundsvall
##ls
utmärkt
utifrån
utform
konsekvens
Wh
1988
livsmedel
sens
Ry
1985
sekunder
cit
Bre
##skon
SP
Ume
luften
Iran
mottag
##junkt
bens
entré
uppfattning
hamnar
överväg
kontakter
Rö
riktig
fönster
Värm
jud
##rivill
Häls
snäll
ägg
expl
Harry
Tje
blandskog
längs
##äft
valde
länderna
öm
Klimat
Ibland
Australien
##sverk
spelarna
##såldern
ryck
åriga
salt
##iled
vägg
Israel
##ydda
finska
##amin
##skottet
funn
##85
110
##iets
koncern
röda
##värde
Sökande
Di
XX
terror
##edde
genast
##eran
rakt
##itz
omgivande
regeringens
##BS
##vikt
##UR
Resultat
##BET
når
görs
##21
ovanligt
Båda
värder
##ale
sjunger
Kommun
tenn
skar
arkitekt
massa
##porter
##äson
##åriga
döda
nere
##umm
##97
Los
oerhört
förh
Norra
roman
##aff
grov
säljer
##umenter
Liding
##ban
lust
##äller
värsta
Met
Små
Göteborgs
konstrukt
##éer
##ännisk
Kalmar
Eskil
Bromma
##rer
trupp
hävdar
##otter
1960
skatte
formul
tab
alkohol
tider
vart
##ancer
Af
uppför
vide
##delar
Fack
##ivet
##olo
##stads
##opa
förvand
##skl
hustru
Jär
##osof
boende
Nation
regi
butik
##hållanden
handling
systemet
färdig
förutom
##isering
Ram
gällde
##93
Oper
##dern
Stra
##ströms
##bi
Jansson
käm
##ty
annons
skaffa
##ställningar
##94
Bur
##que
köper
##ubliken
##riga
Skär
##vig
hunnit
##ebygg
Antalet
##ningsför
turist
Christer
åsikt
##sby
kal
Våra
##gruppen
uppn
angiv
Samma
sidor
##familj
##spelare
saknas
gemensamma
George
Frågan
##issionen
styrelsen
transport
avanc
Ändå
självständ
##ilm
##ställande
omöjligt
försvann
##fe
##spår
action
##bit
Express
##varor
##ilien
##stam
##lagen
Hand
##änsle
gjordes
##elat
##rut
sjukhuset
trapp
##22
Soll
##änna
historien
box
ekonomiskt
fräs
busk
kust
Umeå
betydande
dansk
Linköping
##lander
##vinna
##rument
Beg
arbetade
##rörelsen
minn
##SSON
rub
bekräft
##avdelning
valt
Led
##run
Vän
##gande
ersättning
##risten
Oscar
kong
##ush
eli
Luleå
tjänstem
##ski
##järnan
attack
##ellen
vana
Emil
##oth
Art
Finns
##FF
oms
undrar
matt
Skol
skapar
##icer
##ares
Tropiskt
vackert
häm
artikel
Nat
##eten
1986
förmodligen
lab
analys
naturen
##avdelningen
Schweiz
##gångar
upph
öre
data
maka
syster
silver
hända
jap
##sjö
Ytter
kommenter
uppman
arbetat
Central
##aktör
##schef
##usentals
##nast
låga
politiskt
##fyll
rit
elva
##vitt
##gäng
Holly
löv
##ai
Nyheters
handen
##sbygg
##TE
##ko
åklag
SJ
Thor
Rapport
##förvalt
förre
efteråt
##umma
framgår
##departementet
bomb
##vakten
balans
sättet
##kvist
hyr
##reppet
slutar
inred
Björk
verkligheten
##ross
##ropp
internationell
##anerna
satsa
##sto
##istiskt
Nic
mötet
stann
naturlig
##ission
##ötter
##ano
Tekn
definit
sing
således
##förteckning
styrelse
åld
Närmast
##uccé
##kat
påverka
##mann
europeiska
##igenom
##egel
rapport
pratar
frän
##kunn
sannolikt
Bredden
##spart
gjorts
##åten
förändring
Kin
radi
##ylt
stånd
##ient
Part
Osl
Jord
##ehov
problemet
180
hålls
rätten
skett
tidningar
##gern
##mod
dela
konferens
tuff
tidning
##slösa
##sjuk
kontin
Ko
##llop
##jäm
osäker
Ahl
skolor
hål
##organisation
familjer
##edda
##änger
blom
##ssam
Su
avdelning
##hr
barnbarn
avser
##ARE
tittar
skada
uppmärksam
Kap
##alog
tillägg
Hit
Ericsson
Tomas
stall
männen
##reta
författaren
Lek
##häng
märkt
Mac
##platser
museet
##vention
beslutet
divis
##bär
##flyg
arbetsplats
loss
nedan
träffar
##grän
strateg
##26
Hol
ordentligt
show
las
konflikt
##rädare
föddes
##inger
Klar
högskol
1984
tviv
VD
Löf
##ierade
Kenn
brut
##efte
past
potatis
totala
ont
Hav
##rädd
##ståndet
fyller
Are
föremål
sträcker
##igar
##iering
##34
utställning
Därmed
kommentar
##che
värre
##organ
vågar
Anton
gul
##ago
##ehåll
energ
byta
lade
Maj
angel
förändringar
Grön
dokumentärserie
##läggningen
enkl
myndigheterna
försökt
Tem
Mexiko
##arg
allvarligt
garanter
söm
Ron
åk
Ingvar
sorg
##näs
kostnader
korta
ställde
Förutom
akadem
Jean
##avgift
stål
ryss
lekt
##erial
##sborg
bollen
Vik
talets
föreslår
planer
uppträ
Fre
1987
Rosen
kyl
Jacob
erbjuda
##ftet
##ampen
badrum
stadens
sammanlagt
rena
##ningsvis
##ega
Dokumentär
Bru
##hjälp
åtskill
##lik
##ova
x
##ånad
##otte
Fors
revolut
##84
##estad
ww
Ver
##blom
äntligen
##börj
strand
utomlands
föref
marken
exist
förekomm
Dem
lyx
hårda
arrang
##lay
##cel
##SKA
##öjd
varor
##rift
tyng
kompletter
åskåd
900
styrka
föra
##lopp
##juka
faller
chock
##hund
www
förste
To
##stat
konkurs
##rorna
##örn
##jäll
app
##landskap
läkemedel
##efatt
kandid
mäng
Dr
hänger
##ua
Svan
skicka
trett
helgen
växtlighet
##kost
sonen
##sken
##sar
##järna
beteck
Slut
gu
planen
klin
##spond
kriminalserie
##ole
Samt
militära
Sär
##klund
Internation
bekym
försäk
kult
##sli
minsta
##beroende
##edagog
Fru
äter
mängd
##ii
drö
ax
orol
##derar
##nummer
Lo
opin
verksam
##tas
Endast
vinnare
hall
eleg
Gustafsson
##37
##OCK
ep
syfte
italienska
offentlig
##kontoret
##pr
barnet
Klimatet
##smän
Van
inspel
Alexander
##skiftet
##usive
##sida
##plom
##ekul
##cin
Pol
öl
tillhanda
#
##ilen
##lister
##sverket
omständ
självklart
##start
praktiskt
Gran
Fa
personalen
##iger
##shuset
nark
##way
sammans
krafter
##demokraterna
##värda
##igheterna
ye
antingen
Alf
Medelhav
sur
Roger
##fabrik
träffade
##istern
##emar
##ställt
mo
dåliga
##göra
Strand
Georg
avb
sprid
tävlingen
stry
##idan
nerv
##bilar
debatten
##BER
Ord
##tyskland
##ussen
Halm
funnits
behövde
##sarbete
exkl
halvlek
##eka
strej
spri
Hade
##oma
hyra
synes
Adam
säkra
Leag
##bjud
Hudd
pe
tyvärr
patienter
vägar
advokat
bergig
stabil
tull
##terar
Rock
faktum
Japan
##dagens
starten
risken
##terade
orig
##ré
varmt
IN
sägs
gatan
gemensamt
Hollywood
Sil
Lägg
bist
##väm
##ifte
Upplysningar
Följ
##skoll
##plac
Ev
EG
mell
sovjet
##sex
##86
forsknings
Ren
SO
No
former
kilo
tanken
Ola
##nars
##entuna
Skulle
##outh
uppåt
##skyld
##öjligheter
omt
affärer
solen
##skaff
##atin
vintern
blomm
##stäm
tvåa
elektron
##vapen
##urer
##abel
##unnen
ARBET
Åt
togs
bostäder
Wash
menade
##orth
1982
planet
Dansk
föreg
##87
Fyra
Skåne
Pal
möjligen
frivill
Birgitta
savann
verklighet
Ohl
##natt
konkurrens
Jes
konstaterar
##ärd
##öjt
##yter
allmänt
utvecklas
##stuga
##läge
musiken
morgonen
nyf
Son
sed
desto
åstad
##bler
##institut
vir
proff
studie
förlorat
##satta
Kost
katastrof
##slin
##OLM
##skapen
##grunden
##ragen
Mont
bem
pär
##skrona
##ötet
Wahl
kaffe
##server
Lidingö
##speri
alt
##mo
svårare
dött
gälla
##ENS
##ografi
fortsättningen
bön
##reck
Bol
##mas
framtida
dokument
##stav
ytterst
##kun
##vatt
dörren
lagstift
bodde
##industri
fal
##riktad
Läk
##iro
##ba
ringde
hette
nordvästra
##iek
bast
##etts
##steg
Krimin
kre
driva
hälsa
företagen
##plikt
##estämm
kup
Nob
åber
extrem
tvärt
gas
arbetsgiv
borg
oavsett
eventuellt
##hn
##igger
rund
tunga
fantas
vice
Elisa
IS
##yndigheten
fräsch
##görelse
Engel
##föring
um
erfarenheter
1950
Char
fungera
##ripande
utrustning
##kter
tråk
Oslo
pal
krets
##wn
Personal
skor
##ival
Wik
egendom
##ÄL
diskutera
Ter
organ
##varen
landslaget
Deras
röster
djupt
bom
Tä
skogen
##back
So
student
stoppa
förhör
##stekn
nån
##insats
##LA
##läng
noggr
misstänk
ked
förhopp
Annars
resan
##rollen
nordiska
##ocke
deltog
Bak
##unga
ansvaret
beträffande
##ike
borgerliga
HD
känslor
##EK
Inter
##UN
liber
##sven
Creek
Bal
##ht
behålla
lyssna
as
##litt
gest
##iserade
Mr
##sberg
härom
reag
##vatten
##bas
Turk
##how
driver
hävd
Jakob
EN
kryss
anord
Indones
1975
inkom
glada
##ägenhet
##åter
partiled
##ikerna
##sstyrelsen
kändes
Får
##resor
varv
Indien
##utveckling
##äcken
massor
golf
gud
are
Mäl
underhållning
##dd
möjliga
ledaren
##ssystem
League
tvingades
återupp
Hot
mät
##oren
##örs
rättegång
hann
Jonsson
trum
inbland
Handel
äro
trivs
Boh
exempl
rättigheter
perspektiv
anges
##juter
##ATION
försvinner
Solv
##issa
##riva
##akta
Söker
stift
sysk
världskriget
##sserie
riskerar
ögonen
##byte
Eskilst
Ern
Lisa
oblig
##press
underl
##alisering
sekreterare
Hy
##olyck
köpte
bur
Kim
##ati
##värder
gäster
bu
het
##annan
Sus
besl
##olvet
##stra
enkla
strukt
mel
let
##föranden
lott
##ekan
Ock
##iera
anslutning
##made
Beck
idéer
count
we
repar
Rol
Sex
AT
Tillsammans
allmänheten
Ulla
140
##iskop
Flyg
##äta
tingsrätt
hamnade
##useum
enorm
bror
##own
##ogs
blick
##efteå
##ulet
flykting
Polen
skedde
socialt
bedö
##skal
tjock
assist
Washington
snabba
##sport
##ositionen
beseg
verkliga
gär
Ak
Sommar
Bay
dyk
##köpings
längd
hundrat
rörelse
istället
partier
Plats
##mon
sprit
praktisk
##enhet
##rafiken
##mäktige
sålunda
##resultat
inslag
Im
hett
uppenbar
avgift
verkade
##aliska
statens
##mos
protest
##orda
äktenskap
Palme
##angen
##83
##sgrupp
##freds
##gnos
##sänd
Indonesien
##anst
##éns
Eli
rummet
##gu
slagit
##ikapp
##onder
nationella
uteslut
OOO
1983
ändra
hittade
##idrott
##bolaget
Rune
##repren
tillfällen
avdel
##bur
station
speciella
Kons
teatern
1800
möjligheten
lägenheter
förhandlingar
##visor
torg
##städer
##skapten
kris
Ekonom
fader
##UND
grek
Tu
1968
otroligt
##asa
chefen
##flykt
Andreas
##änkande
ägare
##lö
Tack
1979
SÖ
rutin
medborgare
##icka
##säker
offens
siffror
påm
intressanta
lämplig
##cience
deklar
block
metod
noll
##SB
kvinnorna
##kore
grunden
##IV
OBS
##isera
marg
##saker
##esa
överg
Ru
busklandskap
sköta
galopp
Brasilien
konkurren
Ford
genomföra
##ustr
##skytt
fara
bytt
##park
##problem
##ysning
internationellt
representanter
1981
skönt
##smed
sign
dygn
##föreningen
väld
gården
1976
##skilt
åring
matlag
##ove
##sand
äng
öppnar
##HOLM
Ingrid
normal
Förra
sökes
##spris
bestämmer
##vest
Fotboll
##ield
tf
startar
handla
Kristian
återf
##politik
##inalen
Cup
avled
##sområde
Grek
Veck
innebära
lönek
färger
skräck
relation
klag
Robin
##ekade
praktik
##iction
blott
Eskilstuna
jurid
##ivån
##rien
säng
##miss
##sområden
##alism
Claes
Ytterligare
##önt
Växjö
hittat
stads
Speci
förlag
fäst
fransk
intryck
Fer
främmande
##äppklimat
tankar
##shem
##läkare
mjölk
Norden
njut
Kerstin
##nu
Sel
Syda
distri
vända
minnes
##auf
##74
häkt
bag
befri
##sledare
öken
1971
UPP
sorter
##hm
Kär
olje
Huddinge
##aland
enhet
##sre
hamn
isol
##zon
naturligt
undervis
avseende
1972
##björn
smärt
##försvar
igång
Bergman
starta
naz
majoritet
##vande
äld
beredd
##omt
upplag
##useet
Lör
##sfall
minut
koncentr
mats
##wall
pil
populär
Black
va
still
##pan
kredit
bibliotek
onöd
ämnen
Nacka
planering
##STA
##värld
Star
130
Pass
passager
bröd
1974
##rass
organisationer
rabatt
##stöd
förmed
104
##kv
reson
nied
##ornas
Rick
##punkten
##UM
##öna
förläng
##avägen
praktiken
Sundby
Drottning
avstånd
annonser
starkare
Inget
Nästa
konsert
Alm
inträffade
##kommande
förutsättning
attrakt
omfattning
lad
kvarter
dottern
Sänd
träng
jämte
bröst
positivt
mjuk
kvitt
riktiga
##umt
Elf
##spunkt
offer
Täby
Herr
verkligt
ryggen
utspel
metoder
hjärta
bana
välkommen
Brand
klassiska
Super
so
out
optim
kommunerna
diplom
##prin
Vissa
möjlig
bryta
##taland
cykel
motion
Vilken
##dell
Ingemar
1973
Milj
##jev
##samlingen
ränta
yttre
rörande
##ärerna
##bru
fan
Ever
Inför
##atte
##ugos
##lit
hinder
rubrik
Bild
beskriver
kommunikation
myst
konsument
vist
##oten
byr
eko
makten
install
it
##röva
##DAG
föreslag
Lilla
##oler
Jas
##sförs
Region
aut
##unta
##oga
läst
##läggande
hemmet
recept
dusch
semif
##enad
##ledaren
Skell
Johannes
##ämligen
##delen
figur
Djurgård
återstår
mänskliga
forskare
##to
##elius
västlig
försvaret
succé
##ENT
begrav
ting
samhällen
äkta
##grupper
fördes
bio
##deb
Karlstad
landsk
##aktionen
trevligt
Birger
Öppet
Wester
skådespelare
växte
uppmärksamhet
Fel
Str
ärenden
Jönköping
Gal
Mod
kungen
svårigheter
Sto
uppger
Reuter
människan
fond
göm
Östersund
##rycket
kallad
hat
utåt
gamm
kläd
##DE
segrar
lic
hinner
Christian
Form
undvika
##jort
grep
arab
bransch
Jul
##ental
make
103
inflytande
kampen
he
charm
kulle
ökning
125
ått
positiva
beton
##ebo
kapac
tvärtom
##stitut
filosof
##ubben
SL
snabbare
##bad
Bonn
##cy
Mid
Mu
Hasse
engelsk
ovänt
skuld
##ologisk
Tj
Roy
##trädande
Polis
##dagar
rus
synd
stått
utrymme
förbin
försäljnings
##åningen
gram
fasta
nått
separ
Innan
##röd
bröllop
##ktyg
Vall
##AB
@
snack
vänder
Götaland
lärt
##ivalen
##ele
##dist
##önstret
##stein
##ordningen
olja
vila
##slam
Stan
pan
AD
Bell
sop
Grand
##rinningsområdet
tål
Möj
partierna
Hill
föräldrarna
bestämma
toppen
##priset
personlig
Erfarenhet
stycken
sydlig
##bom
##gås
olymp
tjänstgöring
##arina
ränt
Vårt
anhör
##ani
ifrågas
Sä
överallt
anställd
##hard
sänk
bensin
skadade
motsvarar
Arbetsuppgifter
##skrift
hell
Full
ack
##gäst
Miss
Ly
Gotland
##ORT
##avtal
##okal
##nare
NHL
bredvid
sand
OCH
##eled
Aktuellt
halva
Horn
tids
Ang
##aster
Skriv
hed
helhet
politiken
##sessan
fukt
##ägge
arv
förstärk
##rans
##magasin
##ripa
##domar
Lö
##handeln
Regeringen
Anne
##ägarna
##atorer
##tagande
eleverna
Cap
spräng
stockholm
tonår
Holland
sträng
nordöstra
##99
##försäkring
##fir
##sor
##ovak
regerings
##estern
Hö
##ftar
upprep
##rich
Dina
Atl
##emin
pojkar
skaff
synpunkter
överläg
##isse
unge
##33
Tysk
Kväll
skiljer
Hos
väntat
skak
Mö
##arbeten
import
##ment
##hållning
##pper
##lo
påverkar
ration
överd
##fs
##ome
Jör
fäll
Saab
bete
inriktning
ihåg
noga
Belg
släppa
målvakt
kunn
##byggd
stäppklimat
mand
lågt
stannar
##havare
##änsl
rektor
sant
Ull
Också
gröna
jazz
Ove
Tjeck
Histor
väntade
stämmer
supp
##ior
##akning
##ysande
bedriv
##000
Expressens
SE
överst
Afton
befolkningen
##elin
Adolf
Jim
Amerika
sköter
öppnade
köpt
bott
kapten
##vard
stolt
##äckande
da
##smäss
tekniskt
slutsats
Bad
##sförmed
rok
Hälsing
Medan
##folk
##rock
Kort
lett
##oppa
Sovjetun
Ass
##vagn
Bos
##smarker
##ios
##aken
##oteket
motståndare
fix
##yo
förklara
##entliga
pekar
heltid
statistik
kak
Band
##änsla
byn
gn
Torsten
##urar
##eningen
kämp
ishockey
Vatten
##ela
belopp
Helsingborg
rejält
teoret
1967
meddelade
160
foto
Bank
##smiljö
##egrad
##sal
##bank
##rt
##ited
##fritt
impon
##järt
Halmstad
Pan
##färg
##givning
fiction
bestämmelser
Rid
Irak
Knut
##valet
1977
Air
Simon
Österrike
utök
utsläpp
Nyh
##ögen
Mars
Morgon
Madrid
oföränd
##sbyg
##entlig
rekry
TILL
ringer
syns
ställs
värt
alltmer
##viv
emellan
Rum
enklare
##bered
klarade
##allad
Jones
##bidrag
Jakarta
sköts
pojke
förny
skilda
Est
##tex
grabb
Wien
debut
narkot
fruk
vuxen
konk
##irk
Viss
aning
Lud
samlade
intresserade
##pension
Senast
decenn
##mån
företrädare
##ze
##åv
##orma
##ily
minskar
Lindberg
##rah
oell
##stopp
misstag
1969
arbetsmarknad
syskon
##olym
medier
##orator
##44
##sminister
paket
sånger
##ident
tyder
1978
My
minne
spark
##inspekt
inklusive
##edition
konserv
ladd
stött
FF
examen
##sproblem
reduc
Vilket
hämta
mötte
svenskarna
##landsklimat
Europas
drabbas
kontant
ändamål
misstänkt
rysk
utnyttja
upphör
öde
As
##stud
##draget
##ången
team
sorts
årsåldern
sväng
center
Äventyr
##nämnda
##sätter
felakt
##ask
##IA
egenskaper
Flor
Nick
renover
larm
definitivt
flickan
Ken
Kör
IT
##orld
kop
##ugan
expert
givit
##jänster
Margareta
Brittiskt
tum
röra
##gifterna
flygplan
##atch
##yren
##ynt
##ORG
gräsmarker
##eback
velat
Johnson
##ätte
eventuella
Mus
##eed
kontakta
representant
##raff
##ättningen
##intyg
##ducent
demonstr
1965
därifrån
Na
Öv
sökte
##66
belägen
industrin
Arean
liter
skym
tele
beställ
##likten
cirk
sydvästra
pressen
##vers
katt
##entern
mun
diskussion
Totalt
##tio
Cam
##smannen
##jord
Samtliga
Staff
minus
il
titeln
läck
gyn
##döm
##landa
Hör
dim
flyttar
##prov
##oli
##egräns
fla
anspråk
##sö
Pi
klassen
Dar
##onferens
##fft
Win
##ensioner
någonstans
bröt
billigare
##jar
angående
Kommer
lands
##radio
religi
skatter
##pack
##do
##skans
##etnam
symp
##sreg
nye
vd
instrument
ambassad
aren
ombud
##iotal
hälso
fantastiskt
trag
##sfri
##sko
##ory
utöver
gren
##anspråk
Kent
omsorg
##hi
Tri
Amerikanskt
1940
##uer
Människ
##pool
praktiska
##sla
##kam
##miären
Lilj
##jämt
urs
Ljus
##atör
spis
##umret
elev
behandlas
175
##bal
Mur
Las
spekul
fien
stress
tempo
##ÖN
##ydde
##länd
##varter
##lägga
Pek
entus
motiv
damer
rollen
##GIF
ekonomin
stannade
ställt
bordet
##jande
##fast
Plan
##änningar
##följd
Ott
varu
##LIG
Janne
##chester
##lå
kant
ärlig
Kur
##ärka
sökt
Cal
##lt
mask
##ere
##arett
Stort
##jobb
allting
##ente
Gener
parad
byggt
oberoende
kontors
Henry
balkong
paus
##arskap
sla
Kong
inställning
kraftig
Can
##djur
Rör
Särskilt
Svealand
##empel
ställe
häft
våras
inrätt
##hammar
Stre
##äten
##luft
Kor
##imerad
referens
Gab
##sbolag
##LY
projektet
##formen
handlade
August
##han
##inar
##89
Big
förklaring
distans
170
radik
##sbes
##sliga
avdelningen
##holmen
ledig
Jess
##öck
funnit
Josef
##kes
pjäs
kortare
framme
placering
Västtyskland
lösningar
115
##ofon
gitar
Kro
##hålla
Bag
##bile
##grader
Angeles
##lutet
veter
##EC
vände
kommittén
arbetare
satsar
äga
bif
##itté
detaljer
långsikt
minskat
##urit
hockey
sörjande
Champ
slutligen
glob
##göt
album
Ske
##byg
Lyck
tennis
##olagen
träna
branschen
1966
komplic
förk
Bostad
##usson
SR
avgöra
Gro
matcherna
##eda
fullständigt
##BERG
##imin
finnes
##ovic
engagemang
1900
läste
Tar
##alten
##spolitik
förstod
mönster
##eborg
Fransk
##77
##feldt
frig
Ku
##organisationen
Mexico
##svik
##meter
appar
Åter
##sbe
##ssp
Romant
##lige
körning
Läns
korrespond
obeh
1964
##nats
jäv
gifta
Mest
##skare
längst
##odi
Carol
Hansson
typer
Vilka
temperatur
konser
bråk
Gäst
överlev
##tjänst
nom
tvång
Ref
##aldrama
protester
Nobel
behovet
##sw
##system
mångå
##helm
hänvis
modeller
slit
##ison
döden
##eby
användning
välk
lans
ökenklimat
##engar
mängder
Slott
##mord
chanser
Skellefteå
uppm
JO
##äge
läro
inbjud
til
ledamot
handikapp
kinesiska
rån
##domen
lagar
betalt
##vor
förbundskapten
Kurt
##efull
flertal
skärgård
Alger
organisationen
##elset
bjöd
betraktas
Trans
officiella
förvar
tydlig
##ians
1962
möten
präst
##ätet
orkester
lövskog
verkstad
presidenten
vild
fruktans
spanska
##iella
nytta
kalk
anslag
Sofia
mobil
kanal
Bob
växa
Science
Boll
uppleva
tillfreds
der
##pat
döma
sö
säk
köket
tvär
Bi
skytt
Ess
##pot
servic
®
Resultatet
1945
##sbanken
Afrika
sjuksköter
##ALL
styrk
texten
försvars
kniv
Hal
beslutat
Real
##ibet
förfog
She
Trump
tillsyn
##elj
##itioner
flott
spara
profil
##blå
##ederbör
##ose
##stan
Charles
föräl
beslöt
1000
hygg
effektivt
##ningsserie
Lindgren
trafiken
bära
fordon
##bec
priserna
Göt
oh
Leon
Grekland
nyår
##agnen
ändringar
alltjämt
kansli
Juli
350
##ota
reportage
##kopp
##dat
värn
ytan
##SV
tämligen
§
##fisk
##idar
##branschen
soldater
gränser
##amman
aktuell
hörn
##föra
problemen
Kam
händelse
kill
Falun
gymnasie
identif
##sförmåga
pressk
##enomen
poliser
talat
integr
United
förlora
##erv
##sekonom
Lär
argument
##SUPP
väsent
##din
inform
tår
träffas
##pade
profession
dirig
Smith
mäkt
paret
him
avsikt
samord
##vetenskap
nyckel
NY
KVAL
ky
##splatsen
##ffekt
##GIFTER
räd
Börje
Roland
tfn
##NINGAR
##uder
överklag
SD
hästen
##lov
kostnaderna
Scott
tränaren
levde
tjänar
Argent
höja
##föränd
kört
centralt
stadsdel
yr
Marcus
Lad
Ej
överraskande
Tob
tittade
##ammaren
fylla
185
Kalle
##ebra
dras
##såt
Mina
Dis
mår
##supp
##tida
uppgick
fre
XXX
##sväg
##verkets
Cor
##banan
deltar
tjäna
##lagda
##DER
##onger
##öden
##ugoslav
Gi
Teh
bib
##arter
mästare
båten
##rey
##ikern
##rädet
Albert
£
##ELL
##budet
Halv
ARBETSUPP
hållit
hellre
jämförelse
##kamp
missbruk
##OMM
reste
##oo
##loppet
förhind
studera
##UL
Tw
##UT
herrar
mordet
position
trygghet
##kass
fing
mik
##omål
språket
##sstil
##fa
##ange
Filmen
##itionen
pedagog
tjejer
legat
tycka
Nä
##62
##sättningar
allsvenskan
Lager
##temot
##ders
Borås
grav
##vida
uppstår
Ia
Off
##ANS
##fé
ansträng
reglerna
Flick
##oka
Staffan
färre
följt
Stör
##berga
dispon
1948
102
##verksamheten
savannskog
Bab
säkerhets
aktiva
III
##osten
nådde
##tra
dal
##eteck
önskemål
stam
händelser
##arp
räknat
priorit
##unds
allvarliga
konsul
konstigt
grundläggande
jur
##73
HK
Elisabeth
##sky
tjänste
Ryd
stilla
herre
ARBETSUPPGIFTER
vass
Norrlands
##jt
tillväxt
Ven
byrå
rolig
sändes
åtskilliga
Guld
ständ
Goda
Gri
tillkommer
därpå
##ägna
kosta
tillåt
Hitt
intellekt
Ännu
##löp
yrke
föredrag
trea
##uth
1963
frågorna
maten
hyre
dramakomedi
##rol
porträtt
bedömning
Kall
stab
underlag
Univers
Sollentuna
ansiktet
objekt
##stolen
South
ordna
ingå
gammalt
väs
Försvar
Zl
kombination
##boken
##ipend
##fram
sprang
historiska
påstå
SAS
ansöknings
Glob
utseende
förråd
##chans
##ugga
föreningen
termin
Qué
intro
utvändigt
STOCK
Tyvärr
hantera
fakta
Sydafrika
piano
##mässigt
Ön
Rod
förefaller
bidra
symbol
BB
Familjen
##räkt
##osaik
Mos
iak
##listan
skal
tävlingar
##endens
Sista
kuver
rec
miljön
Ernst
Emma
heder
presenteras
Problem
##anny
kategor
##lekt
kvinnlig
##rubb
bre
Québec
##ÄN
Samuel
åberopa
dömdes
uppfölj
##yper
Bengtsson
##konst
##bu
fattig
fantastisk
ho
löneanspråk
##fi
Arm
Mi
Back
##ocken
förbättra
##sform
sinn
##gärder
Sådan
sjöng
arbeten
Lindström
##efilm
##neringen
Hum
produktionen
Ras
##avor
bägge
dyker
flex
##sätta
Teater
##staka
##kas
ansikte
##ti
Strind
agg
Ell
##ATIONER
tufft
Chris
Turkiet
##udi
Mell
Odds
golvet
##anke
present
ku
##middagen
##umman
människorna
Dramakomedi
BO
turk
uppgiften
Sjuk
Dock
höstas
Teheran
Intress
analyser
Coll
påpekar
##esten
svenske
##teras
Pär
aktivt
arbetstid
orden
##skra
affären
storm
taket
##ågor
Bryn
berömda
händerna
blommor
##låt
kompis
Annika
möjligheterna
##holms
est
kapacitet
##sommar
##ÄLL
löneklass
tunnelb
How
Chile
vänd
Skandinav
traditionella
hjärtat
##ghan
Fac
föreligger
musk
neut
manliga
##estin
skyldig
##STER
rader
Papp
telef
##skamrat
Troll
##IFIK
exemplar
##änkt
Zlatan
journalister
Inlandsklimat
utgå
##ower
skydda
##bör
##ävlingen
UT
vardera
##bundet
Manchester
socker
##teatern
fantastiska
trevliga
lantbruk
regnskog
##pre
tränar
trav
bearbet
ansvarig
Yng
passa
smitt
##ammant
##ÅR
Må
##ikat
##inte
omväx
oeh
Gunilla
vädret
Wood
Råd
speg
Pop
STOCKHOLM
leverant
sty
Linda
##ämma
låtar
##styrelsens
hom
AV
israel
##träde
döds
grip
##agan
KVALIFIK
Statens
Röda
##eli
populära
avtalet
rött
##tåg
besvik
lid
tvivel
Häll
##givande
behär
ler
generation
##terat
##arten
##smorgonen
Läs
Marianne
##bon
##ämnas
föregående
##ón
dyra
undervisning
tav
##edöm
världsm
anhöriga
speciell
1700
propag
slipper
Rek
invig
tungt
bidrar
garage
slippa
Helena
##obby
sånt
hemlighet
amat
grepp
Bakom
patient
utrust
##96
innebar
billigt
deltagare
intresset
ori
hant
##ament
beund
ten
countyt
Christina
företagets
##steatern
lagom
Finans
vardagsrum
##offer
101
Afghan
acceptera
kriminal
##äkna
hej
##övd
dubbelt
utdelning
planerar
##43
##ätten
familje
##komsten
gre
minuten
##fria
levnad
##yft
sjuka
Patrik
gamle
##esi
##fota
kommersi
lördagar
isen
FR
titel
typen
##sfor
##rull
##vind
##rörelse
Vita
expans
##sna
Polit
ämnet
Klock
Bosse
nätet
Franc
##just
1947
farligt
##besök
meningen
King
Sovjetunionen
##byrån
Dans
eftermiddag
cigar
##änts
läkar
##bana
dar
förutsätter
förbjud
AP
##fråga
##desdag
##pi
synnerligen
##innande
##ningst
pågående
##aks
tion
##ks
humör
Ivar
fullständ
cancer
verka
omgången
Förvalt
Jenn
Samman
linjen
utföra
##ogör
Bod
##sprocess
Hr
##vete
##äser
Tony
anbud
slåss
värden
##oman
skivor
studenter
avsked
transporter
bevar
##emb
kommunens
##risen
demokrati
Klass
åtgärd
norrut
meddelar
##dalen
##stens
##amerika
DET
##ito
söderut
eftermiddagen
holl
deleg
sekt
##ario
befann
##fordras
valut
##värme
undersökningar
Stureplan
efterfrågan
##ypt
investering
utgångspunkt
##SP
moral
andre
uppfyll
möts
Blir
##värdig
Victoria
Vetenskap
värm
Ap
upptäckte
##direktör
nämnda
Inne
list
blyg
Brun
flyktingar
not
bestämde
mosaik
##heim
golv
förhandlingarna
Barcel
Gull
uppgifterna
instrukt
mäst
##text
växande
listan
berättelse
##cer
livsstil
besöker
blivande
varvid
Tex
förbud
greps
##varon
frans
##ming
bekväm
tåget
Vietnam
talas
Leksand
läsare
viktigare
##sång
distriktet
antik
presenterar
KVALIFIKATIONER
cy
##78
underrätt
##frik
dan
dagligen
##umer
Jönsson
##LO
Stats
##cyk
upptag
uttalande
Precis
ställas
##maskiner
##bäck
byte
Folke
##entyr
Dist
arbetslöshet
lind
Hult
##fältet
signal
Västern
##sfl
duktig
ug
##veckling
##skador
##häst
bjud
krävde
försäm
Johnny
lärar
##HI
Bilj
laborator
doktor
Kol
Käll
utställningen
##visningar
Lib
förbundet
Helt
Jörgen
experter
##mö
entrepren
##ttag
##fund
mom
UR
ägde
114
skadades
kurser
Jimm
ställen
##ual
##sbank
Pier
tappade
äldsta
##rekord
##oker
##ommun
Hk
resul
Arvid
lägenheten
gill
skapat
Kanadens
##värdet
Dels
sensation
presskonferens
Fråga
påbörj
Brit
Lee
Des
somras
körkort
##ämpa
Göta
skjuta
avslutade
##komedi
##hämt
Pres
##skontoret
hårdare
##eph
splitt
Västerb
utarbet
otill
##betyg
Lotta
Villa
##kring
##skij
Bergström
pröva
utvid
##assist
skugg
osv
Norsk
rymd
##afé
Årets
##jälp
cell
##jerna
##takten
tjänstemän
konstatera
Karolin
##öje
##handlare
nä
övergång
samarbeta
utbildnings
skift
##kons
regim
lätta
inledde
slutt
##71
Jane
personligt
1930
Bul
medverka
asyl
försvara
mons
tusentals
##äventyr
Skansen
##slöst
rost
Vä
##stör
märks
Sundbyberg
soff
##osl
centimeter
##berätt
##ankar
##regl
upplever
söndags
förlorar
Kun
Ragnar
##liss
##etto
lysande
långsamt
Mass
##fartyg
1958
landsbyg
Nära
##värden
kulture
jobbat
##antz
##reger
enstaka
##ivis
skillnaden
##AK
##mäss
##eds
persiska
##cr
armén
säljs
Tjänst
tätt
112
Östermalm
ursäkt
##skall
svaret
##stillstånd
dotterb
löner
Företaget
##byggda
härlig
skämt
##ots
hor
##ifest
nödvändig
metall
Afghanistan
Konsert
##uttit
verktyg
##förbruk
##eland
##sbr
betygsav
penning
hundar
skrattar
##LI
##saken
##föret
hemmaplan
statsminister
konsult
kram
##skolor
löst
Bas
arbetskraft
närhet
Il
##spark
##onym
bolagets
##pröv
Näst
##ehör
Louis
drev
##seln
Allan
beredskap
Hu
##kår
Ib
Sträng
division
1961
butiker
lönegrad
giss
styra
1956
kärleken
Com
frukost
hemm
##duktion
bon
Kval
musikal
##äter
skickar
##ämmande
DD
Utredningen
Tjänsten
##yer
tjug
skapade
Läng
benen
##kär
index
Solvalla
femton
##sholmen
övertygad
Jäm
Mill
åsikter
reakt
artister
stört
bjuda
##sperson
biograf
##examen
garanti
##äsk
##andets
VAR
Linn
strä
mandat
firma
neder
olj
##politiska
##tals
Svart
rak
##laren
landskap
stack
åldern
##skas
fastställ
##lingarna
killar
##lön
samverkan
struktur
Bang
##igan
##nastik
fe
tales
allsvenska
orkar
Bon
Pers
begrepp
Charlie
kaff
omsättning
tvungen
perman
Cro
##komp
Författ
skadad
trott
sägas
planerade
uppenbart
##segr
##rigt
Kevin
SvD
##dam
Framför
rika
förde
Kab
bevilj
använde
konsum
version
Amerik
skand
artist
##tan
fortsatta
Monica
Syrien
Alfred
inkomster
##byggnaden
dragit
älskade
Expekt
Lundberg
Gall
##grens
Häst
delarna
##jk
##edon
##erner
granskning
stimulerande
##arier
föreställning
Tele
troligt
stiger
läkt
delas
1946
Västra
kusten
Väg
Unibet
Pelle
Sör
räcka
##istiken
minim
hänga
##ado
gentemot
##mästaren
##behandling
##anal
tillverkning
lördags
design
hjälpte
avd
ÄR
bilda
synnerhet
##snivå
##iforn
Katarina
Sjöberg
kärnkraft
anmälan
##amerik
Tal
##lust
deltagande
##okumenter
kammar
springa
##sikten
framträ
##svar
##ERS
hemliga
##åta
##ieras
##nären
##emanget
##ikop
uppst
elit
##korea
##sförbundet
utbildningen
Sun
##skede
##isch
##mofon
marknadsföring
ligan
Niklas
##92
medverkar
artiklar
dyl
Jarl
missn
##ytning
Fler
##sporten
##krets
brotts
##ail
Hopp
##mus
##win
urval
tillhörde
skylt
ambul
##eko
##bileum
sat
##flyttning
##äsongen
befäl
ät
kond
Ungern
##släget
träffat
Ohlsson
posten
Karolinska
##redning
##ids
1939
##uterade
Senare
Norrb
##ärta
gifte
kämpar
Louise
##edig
Aftonbladet
åskådare
Åsa
banken
tagits
##sförvalt
känslan
lapp
maskiner
damm
vagn
kongress
förg
Visserligen
##ATT
##undersökning
lediga
sällsyn
bron
##rett
##flick
##skontor
Skepp
fira
##borgar
##politiken
##ous
##äkten
vederbör
konsekvenser
Teck
kräva
bestående
lill
effekter
glömma
##atts
##omedi
suttit
vett
1944
##fru
Går
Kyrk
låtit
låna
Veckans
ers
##sklass
1949
##EF
uppgav
##sverksamhet
Ri
underteck
##byrå
skött
beklag
hustrun
##skött
lastbil
##aktiv
hk
Jämt
städsegr
##por
Hanna
städsegrön
påtag
ru
##88
##fald
Inger
##sprojekt
span
brygg
dop
polisens
omgående
fyllt
##öjtn
ändring
##stark
Mary
arbetsgivare
byggnader
##villkor
prins
värnplikt
diskuteras
##förhållanden
hållas
arbetsmarknaden
##elefon
Skott
upploppet
Mun
Bot
##personer
Charlotte
SC
armé
##affär
beskatt
##imme
iväg
årsskiftet
Mattias
##kurs
barndom
##ässa
opinion
hekt
exklus
rösta
Skicka
Trev
läggs
noggrann
##oy
##anmäl
byggdes
109
Sin
domstolen
##erg
##foni
släppte
inser
##spolitiken
mi
vägrar
rapporterar
city
heta
Philip
lut
Hej
Hass
Visby
Cat
##skräck
##ergi
kommunist
##tv
Hugo
Marg
##onten
bandet
tempererat
anmärk
Lite
Jud
##oklad
stycket
Industri
Malin
dåvarande
bistånd
##aså
1952
##okaler
bakgrunden
civila
bedöma
ryssarna
bekymmer
##ssammant
##oro
civilingenjör
Lab
dygnet
Tall
lovar
tilldel
skepp
lita
allvarlig
aktiviteter
OM
leende
Barcelona
sanningen
##litter
använt
tjugo
##lösning
##fel
Säker
sjunga
##ycken
därtill
##IC
##sund
betalas
halvår
Forsberg
##ORD
##gränsen
##ärkt
##resan
Rab
föreb
begränsat
uth
lasarett
prognos
brister
sekund
##isken
Lug
singel
~
##iset
tillgängliga
1955
##AST
olyckan
##bell
Färj
monsun
dagars
my
##anterna
socken
1959
Vikt
nödvändiga
##jon
##placering
##mät
moms
set
1957
##dö
Dra
Erbjud
normala
påminner
Torbjörn
Medelhavsklimat
Blå
ledamöter
politikerna
Nyheterna
gemenskap
klätt
samla
##län
##UD
utlandet
##sgård
Joseph
Dre
fa
2019
situationer
Ac
##stä
Kaj
toal
detsamma
sår
vården
##OND
Joe
##match
Argentina
##förbundets
Hittills
kapp
IV
yta
up
kontra
bilderna
##förklar
##ifikationer
reserver
DU
##valda
kännedom
Ofta
Lätt
Frölunda
okända
tävla
rid
sjönk
bäste
tyg
magn
##hagen
födels
samarbetet
löpande
sjun
##uropa
avdrag
##jol
Rh
lärde
sedvan
##tok
##odell
Ungdom
naturliga
##rage
ensamma
Bog
medveten
##rustad
##inneh
framgångar
Rio
Fir
##centrum
opposition
App
elits
skinn
besöka
##oher
##liggande
##oritet
förfogande
kompens
mys
hud
##speg
##iast
hjärn
vilda
boreala
omständigheter
##skolans
##öckerna
##55
##immel
##enda
sänder
sovjetiska
katol
spelades
##åring
berättat
motsats
målvakten
##hjul
##redik
##ÖK
framhåller
plocka
ägna
månaders
Åk
manus
##eståndare
strålande
Barbro
##sbild
kritis
Mör
##försäk
##projekt
ränte
##tagare
##smöjligheter
tidningarna
tillträdesdag
digit
smula
demokratiska
##LYS
UD
mekan
varma
Karlskrona
mörka
Williams
##nis
Serv
##ese
##bryt
ihjäl
##rets
##kak
webb
Belgien
##partement
sekel
##verken
behag
marin
elegant
Fant
användes
bastu
sej
Ark
##anderyd
smäll
By
##ektorn
##ologiskt
tillgodor
orätt
##vux
molnighet
förmögen
korn
##verige
Allmän
##savgift
därvid
mellans
legen
upphov
##OS
befint
monsunklimat
##ymer
##makten
distribut
Affär
sval
väsentligt
##RIS
grym
##kant
##stri
##iebolag
dyrt
##rel
japanska
tvekan
republik
Tillträde
sken
##orgen
Portug
sänds
förhållandet
partiets
extremt
##gat
flit
officer
krigs
Rein
Cast
##STR
meriterande
sammanfatt
lider
##uvida
flagg
skulpt
##91
docent
styrels
hoppade
pi
Sören
##kyrka
Pia
gall
##schefen
samlas
tidig
fenomen
##beck
aggress
ljusa
Top
##ödd
byggas
ansågs
kampanj
##emi
Ze
kav
centern
##må
begränsad
Camp
utredningar
##produktion
##stil
romantisk
ange
falla
Gabri
grovt
##onerande
##47
##usin
fattiga
Stock
##delsefull
förlägg
förvån
tidigaste
##erska
ämne
bildades
##ses
kla
lit
försäljningen
Ditt
##räda
Färg
##äsning
påst
Patrick
##märken
invandrare
Plötsligt
##orerna
frakt
departementet
räckte
näringslivet
omväxlande
dyrare
Berglund
utomord
uppgår
##ilia
Hägg
##amper
##hlin
kross
riv
smal
redo
##sig
Fo
hölls
hoppa
matem
##bba
Rud
vänskap
smid
##heterna
skiva
avläg
lycka
##ubbar
pratade
Kungl
##karna
deltid
ooh
teat
lyssnar
skit
Söndag
Steph
kraven
källa
påstår
##igga
##fon
fröken
##agatan
##ågs
Mick
koka
##vir
##bruket
konsten
##ugor
tillfället
dro
Järn
##omen
Pen
inlägg
##shistor
PR
narkotika
etapp
hittades
##di
föreställningen
##delserna
förekommande
Frid
nöjda
##ril
McC
Danderyd
regnskogsklimat
##asing
Lis
investeringar
##ÖP
##station
##ostnad
SS
hantverk
##xor
måttlig
sömn
Mount
def
sli
parkering
fp
##svård
##real
##48
utnämn
##äsong
UPPLYS
Otto
märkligt
World
##aker
##frihet
1954
1500
okej
utslag
avvis
båtar
vall
##teknik
##listen
##hallen
Made
erin
idén
obehag
##ues
##EG
stödja
##alin
gran
Fi
##lista
##ografiska
förvärv
##rup
##lagd
gästerna
ideal
värdet
##ovakien
lyft
lämpligt
friidrott
söt
anför
KA
önskas
Liksom
##trafik
huvudstad
##förvaltningen
##vap
vägrade
Barnen
hindra
Världens
Tyck
uppenbarligen
##artik
illustr
revolution
återigen
##linjen
Gold
Trafik
blandad
Que
##iler
undersöka
länet
riks
##akar
##skurs
begäran
Arsen
specif
medalj
islam
biljett
Kristina
Färjestad
Hil
tillfälligt
##ädret
Magnusson
##öpart
strejk
BR
pastor
fördelar
retur
kastade
säljare
tävlar
##riper
föreslås
intellig
MED
##adels
##rädande
075
##hal
flexib
relationer
##olja
1951
Tan
##lär
Americ
befattning
förverk
streck
tillbring
Bilen
pappers
Naturligtvis
karl
Egyp
spr
mamm
sjätte
ag
##sstyr
nick
Bäck
Arn
##sföretag
orolig
nyss
magasin
kapitel
Klara
ärendet
likt
##ppen
erfordras
livs
pojken
målen
förväg
förändras
Sälj
Småland
strål
Anita
##försäljare
laga
##ee
##ART
visning
belö
##röt
hamna
biskop
1942
sänka
Center
##skningen
våning
UPPLYSNINGAR
Harald
inleddes
enorma
Sing
Mora
högtid
oc
matplats
Edward
##junktur
dubbla
##ki
inspekt
miljard
verklig
risker
växel
ämbet
dum
kraftiga
roller
sända
bitar
##ariat
förståelse
##räden
mäss
Agnet
##tokoll
Curt
Kra
tillför
passagerare
maken
Cec
##ssjuk
ansvarar
omgång
störst
spär
Kontakt
Erot
likvid
ali
##jas
Mått
Nam
latin
##ullar
##trakt
Lew
liknar
Egypten
##ÄG
hiss
##ysare
##onser
##spar
##terad
barns
##ödande
dokumenter
stranden
##agt
mäste
System
marginal
bryter
Profess
##ws
hamnat
däck
uttrycka
lägsta
reform
Hälsingborg
##ters
##38
kallades
##365
dl
##osex
Donald
slaget
deltagarna
##ase
rapporten
Tag
##ycke
mott
##mosfär
kolleger
##manna
##skåp
mans
##görande
mild
irri
redovisas
1953
Julia
Huvudkontor
syftar
##skriften
bia
Gyll
##anson
ingick
##ländsk
##das
##attan
fågel
##klubben
##DA
garant
kritiken
åstadkomma
##hov
påverkas
släpper
##fäst
faktorer
##stor
##priser
ved
människors
breda
fatta
##ather
##cipl
Märk
spetsen
komprom
##partiets
bränn
resultaten
##sefter
Dor
påsk
utgiv
##juden
akut
##ågen
varierar
insänd
##orkester
Jenny
##smagasin
veckans
blank
intag
##krig
subt
##omröst
ordföranden
vetenskapliga
##kväll
återvände
pigg
angrepp
Pu
##erby
engels
förebygg
utsatta
intr
sköna
plåt
##shövd
spik
punkter
##ssätt
äpp
##index
Eklund
vinster
Vit
Astrid
leta
##moder
Grund
##rus
drabbats
österut
datum
barna
undrade
##utrym
##fång
avvik
likad
uppmunt
##arien
fynd
##vägar
##ves
DAG
##skrivna
lokalt
##fort
##ifer
Dramaserie
dekor
väntan
##uf
ansvara
##skatten
bostadsrätt
uppges
fett
radion
Salts
##ogg
Mas
truppen
sammanhanget
##sbolaget
överläm
##räder
puck
införa
skrik
##ugen
Sar
opera
inrikes
aktuellt
parall
Rep
##vecklingen
Liver
förvaltning
Före
##39
lista
gestalt
yttrande
skönhet
AM
näring
Love
##iljan
träningen
restauranger
##sspelare
fastigheten
ramen
hållet
skickas
##shand
musiker
##strå
sjukvården
begära
##sj
släpptes
1941
eröv
##författ
kontrollera
##ruck
##aufför
##illkor
syst
##präg
begåv
Fisk
farliga
förordn
Krig
genombrott
Priv
grekiska
##gt
spåret
##kläd
sakkunn
Gunn
samhällets
##almar
kristna
##ekten
inbör
sålde
##ssen
palestin
reaktion
##kontakt
övre
skickade
medföra
utrednings
länsstyrelsen
##ima
tillämpas
Hov
Snabb
hotar
##YR
##mad
##76
tram
##öväder
Luc
##rens
##rogen
##iverse
dricka
##andid
National
premiären
##ffektiv
nämnas
Hotell
##runa
Lindqvist
IB
synpunkt
##elson
dödades
personligen
möbler
##SM
Dalarna
##ytor
##ytan
##banken
marknads
minnen
##ymnas
läkaren
handboll
fredags
maxim
utfärd
barfota
##smet
Snart
##speriod
##rädgård
läggas
##god
Åker
bädd
##ums
tall
##die
##nads
##ssystemet
tendens
frik
kasta
SF
Nästan
KL
Einar
Fick
Sarah
War
återvända
beskedet
Viktor
Dubb
Bost
##bilder
human
##duk
backen
##ife
Ox
byggs
##betalning
svär
##böcker
Green
negativa
##ägaren
##sås
krön
Gill
##handlingarna
beskrev
Boy
##backen
1600
##lings
anläggningar
Tran
berörda
Kvar
Havet
bränsle
tråd
kvällens
##uru
##sfullt
hjul
##mun
##tyska
##åts
##72
jämställd
EX
tob
garder
minskade
skolans
Natt
##atorn
##arin
tidiga
sektorn
##etiska
Finn
##VER
krog
upptäcker
##ekreter
lax
hävdade
konstnärer
##ögon
konstaterade
explos
omtal
snitt
original
regionala
farlig
västerut
uppnå
premiärminister
##iansen
rörelsen
avlopp
korrekt
knä
animerad
Falk
lyfta
talang
kompisar
##fordran
fastigheter
##dor
utrikesminister
##nämnden
##OK
landskapet
betyda
dök
kvartsf
Les
lagstiftning
Studio
##linjer
Jason
##försäljning
flertalet
##sätts
flyttat
upplevelse
##ischer
##taget
Dramaten
schweiz
##ikten
##regel
Häss
Seger
##skur
Gär
härmed
försiktigt
ment
##sgruppen
mr
understry
pul
Jugoslav
Frisk
identitet
Bryss
ris
besökte
##acker
nomin
dotterbolag
Cru
##IST
North
##avoriten
stjärna
stryk
Bort
Wilhelm
##rill
nätt
ersätta
Mår
Hjalmar
folkpartiet
##sbil
oväntat
föga
administrativ
##stern
Clint
##uvern
blad
producent
##lam
Lundgren
potent
antagligen
saknade
##äckar
Pern
brittisk
##skick
Arlanda
uttag
Chic
##jäv
friska
Bosn
förluster
roliga
##täkt
Teg
afrik
##sbel
##hållande
1920
Visning
flygplats
##värm
Brö
medlemmarna
planera
kallat
administrativa
Davis
häll
klubbar
hop
##uba
parlamentet
fris
##länderna
unik
fångar
##ALM
dörr
mur
texter
imponerande
kommentarer
räkning
Liverpool
mestadels
##79
självfört
sänkt
CH
Law
önskvärd
##INN
tals
slutat
Hund
##yndigheterna
##stick
stjärnor
betydelsefull
Samling
undersökningen
hinna
##alom
skatten
väljarna
förvir
kostade
nack
##ologen
##anjen
mog
tappat
Problemet
dryck
##gilt
textil
därav
leverans
##36
kid
Brook
arrangerar
tillträde
##använd
##ques
##förslag
##historia
##kamrat
förtviv
bokstav
näs
choklad
diagn
##esp
Mol
##sbok
delade
statlig
enheter
stallet
##TA
Pas
##annol
##HET
##skop
krydd
nyfiken
fackliga
kamrater
##kvarter
MAN
unika
Mann
Hotel
repl
Hud
missade
##bot
tok
##smöte
##sy
Klart
jätte
avancerade
rese
nåt
trium
pack
behör
tjeck
fältet
Sem
1943
kanadens
Dick
spän
##rine
status
Moz
intensiv
äkt
smyg
orienter
##löf
Cas
##BORG
Francis
tråkigt
lugna
##försök
suck
##sförening
##ulär
skam
maskinskrivning
##utrust
##spass
Street
##hället
ansl
ugnen
befolkning
##räg
väggen
##enterna
##derade
Visas
lukt
##ovård
##direkt
##82
tuffa
utsett
##asen
Columb
redogör
norsk
Sveavägen
kravet
106
vandring
Värmland
fascin
mulet
korrespondent
Löfven
besvar
##usse
Gram
Bränsle
Söderberg
##sökt
##kläder
sova
Kommuna
Rön
##ämplig
##ray
beteende
budskap
##ebook
Tyres
##ÖM
##ssammanträde
obet
##administ
##nens
##line
##iserad
Alltså
brukade
morse
Ti
turné
Rås
##bandet
Gott
Lunch
Elfsborg
klarat
kollega
framstår
##redaktör
PÅ
Va
välfärd
##vil
##växten
##kunskaper
BAR
operation
ögat
##skriven
beredda
##cir
##ärenden
Simp
Sådana
dep
ljuset
obligator
vån
fungerade
självmord
##andena
Gh
siffrorna
Ekman
Jessica
Blanda
föräldra
stul
magen
Kök
Idag
Bryssel
presenterade
partner
gator
Open
Ellen
##rink
neutral
därigenom
Tam
Nyg
##höjden
turneringen
##sbyrån
tema
tyngd
dennes
##és
Seg
British
Svea
450
läroverk
brå
Tors
anfordran
Pont
##war
bredd
klassisk
##igande
beslutade
peppar
världsc
##amot
##storg
##ville
utk
njuta
##angel
årligen
rot
enskild
åkt
raden
Sju
##poj
Doug
uppgörelse
psykiat
friluft
##äde
##filmer
Tekniska
bosatt
##här
Ross
Poj
##raden
IK
##ibland
studerade
desp
flickorna
kärnvapen
Sänds
bryr
Hitler
Bat
##ingens
##olas
##bek
##oph
tydliga
##inda
fiske
##yström
##ösand
Tore
besviken
lycklig
Jens
##eställning
Chef
##sbyggnad
Beh
Romantisk
misstänkta
Omkring
fotbolls
skogs
fåtal
intervjuer
##uppgift
andelen
lju
Sjön
##ämnd
strider
seriös
tredjedel
löser
Koll
tekniker
135
##agraf
##ARL
HV
prick
enormt
##uge
Zetter
anställnings
##ligheterna
besökare
##tur
byggnads
Syl
karriären
byggde
brun
##förb
batt
##mäst
Sandberg
Lika
satsning
##organisationer
Slussen
Alice
##räkning
Seb
värst
Ivan
sjukdomar
Mig
stämning
spont
träffades
##apar
##utredningen
familjefilm
Ray
##marknaden
ändras
belast
##händer
förekomma
Ålder
förvånad
hotellet
##asy
hyresgäst
##material
Kronor
##edin
Sid
väljare
pjäsen
rökfri
##sbron
barr
##oppar
redovisning
flyger
##verkar
midsommar
Nordiska
näringsliv
kvalitets
inåt
##älling
sakta
råkar
framgångsrik
##havaren
ursprungliga
##akes
##gjord
Herman
Fe
PA
##star
kne
sålt
Sång
iv
möttes
Meddel
stycke
Teng
##ador
lök
Klockan
##edy
Denne
##wan
##planen
vanligaste
##anka
Chelse
Båt
Nordin
Befatt
##dda
dagliga
##ania
kämpa
parterna
olympiska
##ningstid
framöver
domaren
Sak
daghem
Times
troll
##tagarna
koncernen
##ero
svaga
##ordförande
kej
Härn
krisen
sjunk
##ittle
##ube
steget
##alvård
intet
##OG
fä
Bach
##milj
härligt
Anledningen
##oar
vinden
jobbade
##handlingen
kvalificerad
fulla
vågade
##BY
avslöjar
##iana
113
snick
##utin
ryt
##bul
modellen
Kenneth
##årige
Motor
informer
ungdomarna
Roll
Ish
avslöja
##försörj
Lokala
Liban
##papper
Bruce
Agneta
gula
##eget
##umba
råkade
kristen
##kapten
inblandade
gjord
Kiruna
gravid
erhåller
händelsen
Jennifer
##ibliotek
##02
##akim
förberedel
kalkyl
##aton
kretsar
sil
Mike
administration
##produkter
tvingats
pålit
sysselsättning
Sant
Kust
prövning
Fager
märke
stav
statsministern
Livet
##programmet
Företag
##sfrågor
##IM
Yo
Död
##spolisen
Nytt
Jar
väldiga
förrätt
förnäm
##orton
tidens
Lapp
dej
##skommun
Trav
Cra
##81
åklagaren
förhindra
mästerskap
rens
föran
##villa
##ituationen
Priset
sistnämnda
proffs
farten
upptäckt
redaktör
tillgodoräkna
fra
Exempel
##förare
Välj
bölj
Övriga
##öjtnant
blandning
välkomna
reseb
personen
vuxit
amerikanskt
varenda
##skiv
representerar
lar
##IR
750
arbetslösa
Gunung
##JE
drottning
suver
avsevärt
tabell
##oul
Finlands
pensionär
Bosnien
##32
framställ
nöjes
Frit
bind
Tycker
modernt
Avd
##pert
offentligt
kyrkoher
##örda
grev
##struktur
SMS
##ni
Gert
Oden
insåg
##zo
kanon
biljetter
GÖ
institution
Kihl
medverkan
##varu
jobbigt
Len
vederbörande
diverse
religion
drabbade
##hy
##mält
sattes
champ
måndags
agera
dynam
utvärder
tyskarna
Facebook
##emed
Kir
gruv
automatiskt
Björklund
domare
barnens
##öarna
flyga
##RIK
##journa
##rost
##äcka
##ssyn
okänd
Krister
skrid
skidor
Tok
Tage
##hål
tidvis
220
Nisse
Försälj
Wi
##ägenheter
Ten
förekommit
##åkrat
tilläg
funderar
amatör
atmosfär
färdiga
stämma
konstruktion
avstäng
officiellt
beskrivs
##ienten
pist
nätverk
##amt
rar
Gol
eventuell
avgång
Kv
ställd
##utbildningen
##slund
rättvis
Buss
ast
##alerna
promenad
sc
##sprodukt
Dröm
teleg
dansa
##lock
kreativ
volym
##regler
Strindberg
brett
smart
startat
##alo
arter
Spring
##ektion
bakåt
##sministern
skrek
stjäl
drömmar
##61
Erotik
erf
defens
##rapport
tipp
Tis
##läggnings
##cenen
##uccess
don
Yr
KON
Mona
Portugal
AF
Wallen
comeback
utflykt
Norm
##shamn
##iers
melod
Kanadensisk
skadestånd
utvecklats
##okt
Prem
##arab
perioder
##strid
##snämnd
##riser
medicinska
utländsk
remiss
samlat
Nov
hängde
Tjeckosl
##rött
##siff
LÖN
Kos
avgifter
referenser
##MAN
uppr
gänget
slutspel
källare
##visningen
innehållet
bussen
##bod
##artade
##lid
tacka
gavs
Olymp
Lördag
##möte
##sburg
junior
Volk
grej
bildar
grill
##sem
Kinsh
##läm
helikop
##nivå
Serg
lovade
##athan
beakt
experiment
Stina
lög
Kvinnan
Vinn
##ivitet
dä
mal
bandy
inbrott
Huset
fundera
Prag
permanent
##amat
Sur
##redovis
tiotal
uppdraget
interna
##ellersta
##mes
framgångsrika
Erbjudandet
##inter
Södermalm
108
##irka
Greta
gitarr
##efr
##kust
nut
bask
Kinshasa
semifinal
era
återvänder
Kristin
godkänt
##ji
##fåg
##hanter
ägaren
##go
Server
kongressen
överraskning
East
##narna
Strax
SACO
##engarna
##innen
umgås
fjolår
timmen
Leg
beskriva
##omer
minnet
fuktigt
Edgång
konstru
NK
datab
##splanen
prova
andras
##enner
firar
begag
Programmet
ungdoms
##ires
DEN
framhöll
##LE
GR
agent
vig
##intresse
##lager
##well
Arsenal
guldet
domen
befattningen
fol
kupp
Nybro
periodiskt
origin
##any
##stationen
##31
Moh
##ELS
prats
verkställande
timmars
banker
använts
glim
##förbrukning
utdel
##vt
##urserna
sjunde
kna
Champions
försvunnit
##thur
makan
tillbak
##service
TCO
##ierad
vinsten
##skilda
hemlig
sexuella
##golv
erhållas
fysiska
##otiska
springer
begärt
arabiska
##sbrott
##smak
fallit
regissören
direkta
##pal
LP
halsen
efterträd
passade
bot
tiderna
##kraften
insikt
##skassan
jämnt
försvinna
religiösa
##ics
Förvaltare
orsaken
Luk
Riks
skoj
parter
bilarna
Fastighet
värderingar
drabbades
placerad
ll
bus
Ask
bakt
Silver
byggd
institutet
##appar
polska
pin
gårdagens
Wilson
##jun
CD
Kell
Målet
##ödet
##änken
efterhand
##rådets
tron
institutioner
separat
##aktigt
Joakim
Kas
lockar
##rell
rörde
ägnar
byter
sängen
pojkarna
lung
##itch
tomma
kunderna
huruvida
museum
förändra
bul
##ämnden
Sune
##BO
stipend
veckorna
165
##artyg
serveras
Kungliga
ADB
Egentligen
##brand
##jup
åtföljd
orter
deck
Lös
våll
##manland
sprida
självklar
##ingst
aff
femin
##ikal
fallen
planerna
utfor
rymmer
övervägande
stärka
Helge
##inkomst
nykter
förbruk
##skorna
observ
##ANT
expedition
halvtimme
månaderna
##högskolan
Goop
tänkbara
semin
Rub
uppstod
resen
hemsida
förtjän
Cecilia
flög
valuta
##ementet
gig
färdigt
##assistent
##gan
##cell
mätt
håret
##49
##ez
##opol
tidnings
##götland
kvick
Jimmy
guvern
Försäkring
revansch
Saint
betong
spurt
Ther
invandrar
Special
universitetet
individer
bomull
utåtriktad
Råsunda
Norrtälje
Kulturnytt
publiceras
mikro
Ches
folkomröst
fantasi
utreda
stigit
minister
##immer
##släk
Kristianstad
omfatta
##ingo
##bre
sprin
hack
Tyresö
##row
medger
Härnösand
##alismen
Drag
slant
MP
Filip
Vax
upprör
FA
internet
go
Svag
förpack
##field
##sbo
Harris
rimligt
utnyttjas
##kusten
Udde
Mamma
kidnapp
bestod
utgöra
ende
märkliga
##ämmer
vanligen
Fredag
oänd
försörj
söndagens
##vetet
bedöms
lil
ordnas
trupper
##äsendet
Trän
slump
Kongo
Myr
Anth
glömt
teor
Bef
##46
##olycka
Östersjön
Tayl
svensken
hundratals
knark
Tvärt
ätt
##ligan
##ällskap
Lim
lovat
väderlek
##SL
##oe
hastighet
Gå
##STAD
önskan
massmed
europe
Glenn
##rud
homosex
BER
Aven
##ämnen
jämföra
Välling
årliga
Internet
##42
stek
gymnastik
kursen
Tio
##sjön
American
efterfråg
utmärk
##polisen
skyl
##komligt
Tidningen
##ödda
Boken
##slön
Nyn
Colomb
foster
hotade
bonde
anger
##forder
##smarknaden
industrier
##bev
107
Brynäs
inomhus
##yddet
distansen
Walter
räddade
stängt
##beg
jakten
Rickard
partik
våldtäkt
Ve
ovanför
materialet
hållning
Bästa
krång
tilltal
Akadem
övergrepp
stämningen
##ottens
Tour
våga
Skall
Franz
##splatser
mix
kamer
Jugoslavien
väger
##sättas
innefatt
fun
torr
parlament
förvaltnings
##hs
misshand
Tror
Jesper
rust
##lott
genomgående
Sätt
ofrukt
live
Brott
knut
##verkande
kandidat
hörs
individuella
lösningen
klok
##staurang
turister
Dagbladet
Run
uttalanden
Skand
Nå
fattas
skattes
skärp
dramatiska
video
värv
placeras
##beräk
lades
företagare
##iox
grönsaker
utland
Billy
cl
kore
##seftermiddagen
Alan
##arinnan
Hard
pet
Vinter
Marock
##steater
##kommun
källor
Brown
diskussioner
##debatt
##ssekreterare
##paket
bero
omdöm
anmäla
huvudkontor
bestämmelserna
möbl
artikeln
André
låten
däribland
tekniken
läger
##ads
##trän
föreslog
stiga
##wald
dricker
fartyget
märker
##rädgården
oklart
bröderna
cup
sörjes
Margaret
##sket
LE
duktiga
enlighet
striden
##ridge
rädsla
Unter
##uppdrag
##wich
kritisk
tjuv
subtrop
##öten
mjuka
##orterna
##bestämm
Dagen
Helen
##block
Människor
muslim
handeln
##dt
##åpa
sätts
Christop
prem
baserad
Wolf
dies
förhållandena
färsk
##sledningen
##makterna
reformer
meddelande
Bull
##släge
sedvanliga
kritiska
##höjd
gynn
välkom
letar
##renumer
##irl
sekret
konflikten
gymnasiet
utvecklar
##brut
##cht
Peking
påmin
Pierre
##ISK
konstnären
##berts
##entin
##rund
Fest
mittfält
##GR
##ye
Få
Disk
kyck
Brad
slogs
ingående
tänkas
skala
placerade
Holmberg
1938
framträdande
öppnas
##savdelning
citron
Ari
##satte
##bys
riksdagens
Fam
##utrustning
Chicago
kommissionen
Storm
vent
medic
billig
blanda
sanning
##lök
Mak
anonym
Radi
##skommittén
##ahn
##sliv
sämsta
##FÖR
livets
AL
regelbundet
adv
##shög
löper
prim
Enskede
##matchen
Jeff
upprepade
Lundqvist
##chi
områdena
läkarna
Point
beläget
rådet
BM
kvalet
likhet
interv
Gord
högskole
Saltsjö
framställning
##cha
##eus
Report
Norg
skriven
Melod
dörrar
register
International
Blek
anknytning
High
underbar
begreppet
Hann
##ét
konkurrensen
hatt
##abilit
revis
##sattes
blek
avses
Gärna
##räs
Möller
Ah
Linde
##umin
julk
heders
universitets
Kaliforn
loj
fängsl
##sförhållanden
mult
kontrollen
##personal
Tvärtom
Dir
##EA
##srum
##byggt
##liver
Ton
##länder
##centralen
##cu
familjens
Count
you
##rester
intäkt
##frågorna
Ral
##dör
pensionärer
dos
Tru
Olofsson
säljes
MAR
Journa
ifråga
##GA
fruktansvärt
##BA
##lind
bry
Sportnytt
landstinget
Old
Vig
nationell
por
##tor
vittnes
skillnader
Vällingby
ljust
nöja
Farsta
##åkning
##oft
möd
ägt
förare
upplevelser
Vir
XXXX
Viv
Musikal
släng
Sebast
ofruktbar
mobilt
##tysk
##cernen
Chelsea
##tab
husen
vänn
söner
##roendet
##fo
köpet
Arthur
##vald
ångest
reh
##bror
djupa
Oskar
plåg
Club
kvadratmeter
schack
##berget
dur
front
##görelsen
omkom
##ysa
lyder
lille
arkiv
Bäst
pek
##enader
bevak
Fall
påpek
aktörer
överför
##atu
success
egenskap
##smässigt
delstats
Ukra
oppositionen
anläggning
tjänsterna
Tab
Somm
subtropiskt
bänk
##riär
mist
prinsessan
starter
Stu
odds
##följande
drivs
trakt
Loma
##övde
slapp
##pon
rubriken
föreställningar
hävda
kommentera
Az
iron
oskyld
sannolik
Tjeckoslovakien
Linder
bortgång
##immar
##strän
##karl
Nyköping
##barhet
##ringarna
Aten
solidar
etn
ursprungligen
Ned
##ehr
Glas
##ofog
Ori
spänning
##innehav
Birgit
116
överleva
regissör
##husen
bab
Math
salu
Helst
Professor
utbyggnad
111
Sab
NE
##ektionen
Telia
Ash
##skort
##idens
##olver
Greg
utmaning
given
Låg
##MA
Russ
anhäng
kritiker
Sweden
häromdagen
Länsstyrelsen
finansiering
passande
oj
##inär
intensivt
Namn
Internationella
##glöm
elden
Adress
##röj
##huvudstaden
förklarat
uteb
ALL
majoriteten
Mozart
uppträder
kompromiss
pryd
Rev
kontakten
##SG
Bart
föreslagna
bebygg
munnen
##utvecklingen
Mång
##splaner
afton
hindrar
hemmal
smått
Skandinavien
tröst
##cykel
Clark
tystnad
prof
##saffär
##41
##rekvens
Väsby
såldes
pratshow
Kärlek
gymnasium
Dennis
Ericson
##buss
##krit
##fack
börsen
nämnden
Dy
prel
##roth
##erierna
##skyrkan
##ristag
Reb
pund
##emat
spion
##ämning
Komediserie
##svenskan
Magasin
närmar
##funkt
varum
berodde
Ara
inflation
Mir
stänga
Ok
ond
Wid
återfinns
##iseras
##hemmet
siffra
planerat
sjutt
personlighet
##ämningen
Taylor
Danielsson
kab
bristande
##apper
bostads
björ
##order
##ologin
##ökning
ärende
beskrivning
iakttag
Jesus
Ont
tänd
##dra
förnuft
kolleg
Elsa
##sbyrå
framhåll
Flem
registrering
Morgan
lovande
orgel
diam
US
Pernilla
Pension
get
Försök
##hot
Mik
##ologer
rättegången
spök
FOT
##tagen
öga
Corn
Gustavsson
Spår
##ämd
##sbidrag
##middag
##alter
May
glatt
##uens
gifter
##kontroll
pens
misshandel
Utöver
slottet
Algeriet
##häls
##räffar
tillverkar
##sens
utbyte
vikten
Marocko
##hmeh
säkerligen
etta
##teringen
##disk
samråd
himlen
inhem
Centrum
Lant
likvärdig
berättelser
kaos
midnatt
##alsekreterare
stående
##produc
medelål
Minst
verksamheter
österrik
kvalificerade
070
##schyr
Hart
självständig
##ows
##istret
Libanon
oftare
importer
sms
torsdags
Cheshmeh
##bedöm
Egen
##figur
komplex
discipl
avslutas
##verna
signa
##gade
##yns
Moderaterna
Johanna
fönstret
betänk
Christopher
varefter
Ky
jobben
Press
återkommer
innehålla
patienten
Beat
##ners
##hu
Hemma
##guiden
orim
tillt
uppföljning
Bla
runda
tjänsteman
##ylla
Känn
##lutna
##via
bytte
##etid
##samtal
kontinuer
diskussionen
Trell
vittnen
jämna
Mia
##53
konservativa
anpassa
förviss
locka
hektar
himmel
Bohus
##husets
##lärare
##sökande
##ORS
effektiva
no
##lerna
olycka
##ört
Rå
huvudrollen
Ale
subvention
etablerade
##BL
AND
aktierna
siffran
##rädes
aktivitet
dialog
slutspelet
utvis
##erskan
serier
Brunn
kastar
##åla
But
sönd
tidpunkt
Volksw
förlusten
morm
kunnig
##jakt
Leonard
##ages
SMHI
ordningen
slagen
Sjör
##ime
dröj
##perio
Der
Eliza
##företaget
fullständig
##bat
gatu
kub
grönt
##ävlingar
låts
svett
omg
Folkets
Stev
mogen
Sha
##UNG
Förr
Foto
Café
##alan
Ingmar
##emens
sökanden
längden
parkett
sammanträde
##ännens
##dragen
Tull
uppvakt
bespar
##öfte
Moderna
##slig
Good
##stjärn
skjort
värdes
##ahr
##kåren
##änkning
Provin
bussar
Skill
##anläggning
ockup
store
densamma
##ance
kupongen
kolon
##ansök
folkets
Trelleborg
Pil
Mind
Örjan
avrätt
bett
upptäcka
##vämt
inleds
armen
##olly
kapell
kommiss
erh
Tun
ledar
Yngve
##behov
Advok
köpare
##sväder
minist
Anthony
skilja
Santa
MA
lyfter
##rygg
Vasa
##opro
generellt
gru
Douglas
Fur
avstå
bedrivs
##sgar
##sägare
frid
##bilen
##EST
tera
##ool
konkret
##sföreningen
##anläggningar
##elsel
fattar
avgörs
Rena
anhåll
tält
rekommend
föredrar
sällsynt
Obs
Hong
långvar
##alag
Asien
Orsaken
Asp
täcker
Götgatan
fam
öd
##fektion
Jackson
inse
bildade
obetyd
kuvertet
##ILM
andas
stigande
##ienterna
luck
genomföras
föreskrifter
##smuseet
fullträff
Liber
Irland
lämpliga
##arbetarna
Pla
decennier
CO
datorer
Unga
vilar
##jo
ratt
demonstration
kombineras
anlände
Veg
erforder
##LAND
##ving
skjuter
##etterna
tillvaro
Syftet
##distrikt
meters
##peri
##dy
##akan
Bou
Ryan
Start
fysiskt
ägs
Op
infördes
kostym
Anmäl
valdes
##itel
butiken
stjärnan
Kate
River
##hop
##attes
##parti
ambulans
värå
##skuld
presentera
erkänner
amerikanske
testa
entusias
ink
##venemang
glömmer
böra
leka
##penning
##miljö
Pic
agen
##änkningar
diskuterar
fat
##ennis
##konstrukt
##nr
grus
förest
barrskog
märken
hörnet
prestation
ändrade
##alisera
Bib
fungerande
Landskrona
fånga
Bush
Golf
Rumän
sättas
Gor
##lemmar
republiken
Six
förväntningar
avvakt
brons
##bbe
levt
bolagsst
sund
lägst
##ary
##ulin
onsdags
Kungsgatan
kontoret
överlägsen
##wart
minnas
antas
behandlar
##skontroll
Wa
stater
framförallt
NU
Evert
starkaste
sektor
##rottningen
skån
##fälla
##andes
##ockar
arbetslösheten
end
##rén
Kennedy
sekreter
sjukdomen
bidragit
bekräftar
Siri
##ihop
tillgänglig
##II
myt
linjer
finsk
strö
Senaste
fristående
tillgångar
inc
änka
Modern
##främ
Lor
Lux
tisdags
landsbygden
varvet
värmen
döttrar
##skäl
drabbar
utomhus
Svante
##rätter
forward
välkända
yttersta
gjorda
självständighet
##adi
##insatser
hjälpt
innehöll
Susanne
Rym
##rie
Elekt
Besök
förmågan
placera
döp
UP
ordnar
trend
högskolan
dominerande
je
utpräg
Roslag
##ektor
Skövde
Numera
omvärlden
Tanken
hets
drömmer
Nyström
Sandviken
##öljer
blixt
rättvisa
omgångar
Werner
Lunds
generald
Äng
kyrkans
seder
arbetsmiljö
upplevt
stuga
högskola
Upplands
utformning
##ygien
introduc
##skostnader
Fritid
fran
Löv
##redit
##gjorda
##gjordes
utgifter
erkänna
wh
bolagen
##stadiet
##porten
##enson
rank
spons
kvalit
värda
##TF
##slån
uppfost
ANS
##emark
spåren
##sledning
##ijer
gatorna
##sprogrammet
kir
##ualitet
ansvariga
bekanta
Event
##ekligen
##skollärare
förklaras
föreningar
##pk
##rivna
##jukt
##ONDON
gata
tili
Match
väckte
konflikter
##ityd
förväntas
måltid
##astående
motorn
##stjärnan
trettio
Styrelsen
trång
Bud
dramat
tabellen
KF
diskrimin
avkast
inneh
##rarnas
1936
##RIG
ATG
skål
##gäster
##bygd
Kalifornien
LONDON
fadern
Cu
förtryck
apotek
##sfisk
längtar
##nik
teoretisk
##ally
korv
##sfar
Norde
##glas
omröst
SI
medi
ess
Sammanlagt
dikter
militärt
##iellt
konkreta
Institut
Abra
Gabriel
Mälar
avsp
insyn
Wim
##sting
Colombia
staterna
Radiosporten
##åge
Bli
skapas
tobak
Hamburg
Isak
Stark
##ämpar
årens
processen
##ked
tabl
##irigent
Ban
landshövd
##inerna
fylld
Lämplig
love
##skul
halvtid
##sider
ning
##olution
Sag
bestå
Monte
stenh
beford
##oven
Rap
principer
elektronik
tillåter
hunden
Viking
jättebra
partiledare
##faller
Gary
Tomt
psykiskt
självförtroende
##steknik
auktion
demokratin
kvällar
##hjärt
##öterna
Mall
##IO
##registr
##iket
vac
##dans
ingång
##riven
Wallin
##älten
Wind
Skräck
##namnet
pry
fac
##ierar
underbart
##skningar
Jazz
##petens
##öpro
studi
##underlag
##lers
biträdande
övrig
Thail
Ala
ambition
allierade
Royal
historisk
##ituation
##ango
##parten
##ocka
Tax
nyin
##ned
bibehåll
##tagna
##plant
Frida
hemmak
##åringen
beslag
avskaff
##valla
##smorgon
målar
##institutet
foten
##äva
trädgården
besökt
skicklig
##ender
fordras
Operan
mission
##drama
begränsade
##bolagen
panik
##ehamn
behandla
meddelas
obek
Äntligen
Måttlig
Föreningen
Titta
fog
Nynä
##fal
MFF
##skrav
##teater
dagis
Lam
ägnade
##hotell
exploder
Älv
byråkrat
240
Riddar
Rapp
Älvs
slakt
öron
##kul
##ardröm
undervisningen
fyllda
rutiner
invänd
Cha
storstad
##utred
infor
skolorna
Kriminaldrama
glass
kos
befintliga
repris
ubåt
##xon
Ingenting
Östra
stans
Lewis
##allas
förkn
våldsam
Information
predik
##aku
tycktes
##rediens
samlar
Stadion
##sling
förändrats
Lundin
Håll
##etti
Engström
Lokal
##aktiga
anteck
avlö
##eriel
##givna
tolkning
738
utsetts
Camilla
funktioner
##äklare
perfekta
##stecken
Sebastian
omtänk
##rall
utöv
Spa
##ioxid
hun
föras
sallad
##värdigt
prövas
##vana
##resultatet
gräs
omhänder
atom
önska
allians
ordnade
judar
koncentration
##NSK
behandlingen
hjärnan
ordentlig
##asch
klöver
##rationen
genomgått
triumf
##sexamen
pra
Brian
tävlingarna
##osen
##äves
Sean
##tagit
passerar
fördelning
Gröna
vinnaren
moderaterna
broms
##mel
Kabul
vänst
Little
##öpartiet
Volkswagen
Berätt
Joel
syntes
scener
förtjänst
##iserar
##zy
##kod
225
abonn
härliga
Bildt
annonsen
fans
Verksamheten
territ
Gäller
höstens
människans
##känsla
Ontario
ämnes
Självklart
kafé
##cast
romanen
##ygger
##sändning
Fox
Nina
##åget
udde
##jade
meddela
##asp
ledsen
##marknad
PC
tittare
borgen
##VA
##judes
ovanstående
tränat
##illan
##sförmedlingen
##speci
Ute
närvaro
##emon
Jerry
noterades
##ando
duger
svamp
##öln
##rover
Elect
förstått
rått
fur
media
sankt
##såtgärder
tjänstgjorde
Cop
##skrid
indirekt
##skonst
##iser
##kna
Hedlund
anda
Idrott
##aria
hovrätt
##kval
##jest
anledningen
Nordström
Ungefär
##vä
rykten
##mass
bidrog
SVEN
Ceder
djuren
Falken
Fjär
##spolitiska
##procent
##ebror
##smatch
skarp
Vind
studerande
##verkning
födda
##rupt
##okk
sistone
##klin
Nato
poet
spader
##ersättning
Premier
Aldrig
byggnaden
##parat
Holger
marsch
HAR
medlemskap
##redje
gross
Matchen
såvitt
självfallet
manlig
##untain
##skada
Uts
noterade
##storp
återförsäljare
violin
Nap
grunder
Tumba
MO
Kem
##ortering
enl
##adel
ANSÖK
Törn
påträff
Invest
sticker
##zer
dansar
Skottland
radhus
1937
##mäktig
##konsert
Service
lönen
roligare
ving
utp
israeliska
deltagit
##attis
fabriken
##grit
Elizabeth
arb
förvå
födelsedag
lord
regional
ande
lagets
tappar
##områdena
Beträffande
##änta
utö
##fakt
Kommittén
##förvär
effekten
plån
tillvaron
Kull
##skript
prelimin
##skolorna
##stjänsten
Life
Ställ
##snabb
Riv
paragraf
svagt
##äts
varierande
##vert
Lav
föreläs
Dj
##hälle
metoden
##illing
##inriktad
kanalen
drä
förfölj
förank
väsentliga
OK
experim
akten
kronprin
rådgivare
with
##bilj
gångna
rehabilit
Sav
Bow
Socialstyrelsen
övertal
passion
House
förkort
hjärter
##örja
##ställe
##smännen
kolla
goss
avdelningar
vackraste
##spåret
konsumtion
##bj
##bildningen
Ped
##dad
Kalla
##bordet
Bond
##ria
##stugan
Texas
##förmåga
##ANK
Dun
##väder
RE
Bron
föreslå
##års
kyrkor
betraktar
##vare
faktur
sky
omöjlig
myndigheten
NOR
##ekreteraren
Torg
omgivningen
Hor
utomordentligt
##stillfäll
utgörs
våningen
##savtal
Stevé
Pap
ruter
support
##sdrama
210
kommenterar
Regionala
bestämd
##annonser
bildas
##sköld
##zel
GÖTE
primär
##steiner
##sperioden
##historiska
Et
rörelser
högtal
krona
prenumer
##vagnar
övervak
Blue
road
##UK
tysta
billiga
telefonnummer
Prakt
huvudroll
##ocker
gubb
##UB
Nöj
##usion
Juni
Oliv
Hästen
applå
##skole
##ställas
Frans
ålders
läpp
##wen
bröder
Syn
bang
tillhörande
Halland
Grupp
juridiska
nivåer
145
##strädgården
hastigt
##sradion
##PS
fött
your
##spension
##koll
Pak
belg
betonar
inleder
##bak
teori
uppfattningen
TH
hotet
Ronald
negativt
##tom
##ierat
inredning
sågs
Juan
Lang
forskningen
handels
Mulet
underlätta
ökande
##ui
skandinav
##morgon
sträckan
fysik
begått
Columbia
städerna
##elen
matsal
ambassaden
töm
avsedd
kostnaden
##klagaren
turnering
Hän
Knapp
övergripande
bund
gärningsm
skolk
promen
##manlands
White
Häger
inkommit
hjälpmedel
förete
##akon
Snar
unif
Djurgårdens
Järfälla
##yte
jävla
offensiv
hämtade
Lev
samtalet
Lut
VÄ
jagar
munt
##klassen
##klädd
aspekt
General
##iell
misstänker
handlägg
##spolis
mörkt
vilt
skrevs
fotbollen
##ame
##sutbildning
##mets
släp
##öns
Förslaget
Sydkorea
##ells
kusk
Bolaget
Fåg
##ädje
Kvinnor
medvetet
nyan
stärk
Möjligen
graf
lyser
ambassadör
bokför
Klas
taxi
Omsättningen
finn
##RÄDE
anse
##vo
Musikguiden
distribution
syr
##iserat
##öpp
117
##ical
kriminaldrama
##ÅN
broder
hoppar
Skatt
Extra
##företagen
väcker
pensioner
##anscher
Way
##cho
Eld
##vällar
##attor
##frid
##stund
sjung
snur
flyttas
##sbehov
täten
studion
avsnittet
påverkan
riktlinjer
Pappa
Grim
aktieägare
onekligen
##str
##elig
##dig
konvention
Kommentar
svarat
##fallande
##trafiken
##halv
sjöm
Skrift
Utbildning
shopp
Stephen
##skamp
Bernt
##ulk
sporten
##målet
långtid
Därtill
##itim
Kihlström
##sprin
väcka
##polis
##desk
##ei
riket
etik
##eria
erbjudanden
jättel
##TV
##ulen
samordning
##best
växter
skärgården
##agne
##elm
attityd
livstid
##elli
##vas
Vitt
##inka
säsonger
mamman
kameran
klev
saga
##förinnan
programledare
Allmänna
unger
##vån
grannar
motståndet
Hoppas
angivna
Erland
missar
judiska
intyg
strategi
##ude
##stem
##kultur
##rema
Hoff
komplett
skildrar
Ukraina
Abraham
unikt
nar
Neder
Föräld
##inrikt
Anderson
rykt
##ismens
Klipp
##ils
kulturella
agerande
liggande
komposit
sjunker
Använd
##stöt
tretton
berus
Isa
jämställdhet
##rahim
Samuelsson
##änka
samhälls
GÖTEBORG
turkiska
italiensk
Topp
Thailand
aktion
frivilligt
skiss
lia
msk
##umpen
tvåan
##erialet
adop
landskamper
camp
miljöer
otrol
##arium
Fakt
##peratur
fars
fördubb
BBC
kunden
forna
pap
##sham
berättelsen
##stagande
varannan
##ansar
anskaff
##mottag
utgången
con
element
utgjorde
vät
vard
kyrkoherde
kommunistiska
VA
spred
fyllde
Mårten
##atörer
##innor
tomten
##smålet
inspiration
##filmen
kämpade
##emble
summa
gigant
ult
bedömas
##seg
##finans
utvecklat
##kriget
underbara
##sår
kännas
Inge
Uppland
brutit
Hugh
böter
smäl
Norman
desperat
Australisk
skäm
besegrade
bokföring
Rose
##förstånd
avsk
Själva
##fj
Simpsons
Nar
##asta
uppmärksammade
onödigt
##tav
Buk
räknade
##ytas
pågått
fost
snyggt
avslöjade
rullar
kompon
tänder
##oa
löj
faktor
höjning
Untersteiner
##lappar
Kungsholmen
##debatten
Rikt
##arbetar
uppskattar
Wick
chefer
##äpnad
innanför
##klagare
##gin
##först
akademiker
lokalen
förmögenhet
Hellström
kakel
format
rykte
155
knep
raff
##gad
Santi
skyldighet
parlamentar
DE
våldsamma
##elby
Jämtland
##ffer
försiktig
mellanslag
planlösning
torget
siktar
pågick
##cens
Kle
Bry
##uti
ING
fet
orkade
##dis
bevara
##AF
##xis
bedriver
##cn
föreslagit
trivsam
##bra
rosa
Gordon
århund
tillräcklig
stru
uppfattas
böj
lam
##stämm
##italet
fängelset
650
bevisa
##pest
Young
hytt
yngsta
Dubbel
representerade
statligt
dokus
förtid
femtio
Rut
stödet
utställ
##infl
Balt
utvalda
forskar
hallen
José
erbjöd
avdelnings
publicerade
likaså
genomfördes
Ibrahim
djupare
klassiker
uteslutande
Privat
mörkret
tunna
flytande
förgäves
lidande
utsågs
Oliver
##upplev
tittarna
DI
vol
vandra
inträffat
minusgrader
finger
##bunden
koppla
Konkur
bitter
ugn
affärs
##ysen
blind
förmåner
redovisar
lås
Westerberg
##side
##fattning
erhålla
tankarna
Bek
##ohn
Projekt
##hätt
Salt
Elin
118
##ilton
##ÄTT
rall
Danny
Bark
Cit
##SI
riktar
upplaga
Cab
väggarna
Nielsen
Gruppen
Dow
värdefulla
päls
Glöm
plikt
##eform
Laur
##sarbetet
##oria
##kanten
rösterna
##skons
avgjorde
Tobias
varierad
diesel
Oav
försvag
##priserna
röstade
##yder
##uls
uttrycker
psykiska
besvikelse
bristen
Sjöström
Premiär
##ljus
BK
klädd
utställningar
Rach
Linné
##llan
##test
reagerar
krävande
huv
##våning
##slokaler
##xa
##andar
119
vistas
##sbarn
Ebba
Mob
sinne
överskott
snön
Best
kontraktet
veder
##rädda
observer
##klädda
non
styrelseled
tillk
täcka
entusiast
##skarna
formellt
vardagar
Sec
förlängning
Madele
tackade
rösten
Merce
släktingar
##etecken
leds
uppslag
ert
##NE
##alogen
FILM
moderat
litterära
skådespelaren
Bj
##fonden
house
förbättring
spekt
digitala
550
Främ
protokoll
su
grova
Djursholm
Fäll
##urch
Lov
kurvan
utbud
forn
toler
kuliss
Katrine
betrakta
skräll
##annat
##ansvarig
existerar
Öland
pratat
uppvis
hyfs
skrämmande
idyll
olag
matematik
kedjan
infra
förvärvs
spåra
##felt
ära
sysslar
##roppen
bankerna
ÅR
ambiti
##stal
gö
##sparken
proport
betydde
sover
Textat
##åtar
##avgifter
Norrbotten
Kommunal
##IND
sluttar
fläsk
Markus
minuters
Slutligen
analyt
##ålen
##zi
##börd
höjer
vägarna
översikt
knäck
överste
##sdal
##oat
sände
Brom
##skontrakt
wc
betalning
Leo
semifinalen
##ée
KOMM
symfoni
medicinsk
##systemet
lamp
åklagare
förfär
efterträdare
befattnings
Ted
Lilje
oförändrad
löfte
integrit
##okalen
bedömer
Pot
##rätta
##hängande
frånvaro
varning
tillägger
##entus
åttonde
Plus
kungliga
Året
kyrkog
förort
Mattsson
Sjögren
negativ
Gunnel
mannens
förblir
börs
reporter
angeläget
##udden
##astighet
önskvärt
dominerar
ed
Borläng
Nig
flest
lösas
verkstads
Nich
uppväxt
nämna
ventil
lur
utm
##aha
medierna
Sym
TR
sångare
##mund
smuts
köttet
Staden
slarv
##ricka
##zen
inträde
One
seriöst
##sprocessen
tvinga
verkan
nivån
självt
##cl
utmärkta
##IE
brud
##gym
##svillkor
sta
Laget
skogsb
studio
Master
Parad
Ture
arbetstag
ingrediens
##stomt
rötter
Drottninggatan
längsta
speed
##fallen
snett
blicken
Fu
branden
Måste
säljas
Metall
numret
##oken
talen
erkänt
##process
specialist
bitt
kamera
##AMN
Sundberg
onda
vint
väggar
##aliserade
inkommen
Klubb
medvetna
kvant
##rök
styrkor
Jawa
kära
fattade
biblioteket
Ou
Ingenjör
##edigen
patienterna
Tredje
balett
vant
anhängare
##egatan
tegel
Haninge
##styrka
vans
utmaningar
förflutna
godkänd
lyckliga
kommunikationer
##eställningar
##onto
nedre
drunk
Dirigent
fjärr
tillfälliga
hocke
rytt
kommitté
Trol
Glad
rönt
förhoppningar
utbetal
vardagen
upprörd
talesman
förhandla
##ORK
söndagar
Gil
Stanley
vida
##sättningarna
skede
Bränn
bedräg
datorn
granne
uppträdande
underlätt
fjällen
trycket
##mandra
##atens
SOM
Sjörapport
frivilliga
##artad
##änker
förvandlas
livsl
flygplatsen
##utskott
nervös
uppstå
flydde
Uno
##DS
Aï
kommunisterna
Tit
##där
##frest
abort
mardröm
styrkt
försen
##ulla
##änade
IBM
kulturen
återkommande
##borgs
Spånga
skaffat
debuterade
Cirk
##gers
fon
Abb
##planet
##nät
##gränsa
duss
anta
rutorna
expansion
stjärnorna
Nog
robot
stöld
bekvämt
släppt
##esen
Ep
##förlust
Skid
Olov
stunder
avg
IM
Herc
förvisso
sum
färska
brevet
##ilar
lim
historier
Esp
redaktion
arrester
filmerna
##STRÖM
licens
Begrav
Santiago
ledarna
Ensam
Konsument
förbehåll
##utöver
##sverksamheten
UK
stadsfull
##vapnet
hördes
utlov
##egård
area
arbetarna
##pol
Sr
riktade
konstnärliga
Byggnad
konserter
galen
modem
Bergen
##ulerade
minskning
FB
Suz
Annie
##striden
Bättre
Roberts
##stjärna
reflekt
garn
Meg
Hop
Englands
poängen
Kontakta
##rian
##bilda
korrid
##aco
ensamstående
##hag
Häl
##oke
Nyberg
##hö
check
Atlant
##kning
omvand
råkat
skörd
ropade
väv
Komment
##innet
##aktig
samtid
Lass
Jung
Deger
Tiden
skåp
Buen
uttala
Engelsk
oroliga
matlagning
produktions
uppvärm
Rumänien
Krit
sjör
230
skynd
avseenden
##vandring
##annolikt
sedermera
Radios
##CA
geng
rådde
##sligt
väckt
Kustklimat
begärde
nederlag
##spartiet
Kraft
finaste
Kanal
##världens
anlit
##smot
##örden
statistiken
##färden
tingsrätten
##anga
Stall
olyckor
##rov
##antverk
Ext
##given
avfall
smål
räntan
Peterson
pann
Florida
fonder
Sved
historiskt
kommunik
Gul
Tina
sommarens
PL
##CKA
omgivning
förknipp
##etenskap
##jorde
satell
##RESS
skivan
ägnat
##usa
Kul
McG
klubbens
Mär
SHL
Resten
böckerna
Long
##ikon
Munchen
jurist
Varken
Centralen
##släger
ockuper
Kamp
rytm
förbindelser
Arb
Garage
Clinton
koloni
krävt
fötter
DC
fåglar
##önstren
sändas
##sförsäkring
Jäg
dramatik
visor
enskilde
Trollhätt
partis
SAF
fysisk
slås
befar
##marker
EXP
##chs
##räsch
##strakt
Ås
kvartalet
ständig
Forss
Lej
##tade
Wallenberg
staf
##information
##ege
Mess
rabatter
Motala
namnen
Milan
Produkt
desig
Moore
Vattenfall
Fern
läder
kontrover
resonemang
##vägg
Stå
##mjuk
tillfråg
Calle
##boende
ställdes
##förslaget
kostat
Utanför
undvik
Caroline
Älvsjö
##säkerhet
poesi
avvatt
fängels
Jensen
##brottet
Und
##deras
Eker
##odd
konsekvenserna
##stora
##officer
Följande
##andy
hjälte
Örn
lednings
##rilj
##egrip
olik
##utskottet
##ace
lärarna
Sergels
##pelare
##ostnader
hittas
Tolv
##ofors
##bring
existens
märkte
##ordin
beträffar
ATT
##fullmäktige
leverantörer
##skärm
##orienter
PRO
bull
Dol
krock
##svis
##kron
fn
Bollnäs
Carina
blomster
##mötet
##smilj
LA
##delningar
ökningen
Cass
ungdomlig
Fjäll
huvudperson
##pad
Tillsätt
Nordic
utn
vandrar
egentliga
##zan
ständiga
betalade
planeras
förresten
pepp
##perioden
buller
presenterades
##ique
spelaren
årtion
Angola
framsteg
##äntan
##amöter
omtänksam
umgäng
grupperna
##egen
häck
##streck
Risken
##ista
samarbetar
##utan
##KER
Fly
stir
Benny
Norges
förloss
otur
förtjänar
misstänks
synas
bond
propaganda
##plans
harmon
##front
##unskap
##uset
##eringarna
RF
1935
sannerligen
Säll
mäta
pendel
barnavård
##blod
känsliga
Tryck
assistent
märktes
tiot
regimen
##atset
##ktis
kräft
höjs
Kram
kemiska
Stjärn
släpps
jubl
strunt
tydligare
##eo
tacksam
femma
haver
sug
knäpp
mångfald
##ea
Läg
##sfulla
vänlig
nåd
##öde
##viker
uppstått
##anor
Intressen
hoppet
KOM
##inspektionen
Mercedes
Last
Förbund
Vol
hästarna
påstod
##utbildad
visades
##deklar
lyckligt
##ARS
##antin
##atum
Ulrika
Lady
stämman
##kins
grundades
halvleken
Läget
beslutar
tidskriften
Kulturhuset
##änkta
##mil
avbry
##rädde
##städerna
höjda
åldrar
stråk
##kök
sprider
Plac
Franskt
uppträda
arbetsgivaren
successivt
##varv
frest
stilen
tvärs
##ARNA
Borlänge
bekantskap
jubileum
villor
killarna
biten
önskade
gent
##ards
konkurrenter
klokt
##slagna
##sköt
djär
Gren
##beh
Jonathan
anmärknings
##YG
##sbeslut
Sis
vits
##inas
Medborgar
121
##von
Beach
rester
##omsorg
##produktionen
Posten
Cour
världsrekord
Seri
utskott
livsstilsserie
översättning
Sjöst
sw
##splanering
##familjen
samlades
uppsäg
avsedda
tonsätt
inbördesk
Fab
undersökt
tappa
nätter
##gon
typiskt
Förut
##uma
berättig
fastställt
Distri
stöt
Berggren
##tj
programmer
Dur
##budget
elektriska
##museum
trygga
västtyska
depress
flöd
direktören
##ichef
##aljen
tionde
upptäcktes
sjöväder
slutsatser
atelj
##motor
Rem
jämlik
Pål
##post
varifrån
##anns
avstängd
Bast
##utrustad
##oon
målskytt
elitserien
mol
##DEN
Mellanö
##lu
play
arrangemang
123
förbereda
telefonen
Avg
##elselön
OR
##lyst
erkände
Medverkande
Conn
Herbert
textat
Anbud
Mountain
stoppade
floden
##samlingar
NEW
skur
avslutning
##föll
alp
toalett
##anpass
avsluta
utredningens
Tip
##gener
justiti
Åtminstone
smugg
måll
##sbacken
ämnar
Gyllen
påpekade
bollar
Ital
förband
brom
Abs
Hongkong
blond
kommersiella
Sir
Ystad
amerikanerna
miner
gyll
Kre
udda
Gerhard
##imir
församlingen
Meddelanden
dito
Blekinge
hals
vaknade
##paret
finansiella
engagerad
klapp
Speciellt
##abal
begynn
innefattar
Vetandets
undra
##frikanska
svåraste
Sundström
informationen
mobb
##ivare
hands
smärta
Allen
varann
jula
##mid
##hållet
inträffar
säsongens
jan
borgar
inledande
boka
Bök
##stitu
Befattningen
##befäl
anvisningar
Tokyo
##esport
hälsovård
Forum
Jamie
invas
halvåret
##sförmedling
uppre
varpå
##oin
##efin
falska
Jun
formulär
Södert
Comp
##itor
Antonio
Play
##försvaret
Globen
temat
procenten
Lundström
Matthe
##andan
möbel
vittnar
Styr
besluta
stel
Madeleine
##vänt
avgå
lagret
##St
Björkman
Ving
kvinno
Pr
##ifik
föregång
fisken
fors
ronden
drick
eh
omfattas
##kammaren
sträcka
##identen
##my
vision
Stål
Kath
osäkerhet
##jag
terräng
##kad
uppfin
Speed
##artid
Oh
##ives
##vd
plans
##igast
sjunkit
lan
Räk
Brig
##meddel
Fråg
promenader
ling
##serien
helvete
##kött
ABF
sammanträdet
likadant
vaccin
Trädgård
Civil
##vuxen
##räkningen
kunnande
##pell
föraren
långsam
längtan
run
snöfall
arten
förmå
HSB
departement
##savdelningen
Ana
bokstä
##54
måla
##farten
Grän
##parken
puss
passera
tempot
anti
innov
kvinnans
1933
##spersonal
##amet
##kal
Soph
##ovo
Koka
resebyrå
överhuvud
##jevo
##fjäll
ändrar
tvingade
Kass
##akespe
sill
##200
framträder
klick
##illo
begränsa
##avtalet
##uminium
Alp
##styrelse
##ovs
drast
skulder
Bulg
förstärkning
mad
##vita
##án
Vädret
##srörelsen
handlat
##läggningarna
##sdelen
##ettan
##skars
Sigt
erbjuds
cirkus
Lord
kassa
indust
##box
invent
Bå
Uddevalla
##avel
Pontus
1200
##ENG
ålderdom
orsaker
Entré
kamrer
flickvän
grammofon
privatpersoner
kassan
##äsa
##cipen
tol
beräkningar
generationer
snälla
##oldioxid
Org
Out
Vänner
kronan
pucken
Tand
utse
##effekt
omsättningen
tuffare
##iggande
##ília
gris
##spapper
##vå
Kari
Elia
Efteråt
##limer
##auffören
trist
Rund
näsan
##exper
sena
utbred
förflytt
##aktioner
Kast
utvecklade
Roos
##ppe
##ape
##emente
broschyr
räddning
Transport
dödsfall
Fyll
mem
Guds
meddelanden
Förenta
Vård
##brö
Högsta
NC
Michel
sträv
Söderström
Hamilton
dir
katalog
##fyllda
värdefull
##reserv
brilj
låtsas
Brasília
##arinna
Utt
övertygande
rapporterade
Direktör
Hansen
tillverkare
BMW
målningar
påfrest
ker
tip
taktik
Shakespe
Lindblom
##ygga
##byn
##nér
temperaturen
##texamen
doft
##artat
##PA
Sköld
skandal
##shistoria
arbetsplatser
stöder
skickat
föranled
parken
nybörj
##log
Juv
##änningen
##iber
124
Kroat
blix
Bah
##svenska
Melodi
##ols
##garna
uppdel
Kuba
ojämn
drömmen
bortom
##halt
Chi
##ranter
aktiek
chefredaktör
producera
rutan
##veckan
ungdomen
##psyk
ball
##ylan
myn
betecknas
invändigt
##sade
nedåt
Isab
högra
strävan
Sib
##usal
inflationen
##amod
Åberg
varnar
älska
##evi
lördagens
ån
tvung
##ariet
Fackliga
ledigt
UN
##adet
Fredriksson
Botkyrka
##esiska
intim
##aliseras
bedriva
Kommunen
finländ
##ovina
erbjudande
Boris
Kelly
högern
##tecken
Lappland
##ängt
toppar
kunga
förstärka
##sesid
##oom
passerade
Ost
hobby
##ygt
Cur
Sigur
Göte
##57
nämner
föda
Skr
Nöjes
##ungar
priss
liberala
Maskin
Luft
liga
Vack
##rupper
Undersök
platserna
belägg
journalisten
kvaliteten
avgår
restrikt
arbetsgivar
##fond
samvete
##vel
öarna
arkitektur
barnets
##hman
revisor
grönsak
Kore
uttalade
##kyrk
##omi
##skurar
patent
##sted
kanaler
skärpa
Rönn
krigets
flod
##ava
voro
Öpp
##barhets
##ionde
Church
##ello
mynt
##iseringen
##ete
kemi
##UG
skära
omsätter
fredagskvällen
trivas
inhemska
##sedel
ungt
##ornet
försöket
ell
illeg
mörker
##onda
bubb
##ekanis
Enda
moll
avslutar
President
Världen
långsiktiga
torp
##jd
##skrivare
intellektuella
##aktligen
Borgen
##ådet
FC
Wars
##ÅG
sjuksköterska
nyb
uppror
Net
Nyman
Ill
##sfir
bedömningen
Hedberg
##ío
Buda
##enius
##oritets
##bladets
Debatt
trycka
ungar
vänstra
ansökningar
Maja
framgångsrikt
Fra
##isterande
resande
dödens
Eddie
Julie
naturvård
koncept
analysera
Röd
saknades
Beir
##verkningar
Bergh
Vänster
Åby
margin
##önika
förban
Patri
Andrew
lagts
nämnde
Titt
Albin
anmält
##verkstad
##undersökningar
uppsättning
##hust
##lighetens
hemmakvällar
##rub
främja
##domstolen
##kapp
122
Ishockey
attraktiv
klarl
##ängden
stadigt
Oavsett
framstående
##äljare
Sor
Maz
hyd
Slottet
##umtionen
hemmalaget
##varna
##tend
##ikens
miste
Scen
betalat
Bror
grundade
Resan
romaner
Face
##åker
##åpet
##oi
legendar
##liet
##smaterial
##termin
vitlök
##föraren
bonus
rörlig
Utred
It
##uggar
Vegas
##aron
Fj
behövt
kull
uppträdde
gräv
Day
repet
JAG
generaldirektör
mänsklig
inh
älsk
SY
fullkomligt
givna
enastående
omdöme
##olkningen
intrycket
Sigtuna
mormor
##shuvud
fastsl
skruv
##bilden
##änslan
##förbud
##trans
populärt
inland
kyla
##skamrater
företags
Växlande
soldat
förts
vecko
dröjde
ele
dokusåpa
Kock
malm
Sche
europeisk
Lott
Henning
rättss
Axelsson
julen
miljöv
årsju
backar
Major
##älden
640
Vera
rådhus
##aktier
##tain
##löshet
hamnen
otal
##slöshet
Magdalen
1918
körs
Vägen
favoriter
Aires
dol
fjorton
Åbo
Samhäll
koppar
Prince
Buenos
småbarn
Sahlin
Född
Mellanöstern
klas
Kungsträdgården
Mord
utrop
aktiebolag
Swe
Grat
##sstat
##sskydd
nöje
##stig
##smässa
##ladd
from
präster
gästspel
mas
motståndarna
skuggan
Sarajevo
diskret
härifrån
säkerheten
EL
Vlad
budgeten
##ADE
förbundets
veget
globala
Ida
##ografen
VISA
branscher
##hörd
smala
Hamn
basket
##forskning
##bundna
nykom
##embl
sikte
Årsta
É
klubbarna
kvällarna
Show
tveksam
bönder
##strej
Vasal
##perto
omkläd
##betet
pappan
kvinnors
##undervisning
förakt
landskamp
Givet
stadsdelen
##ston
vanligare
Amanda
Svaret
##mers
revolutionen
Karlskog
mellersta
##egori
##ätts
märklig
jordens
trevi
blått
Jur
kontinenten
##manuel
##studier
ordnat
osyn
##TS
australi
blås
Aïn
netto
fjolårets
Kil
##poäng
Dream
##ikan
##viks
katolska
##försäkringen
Alb
para
Demokrat
lian
##fla
Näss
##ippi
##stadion
1932
nämnts
1934
kombinera
upplös
##AV
##rillers
sprut
underhållande
IP
##orron
##seger
delat
plockar
genomförs
DM
##itetet
återstående
litteraturen
täta
friheten
Conny
nian
##atem
ene
besluts
##smyndighet
kyckling
Beslutet
Regerings
##eliga
trakass
##ningsmedel
##arbetaren
##slandet
skägg
hotas
beställa
oliv
peka
förtjus
##adern
uppt
syftet
bekostnad
##injen
##uli
##eson
##ageserie
konjunktur
arena
sept
amerikaner
Kum
Hein
##NS
##ansökan
Avgift
klassiskt
##örelsen
avveck
förebyggande
strikt
servering
##hugg
alternativt
Daily
sticka
Trum
ox
uthyr
##bben
##sbest
ljuv
##akter
reglering
utnyttjar
PRIS
svek
handikappade
fabriker
##slan
##sgrupper
genu
ÖNSK
Danskt
fd
någorlunda
Prix
##kademin
utsatts
##sty
Pengarna
Queens
Månad
Tysklands
rem
##ute
##förd
Francisco
pend
##även
präglas
tillfällig
##objekt
##ummi
##favorit
##fen
ändrat
##berger
Delhi
obes
tänkande
kontroversi
bränsl
Mälaren
Wimbl
direktiv
Pä
Elvis
##dela
##hållare
engagerade
##amo
insatsen
Vaxholm
släck
Varm
leverera
##ynda
Line
##skostnad
##irektören
nås
Boden
Budapest
restaurangen
gang
##skifte
Nationalm
Ansvar
##mode
gedigen
Herceg
språkkunskaper
##58
rimlig
sorters
flitigt
##sgivare
fungerat
nöt
##kunskap
SPORT
##språkiga
##vattnet
Bröderna
##utsikt
cer
hygglig
##inister
##gna
uttryckt
Ting
lyssnade
revision
missa
dröjer
##ekom
##skom
eft
##lon
##skepp
fattat
Josh
##isternas
dramatiskt
attent
##göromål
egypt
##läkaren
##kandid
blåser
trötta
åberop
medverkade
kvalifikationer
bokslut
rätter
studerat
serb
##kyrkan
##alunda
##smetoder
Intervju
rycka
Stewart
News
Henriksson
lyfte
##brist
tvä
##spels
behövas
##hantering
Melander
vas
Författaren
soligt
forskarna
##kvart
##arrang
##sjukhuset
kanten
##JÖR
Gamm
ga
frivillig
Ansöknings
##äda
ömsesid
Gom
##komster
Riksdag
##ogel
skyldiga
##tävling
Steven
##yran
vittne
##yrkom
##usalem
Utrikes
##KÖP
rekrytering
slop
naken
##ssven
intervjun
##chefer
##fabriken
jämt
redig
Servera
dödade
holländska
Gård
generös
##rapporter
djäv
##åldern
väsentlig
Skådespel
##skogen
##oser
späd
aug
##ecka
##LING
folkhög
röj
såna
Hässelby
skulden
delav
##HUS
##värdiga
utförs
##illeri
varuhus
##svin
Ama
läsaren
axel
##skedet
##snivån
KARL
Feld
Sed
Bruno
##mask
##ormer
##älven
kollektivavtal
hu
Stadshuset
dömts
uppgång
utbildade
vpk
Mindre
tyngre
medeltida
##ionjär
Wenner
##rinningsområde
självständiga
##prövning
drogs
##övning
##värn
##väckande
Lunde
lagkapten
##auer
##strö
##dakt
Lopp
##amas
##festivalen
FRI
föreståndare
dominerade
##medvet
vindar
##respond
tillverkas
byråd
##märke
lugnare
##krafter
producerar
övertyga
vaknar
ryckte
Modo
##ningarnas
Vel
skildring
skra
##NP
##öre
altan
plant
Kairo
Åtvida
summan
##editionen
##gor
ATP
jordbruket
##demar
Atlanten
sannolikhet
fritidshus
over
##ställen
komplicerade
Mångå
traditionell
beställning
dölja
skon
Strömberg
##ln
hemland
##vad
##oped
##ato
Gla
ANSÖKAN
ambitioner
visk
850
##KA
åtag
felaktigt
grabbarna
##alid
Troligen
Förre
Sirius
hämnd
Beirut
Mog
##slokal
klaga
##ämda
##kok
studerar
Cirka
PO
motsvarighet
dramatisk
Fröken
kväv
##gress
öppnat
Kid
Norberg
alternativet
Serie
##istrikt
##atherine
Vart
skötte
##skonferens
##stider
tränade
##sstud
Andy
psykolog
förhållandevis
satsat
identifiera
##sbas
utsätts
institutionen
funkar
##sidig
statsbidrag
lyckad
Felix
tjocka
speglar
behärskar
Magdalena
##körning
Cr
MALM
##skval
##utställning
Pin
sällskapet
##endensen
##wer
gilt
titlar
hälsar
provisor
Flickan
Gard
havs
rusade
info
bat
skrä
drivit
leker
besluten
Paret
Oskars
våldsamt
avslutande
individuellt
herrarna
automat
Latin
Eder
lat
Kling
Ån
absoluta
indian
drack
stere
##inga
Pj
förskräck
Bruk
Mode
medhjälp
psykisk
besikt
##ehöj
Trygg
Punta
gumm
konstitut
##xf
tillbehör
##iosk
rekt
##bytet
Grammofon
##ledningar
avgick
Carter
##ords
veckors
##esök
##skollär
Gustavs
passerat
##skostnaderna
intelligent
läggning
Större
brinnande
pressa
förmiddagen
Timrå
upplevde
öppnades
Sixten
##provis
Dahlberg
##pj
albumet
Elm
Borde
360
bruna
Jönköpings
jour
Hercegovina
skratta
porr
##ohl
Fritz
##eställningen
##avgiften
brann
Moberg
avslutades
Skoglund
syda
byggts
programmen
##fat
Pala
kommunic
garanterat
##rider
Prov
Bayern
Fortfarande
hovrätten
Amy
##loss
1917
stup
spi
Kors
##ness
Bea
stänger
##fattande
##onenter
förklaringen
##borna
Temp
överlägset
##sprodukter
knack
smakar
BL
##alternativ
filmens
professionell
##cancer
stationen
University
skyltar
beord
YORK
##ampton
Domin
260
ve
##klipp
händelserna
BIL
tredj
##anmälan
##sledaren
enskilt
huvudsakliga
##hän
kvarteret
kod
mis
Adiel
firade
jack
krogen
Isra
efterst
##icks
kry
Elit
reaktioner
bergen
studentexamen
##gie
##tu
Triv
##tagning
Bonniers
finansminister
krasch
##panna
Wales
Koud
Venedig
galopperade
##festival
facket
##osam
spen
våningar
Tjeckien
##linje
förbli
##phy
NI
Gib
Kroatien
Franska
##invest
Frankf
brygga
##plock
##no
##sverkets
guldmed
tålamod
julafton
Cli
kronofog
sab
flödar
##sint
Wen
##premiär
##slopp
kriminella
##jölk
koal
musikaliska
dyka
##sbal
pekade
fullfölj
##lans
granska
ound
tallrik
fastän
korrupt
Robinson
Jerusalem
Mic
akademisk
tt
ros
##nämnd
uppdat
nämns
##änkte
Engelska
##öklass
droger
##förbin
##gryte
armar
Cel
##skillnad
tvingar
Colin
förbindelse
upprikt
Sonja
##slit
##uppen
löften
##album
Facklig
##mm
gåva
DJ
##smarknad
armarna
##ännas
##serfarenhet
seriösa
blickar
inledning
läsning
Eriksplan
afrikanska
##arö
##sval
hoppats
##fronten
##innar
Sigurd
upprätthålla
Enköping
Hust
Liss
konsumenter
##elef
sagts
kungör
Reinfeldt
##ody
skriker
uppströms
salong
##deln
ytor
prester
stolar
Cyper
Lem
lönsamhet
rasande
erfar
kvartsfinal
tillämpning
mjukt
##iblioteket
Publiken
##stull
bestämda
##center
flaska
långfilm
##rillerserie
erhöll
##koppling
anläggningen
##ttom
Tak
Antik
Totten
##elns
omklädnings
nedgång
Carolina
##ssidan
sidorna
Ruth
##ANDE
##stab
vanligtvis
##grad
spridning
riskerna
##con
gla
fonden
##vak
hyggligt
##beton
##forsk
##period
mänga
Karlskoga
Miller
manager
##gran
gentlem
##öda
köpes
##edrag
##chal
##lån
hemskt
inkluder
##éerna
Spar
Ovan
##följa
Ronn
Che
uttryckte
genomfört
Frist
Fabrik
rast
befogen
advokaten
manag
##tz
främling
arbetsledare
##unge
##kommittén
Family
##ÅL
##ickan
mördare
kändis
avlade
timmer
hungr
##maskinen
medborgarna
släktet
Sala
Publik
lönar
övertag
##frågningar
antis
##modligen
färgen
Hul
omkull
ovanlig
theory
##pressen
##snummer
##OTT
invånarna
Reagan
Utgång
lördagskvällen
##cle
##ulera
evaku
finess
Advokat
översyn
upplysning
nyheten
##spol
uttalat
sambo
Frankrikes
Saltsjöb
##sfritt
Berna
klasser
##radition
Ball
##kin
våt
åtskilligt
imponerade
Ike
inskr
Åkesson
Lönn
##ämman
Por
##raktik
ointress
knuten
underk
organisera
##VM
##belopp
Kostar
blåg
trogen
skugga
oroar
##gräv
växlande
##bag
##erto
cens
behörighet
Miljö
Miam
inklu
##itär
landstings
##harm
naturvetenskap
Utom
genomförande
Vardags
äktenskapet
##ÄNG
##artiklar
varmare
##can
materiel
disciplin
##56
osäkra
##edal
##lorna
Adielsson
belägna
villkoren
feder
Sovj
##öra
##amour
##usiness
tecknad
##alender
##samman
legitim
##ird
##alta
hj
pannan
##lägger
avancerad
##ales
accepterar
utlands
festival
##ATS
Organis
kungörelse
Siff
Amster
##ömda
Yl
Ekonomiek
Ibrahimovic
Trollhättan
Gäll
Barnens
Matthew
göteborg
Cyk
Bökö
Rim
festen
##utbildade
Scandinav
Landsting
envis
##språng
##yler
antar
brinner
##ationens
omedelbar
Östergötland
glans
kammaren
Erlander
##mått
##regeringen
träder
##skadade
Staten
trappa
Restaurang
##ysta
##ränta
friskt
##skomp
##ervice
uppehållsväder
onsdagskvällen
villan
Pite
efterly
variant
ingalunda
rättvist
digital
skattef
fotbollsspelare
dn
utvidg
slutgilt
##arkitekt
rekommenderar
##spunkten
känneteck
ingripa
hoppades
Höt
Sö
##ventionen
skoll
##eor
##aliseringen
126
exklusiva
medfört
Color
##bent
baseras
medelålders
##släg
införs
ladda
maff
föreställa
127
Israels
Hay
More
livsfar
semestern
Börj
traditionellt
Cav
Bergqvist
kulturell
tros
kuvert
Hellas
##gs
Río
fax
##eve
nordisk
sakkunniga
Sydney
Skolan
Skånska
lav
Veter
äv
Tottenham
otillräck
##vända
informera
synen
sortiment
genomgång
målsättning
Zeeland
##skrivningar
fiskar
högkvarter
Absolut
skept
noggrant
##enti
##stidningen
Carlos
förespråk
aluminium
##amerikanska
Kajsa
Förmodligen
beskrevs
svep
McD
lagstiftningen
##ämna
031
länk
dylikt
mängden
dun
Biljetter
publicerades
##alie
personerna
Estland
##ätra
128
##äpnade
##undersökningen
Bulgarien
skrattade
slutsatsen
morg
effektivitet
skot
obegrip
hänvisar
hemifrån
hä
väls
slalom
##våg
idrotten
utlänningar
##ollen
Stadsteatern
##sinspekt
Britta
förbereder
Sher
skattep
brutt
##onna
MUS
torra
säkrare
Huvudk
förmiddag
dumt
refer
Haw
##ilda
##plar
Nott
##måner
begränsas
Reportage
##atar
##ublic
##baka
Strängnäs
tränings
höjden
171
##efors
Rabat
##distans
##AREN
Guy
Ulrik
Stellan
personbil
Howard
betydelsen
##SAM
yrket
##analys
våldet
svaren
portug
tolkas
##givit
##barhetsintyg
fredagens
Norrköpings
Åhl
Carin
Urban
Härom
lagens
grädde
Äld
fascinerande
hundratal
systrar
understryker
förhoppningsvis
##sbordet
Socialdemokrat
studenterna
gods
cyklar
avväg
gränserna
##sutveckling
Öberg
komfort
konkurrenterna
oavgjort
##järden
hämtar
behövdes
sir
Bolag
##emy
översv
världsmästare
Amsterdam
##dav
Scot
##shöj
Norskt
konsekvent
reservation
telegram
mira
VW
##ILLE
Bom
Namnet
q
SCB
1928
##ileg
##serna
##itekten
##svetenskap
alternativa
##dukten
Pitt
##show
Tord
övertygade
Trä
##sper
jaga
rekvir
Wallander
You
Skillnaden
##ilitet
##stall
Kista
patri
##hult
##papp
Call
eljest
##umpar
Ret
effektivare
kvarstår
torsdagskvällen
Penn
##inett
Jacobsson
Vallentuna
##az
Arab
Moseback
gengäld
##erik
Finsk
väldig
rådgivning
tjejerna
Landet
arenan
heliga
##right
##ego
Nyligen
##ieringen
##organisationerna
##ältet
tå
brottet
Kill
##ekter
##RÄTT
invid
pressade
välplan
benet
Live
Brita
överfl
helikopter
tandläkare
##batten
Vo
Platsen
mäktiga
snygga
terrass
##otterna
Mast
##ÄM
##ningssystem
Sahl
tisdagskvällen
asf
sexuellt
nyhets
##itära
##AP
##pas
klient
daglig
##ställer
fronten
tjus
konto
##ärke
skä
##edalen
Total
fjälltrakt
Hjäl
VISAS
Past
saft
handlingen
besvärligt
stannat
##kurser
Ekström
##ball
evenemang
eleganta
##terande
Kvalifikationer
1919
Cirkus
kus
bekämp
tackar
ruta
minoritet
##ante
##anställda
##sinstitut
förbättras
##splikt
klä
beaktas
Doktor
obligationer
företrädes
ishocke
##HO
##atal
Mallor
måndagskvällen
förlov
kläderna
##iotalet
särk
Franco
kliver
Provincia
nämnd
professionella
##snytt
tryggt
##sbankens
##sbit
begravning
##bis
##elever
Putin
Not
fälla
##xd
##giro
damen
##utter
Ent
förnekar
upphandling
##uppl
muslimer
night
##skriver
sekretess
isl
expand
dussin
typisk
##styrk
##skomedi
Arnold
##ugn
Ole
##spets
##bron
Ase
Medelhavet
Card
ledarskap
åtalade
chaufför
##ali
hyp
garderob
deltaga
##smästare
##hända
grenar
##antalet
##rävande
aktu
Ludvig
##cupen
##sakade
halvklart
anvis
Kontant
Micke
novell
förmår
dömd
##etill
Nynäshamn
DAM
procents
##satts
principen
inrym
129
rådande
tvungna
överblick
##skivor
##vide
270
##båtar
##KÖPING
fak
##etagen
##tekniska
##åtgärder
samlats
ringen
##finalen
##ningsrätt
statsråd
dugg
otäck
##gard
Lil
nätterna
fortsättning
mut
##sbud
##kol
##blank
sittande
oförändrade
uppsk
kejs
##got
bredare
Feder
##elund
##sutsikt
porslin
##lyft
fusk
##utsläpp
##sköldsvik
##föreställning
kock
Astra
Liten
Koppar
meriter
##ÅNG
1914
Nixon
Boston
spelad
stimulera
131
leasing
uppeh
vinkel
Berit
Global
Parker
kandidater
suverän
Degerfors
Bonde
Hjälp
idrotts
##viet
1910
målade
fördelas
##vätt
mellanrum
Song
Dit
plockade
##iftelsen
traditioner
##bass
återhämt
##ekomedi
##skänsla
Smed
meddelat
inverkan
HEM
Katrineholm
}
indel
skrivelse
omtyck
högl
erot
Jobb
##ivisionen
trappan
##ändring
Samtal
##rera
##shallen
##itation
##shav
##snämndens
##lunds
sparken
##sbranschen
##agor
itu
styrelsens
Ranger
Clar
avgjort
##izz
Prins
anställa
indiska
tungvikt
författarna
intensiva
utreder
##livna
djung
##TOR
##RY
Hockey
##sele
ansett
franske
sjöarna
Drygt
Bun
##spelaren
Spor
vinnarna
Ingel
##friheten
mejl
klagar
Kunskap
France
Willy
monument
godkännande
qu
PAR
Span
##ändringar
##él
källaren
startsnabb
##ällor
##ijon
Skatte
##lemmarna
ETT
sned
##fotboll
Miami
##uktion
teoretiska
adj
förenings
##orf
Lindh
Olyck
huden
hip
Ämn
Maud
##ningssinne
doktorn
firman
Beslut
nitt
skrivs
Nationalmuseum
samlad
förtjust
stolta
museets
Twitter
ersättare
släkten
Zach
##åkare
Hild
insändes
holländ
elef
UNG
Thun
måleri
supple
underligt
koppling
##etiskt
GL
praxis
Marknad
fiender
lir
gällt
Området
##day
fund
##hamns
spalt
bevaka
##sned
##arah
borgerlig
domarna
ping
##ktig
genomförts
##beredningen
bras
resur
##eler
villig
##omet
runtom
vrå
berget
Tja
mysiga
##univers
##ossen
Data
ansikten
organiserade
##örsen
##lassen
känslig
299
Helg
ER
marknader
kroppar
Siv
hjältar
skadan
##körd
Bernhard
läx
Jay
föreningens
ropar
Väste
bjuds
trycker
förbjudet
månads
exploat
stockholmare
Johnsson
råvaror
rysare
##riker
kulisserna
##atra
Historien
rymden
##rong
vintras
Duv
samtida
Arkitekt
teckens
invandring
blodet
konkurrera
försk
cykl
Priserna
Ce
Bam
Lagen
##leden
##zar
##skatte
##profess
sus
District
##skass
samhällsekonom
anpassning
strump
##59
##bostad
Jägers
felaktiga
kurserna
underkast
Nordkorea
konferensen
##UST
Trevlig
1929
##annons
##utiset
klarhet
##fet
##vagnen
företagens
##ivision
löntag
återstod
betänkande
vim
Sål
##istens
träda
snål
individuell
motsatt
Gais
280
EF
Måndag
##shän
Hapar
##rån
1931
##aliserat
Skandia
spelen
Nordens
##gångarna
länsstyr
Fried
satsade
KO
rycker
Grev
Sörm
liberal
Wimbledon
balkon
vagnen
ful
världskrig
America
inneburit
fjärran
320
##atter
##cial
förvaltningen
stoppas
##havande
försäkrade
Rasmus
coll
exporter
banor
barnfamilj
öar
##ärken
Boka
##varvet
##tande
anordnas
nyhetsbyrån
justitiemin
arrangörerna
big
gillade
försäljare
Skön
landstingets
associ
Anderssons
långsiktigt
Stalin
missat
##driv
hag
Christine
Sigge
##fylld
Onsdag
slutliga
SIF
teckningar
förstöra
Måns
arbetslivet
antyder
##ffen
##utte
##TH
tillverka
##pens
förmedla
HEL
PK
framtidens
##uen
prima
tunnelbanan
##keb
medie
figurer
Läkar
##planering
##stagram
smek
Frankfurt
manifest
kondition
##vietnam
##byggnader
##irls
tryckte
inspelningen
pu
##tjän
Cypern
##uskript
redovisa
riksdagsled
Bord
Bit
loppen
dagbok
utfört
##arth
Holmqvist
##shot
fro
Vatt
arke
biologiska
Instagram
normer
regioner
tillkänna
##starka
##rack
skakade
##nd
##52
##jak
Energi
##etongen
påverkat
Cooper
Melodifest
matchens
redakt
skötsel
Män
disponent
##skaffa
Antingen
överta
##arch
##raren
Mauri
Mosebacke
##kir
kollegor
sparar
Bogot
Byr
sopp
Längd
resulterade
Eliasson
##ifikation
Lever
Öres
turen
förstklass
Barbara
årsm
##ombud
handläggning
##igas
vagnar
##gärd
orten
##rier
hemligheter
dryga
Äm
BARN
taxering
Filipp
Marshall
vattenytor
avsett
utbildad
Dani
skickades
pjäser
faktiska
halt
öronen
dia
Sandra
njuter
utbilda
##sing
besegra
valrörelsen
byar
femt
övertog
affärerna
Bilarna
##tiop
##ustin
ypper
soffan
Mala
##OO
Största
lägret
##sbro
##farandet
bröstet
##visionen
landshövding
uppfyller
##ffekten
konstater
##sledande
skriftligen
tort
oljan
Höst
segel
Fälldin
kustland
Örnsköldsvik
Vincent
##xe
schlager
##stjänster
Amerikanska
##cal
intend
##ssiff
planerad
samordna
sekelskiftet
frimärken
bostaden
territor
##sstraff
Värmdö
##människ
Beställ
##oment
tårar
JOH
amerikanen
misslyckades
tillväxten
styv
kämpat
##ANG
irak
##utrustade
försatts
##reh
härad
Sandström
##niska
Hun
Ide
röka
burk
misstänkte
filosofi
galler
##sfrågan
##känn
pistol
##sug
påtagligt
Opp
jäk
lejon
##issarie
kupong
mull
##iserande
Alltid
Kinas
osäkert
skånska
servera
effekterna
integritet
utvärdering
förverklig
förslagen
AS
formella
##inspektör
##omsorgen
Via
tecknade
utmed
nedanför
##INA
##sformer
dröja
##varbet
GP
##aret
rehabilitering
Mesa
minskad
Språk
läcker
##järvi
Givetvis
ordnad
motorcykel
Hi
kortfilm
avverk
136
bergstopp
##boy
Säljes
##ogan
vågat
nyförvär
soldaterna
korset
Rest
gräsm
##ertif
upprätta
divisionen
Gudrun
Säg
misslyckats
tyskt
Arten
uppmanar
förstärkt
Cont
##slinjen
##bour
integration
sjöpro
##oteken
Etiop
Förslag
yrken
Sub
##ão
utses
##ventioner
Kungsholm
utnämndes
bekämpa
KÖP
juryn
konkurrenskraft
motorer
kvällstid
##emen
uppskjut
Gillar
BP
SAM
besöket
##cc
##ATER
entusiasm
Migration
understöd
##urell
Pel
marknadens
sjöprocent
##ändig
Nag
188
sco
Rikard
mattor
avvikelser
Susan
Grant
##kö
Vladimir
läktaren
älg
##sfilm
Benj
##ekonomi
Nelson
Göransson
underskatt
varandras
monopol
Linus
##exempel
installation
satts
flyter
##cio
avslag
klyft
Hudik
##ebel
lastbilar
##less
##lett
poliserna
##sgaranti
Såväl
storhet
förebild
inflytt
anställdes
##jakten
Telef
finländska
##ekvens
spor
skjuts
kategorier
Falkenberg
middagen
jämföras
misslyckas
##föreningens
Sein
ovanpå
papperet
vetenskaplig
raket
Fleming
Sovjets
genomförde
recens
##brev
förtroendet
entr
romantiska
1925
redskap
ås
##sbef
tröttnat
följs
rekl
dämp
Petra
underskott
månd
Jers
skilsmäss
Hassel
Alexandra
Sandvik
ombyggnad
Tron
Sporten
Fria
BNP
Opel
falsk
##snoter
##ops
Diam
INTE
1912
##akade
##instrument
##ulära
ifall
##rif
##ägda
försvunna
##anni
134
Medelhöjden
##asi
spektak
Bonnier
Kapten
Murray
STOR
råda
talan
##debut
ingrepp
professorn
Margit
##rice
finansministern
Ling
Sisu
##light
plattform
##orts
##föras
##ägenheten
##författare
##sbestämm
bråd
Frances
Hyres
Åland
Känner
övernatt
attity
##ream
Taube
civilekonom
##spriset
##ämne
inledningen
ovanliga
koldioxid
Pekka
##söver
##laus
Fro
##merad
betalnings
ställningen
kylan
externa
SID
Yvon
Muse
Water
Haparanda
##kro
Rel
Kö
popular
Lejon
Graham
stundtals
Act
vilkas
söndagskvällen
must
##läggas
Nederländerna
##anjer
upphäv
Gef
annanstans
Arvidsson
tjänat
efterträ
Schmid
brodern
EK
sakna
##ces
nionde
##tidens
Pon
skåd
##stillägg
dyster
Galleri
förbättringar
försöken
FLI
onsdagens
##togs
Sydamerika
sortens
Skäl
Milano
##ISKA
##fem
missnöj
##sed
derb
Dean
##ianter
##avsnitt
imper
##havet
skattem
deklaration
##otid
term
kabel
##kostnader
påtryck
Pakistan
Skarp
##snäs
rand
blomst
Whit
reagerade
fia
Åtta
vänligt
##föräld
Sell
psykologiska
dress
kallare
##agd
##ägga
##skilj
gruppens
Utvecklingen
damerna
hotad
engång
rubb
häftigt
Karla
kliva
Elisabet
redaktionen
hämtat
##mansgatan
serverar
uttrycket
##låda
agerar
dunk
##smät
##förhållandena
##konsul
utöva
zon
frågat
övervikt
##oto
signaler
##ändning
##egränsat
Norrmalm
PS
##tell
Mah
Formen
##reb
Broad
Llo
##register
regnskurar
##pac
Road
amerikan
Atlas
##berlin
##överstyrelsen
perm
Ljungberg
tilltagande
föds
trädde
enighet
##ANN
apels
komment
mkt
##ignal
skattebetal
sjukt
gyllene
stridsv
##folket
##ostal
Mallorca
utrymmen
pool
Lett
stoppar
värdering
växlar
infrastruktur
##riskt
Olika
Moss
Dallas
bortaplan
##tidning
glädjen
##posten
hunger
##oba
inven
##svalet
##aktär
Sökanden
ståndpunkt
tillåtet
ögonblicket
undersöker
##esh
##bildnings
fullmäktige
pojkvän
##agda
kristall
diskuterade
Strö
##rede
moment
korsord
julklapp
viljan
##SF
holm
framkom
Tävling
studierna
registrerade
##ikar
nat
##personalen
beloppet
bråttom
kläm
husets
skolm
asi
##hetens
grät
Ferr
Jabal
initiativet
inlett
meddelandet
flexibel
##ordföranden
##mandrag
flygande
##hyll
familjeb
##redaktionen
flyt
Lloyd
Jordan
##iano
##idor
VILL
Skala
##shotell
Lindholm
europ
Petersson
födelse
glasögon
åringar
##sdirektör
föror
##sgården
skickligt
Annon
räntor
##yth
frågetecken
Sån
gräl
pendeltåg
##svid
##gaard
Wol
Sist
spegel
relev
Vaken
socialistiska
Saudi
omtalade
volt
kritiskt
planeringen
##yrenover
##byt
besvaras
utförande
generationen
kallats
socialstyrelsen
##ingham
blankett
Jav
Mim
läraren
Yvonne
teckenspråk
moraliska
trass
radikala
löneklassupp
blues
improvis
läsk
Renault
landade
##ikanska
pant
semest
##årigheter
distribu
ojäm
väll
fotterna
utjäm
torn
viset
replik
förlorad
Ängel
utsikter
##fönster
stationer
marm
##skalk
rekordet
inblandad
##sbanan
reagera
orsakade
smörgås
Nad
Warsza
##naren
Danmarks
björn
förfall
##skapande
Harri
utspelar
Hallberg
##värk
Forts
##sess
baby
##flikt
##inerades
##sloppet
##uropeiska
flerårig
upplys
##givningen
pall
byxor
röstar
##rolux
##represent
Garn
##stiftningen
Disney
Västerbotten
Swed
##TON
övergick
##ARD
reperto
klänning
Blomqvist
pump
##älsa
##irs
##ief
##jekten
procentenheter
MI
##imen
pålitlig
kriter
##kaklat
##ansvaret
Sådant
Costa
trupperna
##rism
Detro
drottningen
##gavs
##iki
internt
överläggningar
Äg
Raym
flug
överflöd
##ijo
##parad
överlåt
medaljer
tillgodos
värnpliktiga
försäkrar
toppform
ätit
##esch
##INNA
berörs
Skiv
##51
klippa
Guid
lack
Bilden
nett
skrivna
nationer
Isaksson
Wikström
##ére
tillfällighet
##firma
au
##intäkt
##biträde
arbetark
garantera
Personalen
##esta
kollis
Grip
konstverk
positioner
kjol
Rädd
Krono
rulla
##sad
Nässjö
vänliga
tomter
133
##cip
stämde
huvudrollerna
vårens
##föreningar
##lest
Ange
uppnått
uppfattar
övervakning
blåste
riskera
1924
kortet
sko
favoriten
Afrik
skilsmässa
Actionkomedi
##tillverk
Västervik
Sankt
Åre
##GB
Test
##attack
Örgryte
torsdagens
kompensation
Handen
##rio
symtom
sva
relationen
Johanneshov
slät
##mör
##bach
Bogotá
auktor
tryckt
levererar
##ansvärt
Psyk
avslutat
Kontio
utmana
Rachel
polisk
teckna
KB
motsatsen
##ILJ
TID
##amatch
car
särklass
Ji
good
isolering
Wag
coach
##spsyk
##antik
Konsum
##special
##wi
##plåt
Märta
magiska
Alternativ
världscupen
danske
##iev
stadsteater
##ouch
##skusten
riktas
rann
Michelle
##position
inbjudan
Håkansson
stabilt
Rangers
##juset
Torn
gult
##sförvaltningen
##propå
##värdighet
driften
harm
gärning
klang
Liby
utflykter
schweiziska
belysning
angrip
##levande
försvarare
##förenings
anmälningar
inifrån
333
fullständiga
Åtvidaberg
evigt
klack
##sländer
skicklighet
infekt
verksamma
##ely
portugis
demokratisk
##hoven
abonnemang
##skyddet
ägarna
1927
##arknaden
Jakobsson
svårighet
##hållningen
religiös
Hå
försvunnen
fräscha
skum
##stationer
sjöar
tillkom
##intresset
motverka
konstnärlig
elektroniska
Dags
##ITRÄDE
officerare
Partiet
skandinaviska
##museet
##hol
Wer
Arrang
kampanjen
Teatern
TILLT
anklagade
fiende
Therese
##ökande
Blev
Ake
##avstånd
flottan
ensamhet
Vand
Vari
##byar
Rysare
##shögskolan
Kungen
Kvinna
Ran
Högberg
dil
satsningar
Jen
innebörd
##atism
##ilder
välskött
RO
eftert
Åkers
ersättas
skiftande
hygien
apparater
Haag
Aktie
##redaktion
lektor
stadig
##skraften
##kostnad
resenärer
nacken
nationellt
Tidning
##yle
juridisk
##harmon
ordningssinne
markerade
flyget
stackars
överhuvudtaget
##essim
Uppgifterna
Edvard
Laura
regul
järnvägen
Manh
skjutit
##scupen
Svarta
Brev
##ydigt
sålts
##last
bitr
Brid
förse
fordringar
Systemet
Stilla
regleras
rike
Grattis
myr
Mäster
Aut
kopplas
uppskattas
series
##dotter
ungarna
delägare
bol
##sbut
opinionen
##ågar
telefonsamtal
##ertig
korrespondens
inflyt
Nova
Sf
Utställningen
Piteå
Animerad
hänvisning
##jat
Förening
Wat
Scania
bevitt
##ådda
förändringen
nedskär
Ner
##emblen
behåller
##100
Russell
Juventus
mental
poster
Saltsjöbaden
arbetsgivarna
etablera
##banor
glädjande
Get
##alys
riksförbund
##textra
Uppdrag
bakifrån
TE
mul
##flicka
spansk
skådespelarna
##ruller
blandas
klimatet
statsrådet
##XX
inbjudes
spann
Väderlek
##ouren
##planer
fansen
##cing
##sanst
frys
Ronnie
##förändringar
##abon
##sfrihet
##fra
konstant
##odor
klaff
##prat
##spröv
tavlor
tolka
skrädd
främste
förälder
Lah
Närings
Wide
Adams
påstås
##AMM
Säv
SOU
mördade
utvecklades
farfar
##röja
##kla
fikt
Kings
##jov
försvarar
Ian
antyd
##väv
koncentrera
uniform
förskjut
##byxor
##gränd
gedig
viner
Wald
anländer
expon
dessförinnan
MS
bevakning
bygget
Väners
##såld
ik
Sålunda
styrning
TRE
avkastning
Sif
VIS
##spelen
Stern
##spelning
utrustad
tär
fattigdom
Bio
##hitt
fotografier
##reglerna
Tank
fastställa
tidpunkten
finansiera
stenar
liar
##pengar
Night
py
minskas
Vilhelm
behandlade
sax
Stri
KAN
##tidningen
målare
##En
hållbar
strategiska
mästarna
lokalerna
spels
Robb
tör
Puss
##hild
##ogas
avrinnings
1923
##ocion
Kak
##iknande
##skift
varnade
entreprenad
##burn
Morris
Istället
Jacques
##sr
Ylva
Rudolf
Bofors
Värd
##bomb
##shjälp
Puerto
fixa
väga
AC
##möjligheter
##NDAG
##stapel
Stone
representation
idiot
alliansen
Jel
##oblig
Reserv
##litteratur
##skryss
charter
slet
palestinska
Kungs
franskt
Hudiksvall
Intr
stolthet
ställes
storlekar
anat
kommunalt
räddnings
diktatur
Rec
##atser
nyans
ansträngningar
Sud
mästaren
Tyd
##NAD
Hornsgatan
Jägersro
folks
pur
FM
##ble
Regiss
kontinuerligt
##kare
Öresund
init
gåt
ombudsman
katastrofen
##ULL
redovisade
därom
##givaren
##ENN
konkurrent
dyst
olämp
##grupperna
##vinst
riva
Rysslands
##nick
##talande
uteplats
kärleksfull
bojk
Luanda
känslom
##ekr
Raymond
##pul
##VS
##sfest
Säpo
Höj
fakult
skickliga
akademiska
##årar
konserten
vidta
guide
Svara
##väsendet
pionjär
Holmgren
Centern
allsvensk
Nav
förverkliga
Tyr
##horn
rinner
Gäster
Sommaren
##fas
Kostnad
mum
Elever
Hills
yngling
KOMP
turer
##fotograf
uppfylla
följaktligen
Kopp
kedja
sändning
teamet
##kov
hugg
versionen
dylika
socialtjänsten
MALMÖ
hatar
medverkat
##ämta
påräk
influens
##effektiv
149
grundlag
sluten
köpman
progress
redogörelse
doping
retor
traditionen
got
##rullen
Quebra
diskriminering
mother
Andersen
ståt
Normalt
##crantz
blandade
ljudet
##egro
018
utesl
Brå
förned
träden
romantiskt
Vide
Tunis
144
slä
sexton
##hed
Östtyskland
Brist
muslimska
##ämmas
Hård
##aljör
omöjliga
##RÄD
##ningsman
sel
Pam
Rot
brunn
gard
utföras
hyresgäster
pausen
Körkort
tisdagens
platta
gä
Blod
Grå
konkursen
tillgodose
färden
tillvar
##staben
brottslighet
Audi
##vakter
argumenter
Sthlms
tillhöra
sammanlagda
Jod
plagg
camping
##skrän
##ttid
##sey
Suzanne
##mont
##grepp
Pojken
Claude
Niss
stängda
##agång
balansen
020
Mem
byrån
sna
fördelade
##prom
##sutredningen
kungens
biflö
revy
sjuksköterskor
dropp
##sbord
##beslut
domar
Sta
partist
Tunn
dansen
debit
Varberg
herrgård
##tider
extrautrustad
måst
häpnad
##säsongen
tidningens
Prom
ungerska
Såg
Exper
premie
killen
tunnelban
självbi
556
salen
anfallet
Välkomna
föreligga
kvalificerat
häx
Änd
Sofie
##oarer
##intressen
underjord
ödes
garanterar
hjälpen
Berndt
asylsökande
lämnats
Quebrada
Tog
vag
##anders
erhålles
Up
mötas
##etty
Vann
Benjamin
småhus
spaning
hantering
Rav
inriktad
ökas
##chanser
Lan
jeans
efterkrig
##modern
ländernas
##spär
##leverant
spontan
Sportextra
Sanna
extrema
##pristag
fåt
kärnkraften
##ebe
allas
grejer
reflex
sönerna
##rörelsens
förenkl
fäste
symb
riksdagsman
sjukh
framkall
vai
SN
##emit
hug
övergår
Philips
offensivt
Fräsch
mäter
##agon
Fastigheten
fasc
stadium
340
fjärdedel
representera
mördaren
klinik
##strafiken
bant
##emburg
Anmälan
förbl
bestämmelse
dubbelrum
Moln
odling
##ami
arbetsplatsen
folkpart
provoc
##festen
subventionerad
vårdnad
gap
##hamnen
förestånd
hemlandet
galna
##ATAN
mex
deckare
bada
Patt
strängt
##inkt
fördjup
##fron
teckning
halvan
sjöfart
##eps
##regi
##nev
132
privileg
döljer
##satsen
Diana
Crist
Aktuell
Ric
sänker
Högt
##etisk
utformas
ana
pedagogiska
inspelning
fruktar
terrorist
segrare
bedömare
##osh
insett
FOR
projektledare
Wahlgren
##elett
plöts
Jarlsgatan
KR
Norén
söta
Miljöpartiet
inneha
rasade
Camer
flag
##låd
##beskatt
smaka
##emellan
##sköterska
utförde
garantier
##ekon
##KL
##edande
Dia
självklara
Skeppsholmen
invester
utbildningar
Cruz
Lindahl
##aba
##ssl
##aser
gevär
##redakt
##näst
Möln
##ree
##unnig
Tillbaka
Skara
Europeiska
vittnesmål
AFP
##idem
föreföll
missnöje
mildare
mins
indik
##dals
shopping
##ommunikation
dispens
##nära
##mens
summer
330
baserat
försl
mystiska
ull
beskyll
beting
ansetts
##UC
1921
rebell
Lööf
cn
##marsch
fokusera
grundval
dömde
militären
klädsel
bearbetning
Joan
uppvisning
Steen
förödande
mobiltelefon
tillförs
Ehr
fjälltrakter
NO
rejäla
tus
höjas
framstå
skrot
tillåta
införas
valen
##yton
##alia
lamm
Rosenberg
##anderätt
SAL
Detsamma
folkomröstning
Bohuslän
##däck
levereras
##round
bedröv
lie
##domstol
##anstalt
##lemente
Virgin
glöd
##safton
modet
PER
##ways
##skrets
västern
##kret
##förvaltning
nöjer
##ipset
andan
Roma
röntgen
aspekter
reng
##jandet
Ludvika
Lyss
Roman
##spå
päl
##apt
vul
##sbyn
tw
ryske
County
##äsare
påfallande
likgilt
tagen
##nets
##sprid
##stenar
Seinfeld
engagera
förplikt
äran
kusin
##lius
##juven
##ättring
##slutning
##elie
##redovisning
Dim
åkare
##skultur
Odd
Oskarshamn
leverantör
glid
##utsch
##vägs
Underhållning
segrade
##mågan
Marin
Detroit
Höglund
dagsläget
##dräkt
lun
##ules
sålda
VÄL
##sstöd
##fver
blandar
ackord
##sbolagen
charmig
enheten
feber
Näv
1926
##skostnaden
oundvik
servit
##skiva
somliga
aven
förskott
bänken
##junkturen
kördes
##bitar
variera
##följer
medförde
Emily
rosor
##administrat
Stol
Nio
typiska
Care
##ETT
##medicin
skriftliga
orientering
sjunka
EEC
##gang
organisator
##styp
märka
undgå
##profil
bin
2020
Marion
Andrea
Turist
kollap
Dat
sör
orimligt
Husse
uppgå
Säkert
##musiken
##läget
Lennartsson
##entry
##hytt
lyckan
musikalisk
generella
##jong
183
syssla
snabbaste
##utredning
##ppel
Strindbergs
Kriminalserie
torka
Danderyds
skulptur
väsen
##lång
##ther
##slär
flyr
015
radar
likväl
Grace
upphöra
##esson
uppmanade
##sklubb
Bratt
##följetongen
##flott
tillhört
Miljöklass
Kind
förbättrad
nakna
betydelsefulla
HÖ
##myndighet
Hammarbys
Johanssons
##amed
kooper
regerande
##slägenhet
Karlberg
gälden
Eugen
rullade
förändrade
##arbetande
Morgoneko
##thriller
Bobby
sysselsätt
rapporteras
Cle
Luck
##eknik
BOR
årtionden
Bohman
##kapital
##smässiga
Familje
tävlande
##onyma
##departement
Öste
resurserna
Steve
väninna
##zj
##ålder
återin
Nr
Strandberg
Eget
##strafik
minnesstund
##shandel
strejken
##PER
Korn
Känns
störtade
##cirk
##spegeln
intrig
##pop
styrs
festivalen
månen
diplomatiska
Wig
##agram
950
hyran
ANN
inleda
Köping
uppmärksamheten
##amla
Gene
##boda
##iffer
##vilja
##onsvar
Time
Selma
##gud
Tala
Eriks
##ough
skadorna
leveranser
försvåra
manip
Angela
grädd
##kontakter
Stens
operationen
vakna
sås
Värna
solidaritet
oupp
##vänner
signatur
##IEN
litar
rörliga
medborgarskap
##brutet
ställda
Uti
Norrbottens
växthus
avvattnar
Eh
svit
eviga
##mässiga
agenter
Airport
förebygga
tonen
##ffs
önskat
slav
planerings
SG
##gröna
tjur
skyddar
katten
Bestämm
##hundra
stängde
NORR
okänt
mördades
freden
tillskott
nickade
##jukhus
##ifta
##kammare
arbetss
avgöras
Läkarna
hemligt
svagare
tidskrift
Salv
dirigent
inkluderar
Iren
mördad
##avdrag
Musiken
##PR
Derby
172
skald
degen
uppfördes
Rent
måndagens
smär
intellektuell
##skatter
valda
Etiopien
##bjudande
keram
migration
##ikna
fotografen
##ängda
gripa
##liknande
##giften
##iane
##astro
##kampen
greppet
avlyss
Ack
Asea
##jämte
##rn
Niclas
##löpande
len
förklaringar
årsmöte
##skör
pod
##sättnings
tillgången
Chefen
Ester
##fyllt
##vännen
absur
nackdel
##tat
##skikt
användare
##olyckor
extern
Stenmark
##owe
##bröd
svets
mage
skylla
Energ
CIS
kemikal
bebyggelse
skrifter
SER
rökare
fastighets
frågesport
##arutbildning
Comm
geograf
dj
Boyta
makarna
beräkning
Västeuropa
anmälde
Reuters
Nyhetsmorgon
tillförlit
gry
Ämne
berömd
mikrof
utvecklingsst
##stedts
##sfil
avgräns
värdefullt
##scen
##sha
Gärdet
skrivits
##ävar
Stein
##ssynpunkt
1922
182
lova
##kung
blogg
vännerna
Dokumentärserie
##smyndigheten
styrkan
##argatan
fyrtio
påståenden
tvist
##släkare
obest
Newcast
konsumenterna
Aron
skogar
##sutvecklingen
##regn
gur
##lyn
fordrar
Benn
##com
##uez
lockande
##vecka
Ris
Gick
vänstern
försvarets
##underna
Pirat
drömma
Intresset
överläkare
Rög
##iteln
Nygren
##holt
Mario
Golden
justit
##trar
##ribut
forum
Munk
hbj
otaliga
dimension
Tell
JA
##desordning
champagne
##sål
##major
##sidor
Kiss
lagkamrat
Walt
##fordon
##resurser
upphörde
##miral
biflödesordning
Bomb
lättnad
Begär
förvånande
ster
Dela
homosexuella
adr
skaffar
##läger
sades
klagomål
regnet
Carola
kalas
bly
##KE
skolbarn
rörels
Minnes
märket
tränga
##behand
begynnelselön
##inget
nödvändigtvis
##upé
förbunds
##alar
GT
1400
grand
mänskligt
frun
olyckligt
kopplade
##hals
##modell
##skläder
reportageserie
låtarna
expressen
##dragna
Pra
mu
mönst
hjärtan
buk
Hägersten
##akat
vägrat
Löfgren
Gräng
fackförening
##sförmiddagen
##regionen
##uman
##abla
ts
##ancy
##BB
Rosa
##stycke
slagsmål
farbror
kollid
höjde
FBI
dokt
Ville
##funktion
Kans
slank
berättas
##illverk
efterläm
##dubb
##oderna
underläge
##klubbar
##villigt
snabbast
##räst
numer
vika
##brandt
trion
Personer
##ovskij
vansinn
fingrarna
alltsammans
141
##andarden
Börja
inkall
Bellman
##jten
uppnås
##änniska
svind
##svarande
##firman
stal
##äkerhet
##inska
ringt
Gjorde
uppgörelsen
{
slätt
viktigast
förson
noteras
sjukgym
världsber
Cos
##uccén
knyta
##FT
utst
##yrer
grott
uppskattning
##wig
ask
helger
sling
pressmeddel
förlåt
That
Ert
Dala
Chal
summor
##api
dödats
275
##direktören
##opin
Fantast
spur
Carlo
Lantbruk
Hom
##estraff
ilska
minsann
é
1300
sexual
trivsamt
betytt
genomsnittliga
##skam
mammor
##anch
##tagits
imponerad
##tti
akti
##möj
##zza
##owski
##arf
Serb
Cañ
fäl
Peuge
elektrisk
kår
förträff
besatt
verkställ
##vidd
soul
sparande
##lagts
1100
badkar
vildmark
obef
Sver
##kebiskop
Opera
##otet
Jakten
processer
Kvarn
siste
lönes
##ury
blomma
krönika
plat
skru
Långt
##artikel
smält
##ÄRL
Music
##värre
ordnings
Luci
##ryd
310
prestig
auto
Uutiset
##vets
svin
kontrast
Boo
Tegnér
##ordnad
kritiserade
kontanter
sångerskan
##say
argentin
budskapet
##cier
Gefle
Lediga
rimliga
roligaste
tomat
oförändrat
förkast
##sspelet
inbördes
##cock
##lås
röker
rättigheterna
Brol
fullbord
##sfabrik
miljök
##sgat
##hai
väp
First
##ftade
Höjd
passagerarna
Metro
kommunernas
rival
Cath
lönerna
3000
Well
Fischer
fördju
Owe
mäk
förväntar
pel
Likaså
hels
Fören
story
exporten
##uan
##andag
oväntade
befolknings
köns
fräck
##sbek
fjäder
rov
Feldt
orkestern
satsningen
##aliserad
anklagas
hörsel
fortare
individen
##ARK
##ulation
lämnades
Volvos
##båts
gisslan
Borgenärerna
sext
Centrala
rasism
##skolleg
##stjärnor
jugoslav
End
##shäls
gode
avlagt
Västmanland
##stugor
Luxemburg
horm
##orin
låda
Värt
minuterna
Schmidt
##bildade
övertid
begrip
officiell
##nit
sjöutsikt
renovering
##stjänstem
vetenskapligt
fula
aktieb
Bö
##avd
åtn
##förstör
nonchal
tillkommit
##imo
milt
tunt
##äh
Wild
slum
Larry
##sort
maskinen
##imerat
##sband
##éne
ledighet
meningar
utvecklings
samlag
fönstren
komplicerad
tjänstgör
Mellans
ankomst
ettan
schabl
tjänade
premi
KD
radions
diskuterat
Schön
kyrkom
##inom
kastrull
trivsamma
hyllning
delad
>
Pengar
##sområdena
begränsning
utstrå
##ändskt
intendent
Stav
##ija
Katt
vattent
lutar
provision
rutt
unionen
##sbor
Abd
##irt
baserade
förbjudna
##ms
operationer
##STÄLL
Gat
relat
Sundin
årsjubileum
Power
skapades
##ASA
Bergslag
oron
##iar
huvudlag
smaken
##ekend
norske
thrillerserie
rumän
generösa
upplagan
Planet
katter
upprop
mästerskapen
Vasast
Lita
studien
Konstnär
flyttades
##TID
sällsynta
Tings
##försörjning
fördomar
##udde
Raf
studenten
Bernar
Institutet
satir
Blanc
fördöm
Gav
##valver
tävlade
artilleri
regeln
stormakt
grabbar
Final
orsakat
tonåringar
Desa
##församling
##aktighet
##imentet
##ustration
Ralph
Strauss
Drottningholm
karta
utomstående
##ångare
försäkringar
Jämför
Beatles
verkstäder
bemärk
cyn
Tang
Gränges
oviss
Antar
återvänd
jo
##frun
brasili
hälsade
markant
drå
säkerställa
vikari
##ky
Peder
Ång
kommenterade
Kamer
Dokument
##yger
##ompanj
##betes
torrt
vitamin
##rings
fläkt
spill
Lys
Leijon
Kenya
anmälda
##smatchen
guy
sans
##sförbundets
sinnes
gull
##iesel
varar
##givet
förfal
##ringa
##etik
utvisning
insamling
spol
Vispa
Gis
rapportera
överväld
attraktiva
skaffade
##lusten
tingsrättens
Grande
Län
##ranschen
regeringar
Hawa
nyval
drivande
arbetsdag
##utrymmen
onödiga
##mond
##journalist
BA
##roman
Förhopp
invigdes
power
Tillfäll
sjök
##föd
motivera
grundskolan
##svatten
##sgl
##anner
forts
buff
överstiger
##sek
Anja
bass
feta
##ierades
avslutad
Mariehamn
Arena
saknad
outsider
kylskåp
omval
163
Veron
Sky
##ÄND
##onerna
Englund
tyske
Let
Kub
hota
##bergen
Skarab
1915
##stidens
Tol
Äldre
snus
elak
##amatcher
demokratiskt
##gripande
motsatta
##YGG
##zak
kategori
artisten
prägel
lasarettet
Jordbruk
förvaring
hava
fasad
pilot
995
mast
##sätet
radikal
forc
koalition
##räning
Bac
137
letade
suckar
##JA
##rea
sommark
GÖR
nyheterna
Lise
harju
revid
strävar
bortglöm
##linjerna
Öns
Gemens
##ocionom
tröja
##idi
genomgå
sprinter
Lauren
differ
Edvin
troligtvis
##onia
##Bet
pessim
Toy
datas
kvitterade
Hess
Oföränd
kommission
Fartyg
##öring
gala
Everton
demonstrationer
##kh
##lng
##irat
Arvika
emp
ödmjuk
##iguren
landstingen
livlig
kork
Luis
blåst
överraskade
mästerskapet
hetaste
NT
närma
##icy
##pur
##cover
##attar
rang
gråta
##nalen
##erns
plusgrader
FRE
sammanhängande
varianter
nyttig
enas
ÅRIG
##ämbetet
##åringar
##ämnda
ateljé
##areg
Försvars
##eyer
Lie
anklagelser
bekräftade
##oz
proposition
surf
Station
##span
##jorna
löjtnant
Vänd
##ights
##reglering
försprång
Rädda
satellit
manuskript
noggrannhet
järnvägar
oöver
innehavare
Joy
Bed
hörna
skarpt
Kriminal
myndigheternas
Thom
baren
stram
##respondent
stränder
Jakobsberg
##erbjud
erfarna
storleken
##fect
lura
##cos
##esar
Agnes
sinness
leken
omed
ersätter
obligatoriska
Leeds
AK
påminn
dansade
yll
##kalla
Cameron
investera
fester
gynnar
##oen
intäkter
##sstyrelsens
tilldelades
träffats
förbannad
Synd
Arro
strömmar
##pag
Oft
##riften
##larm
anslutna
ade
drabbat
##ägar
##olet
intresserar
138
finansieras
Ullevi
##hållandet
178
arbetsliv
##tränad
förvåning
specialister
##rörelser
bäddar
Rydberg
##spaket
gissa
##ersen
kinesisk
Håller
Sheff
##örelse
kvaliteter
besättningen
upplägg
skridsko
Ekerö
Hack
potential
moderata
kostnads
mittfältet
Fax
fastnade
användningen
tillverkningen
butikerna
##höjning
svårigheterna
innehav
tvätta
avbrott
##sfär
kopia
romer
sammanslag
Sadd
närm
Hermansson
151
angav
Skytt
glitt
striderna
##idragen
räddas
Molly
Bagdad
##möd
Klubben
##ningstiden
erkännande
Blomberg
##sur
utpl
Kommentatorer
SEN
hembygd
övningar
##rida
##atell
Guard
stugan
konsulter
##smiljön
träg
kastades
Kri
enkät
tillträd
Kinn
systematiskt
##uddar
##sförslag
Malmberg
Chan
DAGENS
akuta
biträda
hjärna
FAM
utsattes
Za
sammansättning
##ådan
ii
##garanti
kartan
innehållande
##ytet
ven
##teknisk
tvättstuga
Ilar
hittats
##sponden
axeln
##ningsmat
Livsmedel
1916
Ster
resterande
jr
halver
##xc
Kay
vännen
MoD
samspel
hån
Pride
##omin
auktorit
##eser
##övande
simma
alltihop
behärska
##fly
##antal
##kursen
underlaget
överlevnad
likasin
orsakerna
vistelse
Au
##edish
föroren
BE
495
hön
påtaglig
parallellt
rön
debuter
num
författar
Balk
Kav
##aktiviteter
295
livligt
Almqvist
Inn
##ampar
placerat
begagnade
ålderdomshem
otänk
kommitténs
Elias
Manhattan
Charm
Kring
förutsäg
hyllade
godis
ärligt
leksak
rösträtt
##ställelse
Flo
tillståndet
Kön
kommuns
##fiske
##berättig
trångt
Svår
riktad
Järnväg
konserver
Mathias
Sek
telegraf
##olds
##varn
gammaldags
375
##shandlingar
prisp
energisk
##matcher
skorna
##änget
avskräck
##exp
##otal
stockholmarna
##jel
flygvapnet
löd
tränger
glömde
##sflyg
Värnamo
##vey
anar
Toronto
omfattade
Tiger
följdes
införande
anfört
Lot
##hodes
dill
Merk
ingripande
##senhet
tidsb
landsorten
##olutionen
kyrkliga
prostitu
beklagar
Newcastle
förnyelse
##rogna
##utrymme
##ämningar
krigsf
Åren
föreställer
char
##ku
prestera
inventarier
genomt
paradox
ofar
samtalen
västkusten
reparationer
borgmästare
##atiken
Queen
emig
Kunskaper
arbetande
##lj
Bergmans
brunt
Situationen
##iew
##omme
anmärkningsvärt
##ETER
notera
##rast
japansk
Catherine
skriftlig
slös
##resident
##ståg
bereda
tillbringa
Indian
dräkt
##sskolan
Geijer
Kvällens
Teleg
Bjur
##övare
Wel
##shire
Svanstedt
Libyen
tittat
veterinär
##ÄGEN
mittfältare
försörja
ratten
Nävy
Susanna
Ler
##vinkel
Skaraborg
kemisk
##ostadress
##VÄR
##spelarna
stök
kokt
##lén
Apoll
föl
Aston
##grå
1909
##ändare
##sposten
maximalt
porto
abstrakt
##ardo
orsakar
Woll
Nordamerika
tiders
informations
Hjärt
Sparb
##centra
ba
stötte
Valet
##gubb
##blo
##mingham
##ocial
glider
##adelph
attacker
bedömningar
##INGS
tända
Cron
spe
##lash
medeltiden
##ETS
Bren
radikalt
gol
fördela
##rapporten
smarta
ömt
Kund
Jr
utformningen
gung
fördelat
##imb
blodiga
Broberg
Kry
flaskor
framföra
dilem
besätt
toner
iaktt
##kop
Haga
Vardagsrum
krävdes
relationerna
##skv
MOT
betonade
Iron
##itte
##ådd
avslapp
årsdagen
##ositioner
formel
melodi
##Ar
Gerd
utnyttjande
290
foss
foder
Gorbat
##plet
##TK
##stock
Olsen
söks
anpassas
täckt
trenden
stärkt
Lawren
accepterat
krym
diet
Bever
Linne
firas
##witz
insändare
folkskollärare
omb
Nedan
framställa
komplement
portion
populäraste
mödrar
vald
##mäktiges
time
köparen
Kart
Wayne
##lådan
Fol
##ippe
citat
komminister
Porträtt
Jersey
kassör
jung
bokstäver
freds
ensamt
Kontor
renod
Nur
gerill
##urné
##inet
##käll
Spelet
fängelsestraff
##cks
iscens
förvaltar
nit
eupen
beman
##orkestern
Sande
##illstånd
##ånden
Py
käk
Dahlgren
##säsong
geni
kärna
sämst
tillbringade
Spe
strålkast
stöter
Strå
Brittiska
LK
sångaren
##ends
spanj
slita
##inho
arren
Ec
stöl
svält
##espår
åhör
##hjulsd
utspelas
Lundell
hi
överklaga
angivande
Lina
riksdelen
godt
entrén
återvänt
Radioteatern
##operan
##stru
Rex
##oko
Gala
Nicolas
##ningsområde
Timur
stoppades
störningar
Raj
##herre
##bury
göd
varg
##etabl
Henri
bilaga
##kande
##massa
##skrivningen
Luncheko
Komp
Kamrat
skydds
trumf
##styrkan
Oj
skillnaderna
misstankar
prestationer
solo
engelsmännen
Ståhl
upptar
undviker
##ständig
kirurg
uppbyggnad
efterfrågas
Kunde
Båstad
framförs
reparation
Riksbanken
klär
##sägaren
Ugg
isär
##kademi
löneg
bortåt
ID
##ramp
##rutan
underströk
##ekl
knall
##amente
cur
ställts
förenade
Mitch
förgift
##asyster
Mang
##shuvudstaden
Igh
orka
##ruckit
Lissabon
Vänersborg
##skulle
SH
hopplöst
vemod
ego
felaktig
härav
Utveckling
Londons
Vana
Gång
Männen
bunden
viken
Tennis
godkända
Jeremy
instruktioner
##listor
handfull
##osse
kubik
akter
rasar
##kål
##ommen
tsk
##före
##peut
##skansliet
##opt
precision
mänskligheten
komplicerat
utbudet
belys
kollektiva
##nandet
Anette
propositionen
##ocket
Nack
Säkerhet
servicen
Romantiskt
##åst
kompletteras
talist
##ningsmet
konstateras
Dh
samlingar
##HAMN
##sén
##nation
Berger
bönderna
Icke
Rand
Autom
margar
stabilitet
Hässle
förmånliga
meteor
immun
Sle
avståndet
##storm
Högst
sjutton
hyfsat
Åklagaren
395
pip
bis
knappa
Linköpings
##maren
##bott
Brage
##sön
tredjedelar
skapande
##NN
##ule
Midd
friluftsliv
##ides
Regional
##stera
Roberto
##sfördelning
##akomediserie
##passet
168
##lika
tillsätt
värdesätter
##vakta
Yrkes
Nas
älv
introduktion
Dylan
mottagning
nybyggda
Wahlström
vardagsrummet
skakar
tillåts
##ftt
174
begränsningar
Jern
dansare
koncernens
##båten
överraskningar
Ralf
betalades
Kristen
Die
##fari
Rink
Keno
laboratorium
Sko
epis
umgänge
vikariat
väska
överlevde
##terades
elektro
Electrolux
stjäla
årskurs
Terry
##tendent
primit
##fästningen
Swedish
Gustavsberg
##yckel
närliggande
##hushåll
##vari
socialtjänst
stadsplan
auktoritet
Svenskarna
utlänning
luktar
Sheffield
life
härvid
mattan
dance
##nor
Dead
bost
krafterna
##jänt
##trycket
Ikea
skärm
romantik
depression
ackum
##publiken
Emellertid
hotat
placerar
Pian
oändligt
hanterar
##stockholm
Italiens
##administration
##sbörsen
Eden
162
##fundet
utbrott
grått
sanna
hävdat
fortlöpande
001
##UNN
försvarade
frispark
Fle
##regering
DR
##ekut
##SER
Rag
##umble
##olley
trög
Larsen
Beet
Pow
kvarts
##läkt
funderat
Irene
Pippi
Ingela
stafett
uppskattade
mc
Gent
Div
åratal
Birmingham
överstel
##RIST
Moon
Wahlberg
påminna
besvikna
##dl
antogs
bolags
teorier
Lyx
rymlig
Key
Arbetar
##bebygg
smärre
turism
tipset
tveksamt
pla
##ansens
märkta
##hts
Tir
isb
Gift
avsl
invändningar
ps
överlämnade
##röda
kvartsfinalen
ranson
prästen
SVAR
Rök
##enez
Mix
Terr
tillträdas
1913
bedrägeri
löken
Rosén
Söderhamn
##agerar
Peugeot
Eisen
##iskan
skrivbord
Symfoni
##mis
exam
Halvklart
Buff
morfar
ledamöterna
spritt
Ribb
Meningen
uthåll
rationalisering
##ositet
brant
##ammation
personalchef
Fan
Kines
gilla
JAN
##IER
besvärlig
Bing
härtill
specifika
##neby
nostal
tänderna
##iy
Gross
Befolkningen
ägo
##anfall
konferenser
##slutet
##ällskapet
uppenbara
##skrivet
##onald
uppseende
gräset
bomber
Napole
beräknat
rod
inställningen
##annar
##rabatt
jämlikhet
##anie
belgiska
allvarligare
##sspar
Pehr
definition
fritids
Exempelvis
inställd
Philadelph
##säck
##ulerar
kin
skyddade
arbetsledning
##ÅRD
##dikt
##tråd
##tagandet
ministern
DDR
Tels
löneför
Sjöväder
gårdar
##check
bolagsstämma
##Wh
KILLE
420
Mack
Lane
nedanstående
##olika
##trädanden
##vändelse
överraskad
Margaretha
rat
kameror
##svikt
apparat
åtgärderna
etappen
##ullen
anonyma
förväntningarna
tillika
dial
erhållit
##roe
Nja
Australia
##oprogram
krut
avbryta
salongen
gast
##fyller
kontrollerar
##tsel
raskt
avhandling
##stillfällen
hemt
##skommissionen
Agen
öppenhet
tillämpar
skälet
Tyska
styrande
##förda
intar
Sah
Avresa
muskel
##house
Maxim
fron
nyut
lockade
mediciner
decentral
##sidigt
sänkta
skarpa
lyckade
##ogram
Churchill
Friberg
skräp
2140
neuro
Nicole
Roth
kommunicera
Hjelm
##intresserade
överväga
Barry
temperament
Knutsson
SU
utfördes
Sad
rättighet
##underhållning
aktien
protesterade
TEL
Salm
tillverkade
Torgny
ingredienser
målning
vetat
rusk
utsände
bö
##skup
Sign
bevarande
strim
##intresserad
trio
Odenplan
##platserna
jävligt
varade
bekväma
Shakespeare
grubb
##rerade
visats
##rekordet
##emangen
380
utskottet
##slän
##slingar
1907
##xamen
porten
orättvist
##isky
##sträcka
vaken
Sally
bilens
angelägna
Serien
EMU
##edonien
##rundan
mont
rutinerade
slutna
##hof
angelägen
Haglund
Tig
Stru
##othy
fruktade
NCIS
Tyst
möjliggör
Finska
Saudiarab
##ands
tragedi
##strakten
Cham
affärsman
Grad
##blin
paren
##älv
spänn
lot
hylla
Hoffman
civilis
##nyheterna
##sfakt
straffet
McK
##miljon
rullstol
synlig
##mats
Alvik
##skommitté
avlägsna
beväpnade
publicerar
Rost
övertygelse
Hitlers
dokumentation
##area
antisemit
Eko
##ehåller
fräscht
nyttigt
österrikiska
teorin
##iern
##äver
Jimmie
##stidning
142
##isseau
popularitet
styrde
Liz
ifrågasätta
avsåg
Bakgrunden
##demyndigheten
befattningar
allmänhetens
##satser
tillf
inskrän
Til
dolda
Månsson
Bernad
innehade
följder
Temperaturen
redovisnings
Handelsbanken
Franzén
beskattning
utgift
SÖDER
Häcken
Vinst
##FR
avfärd
skattskyld
tortyr
##sjuka
allrum
ble
utrot
sliter
fingrar
farn
milen
##längd
##uster
Dje
##färda
försiktighet
##märkt
##alendern
Mårtensson
ki
lånat
avlämnas
blåsa
kyrkogård
aktieägarna
komplettera
viol
angen
##deklaration
elektronisk
programledaren
omför
##dén
Molin
Johann
##xen
frustr
irrit
##ionella
avgjordes
##bbar
elimin
språ
##FFÄR
kraften
spänningen
exil
medhjälpare
Säl
##sbrev
Skärholmen
SOL
##rant
Alfa
Bäckström
konservativ
framförde
##avilj
##merande
Oms
nul
##settan
andliga
Singap
Stal
legiti
härför
##CC
ofrån
museer
tidskrifter
Zag
vaije
1905
Wetter
##butik
otrolig
##JÄN
Arbetstid
FL
HA
hemska
##aktiva
Tills
##undervisningen
attacken
Harrison
spjut
##sförsök
##ods
Happ
Lån
Woody
##sdelar
beställt
##spartner
##staterna
##bevak
sevärd
nyg
Ot
##agua
##RES
##jes
mkr
molnigt
##stiftning
ångrar
Larssons
Ay
hoppat
##gio
avgiften
##undan
Kompl
köpas
Colorado
förhoppning
dagtid
taxerings
guvernementet
strömmen
Him
##éd
tig
##yrket
funk
exklusiv
1908
##vänligt
yttra
upptäckts
arrangeras
nybörjare
Ruisseau
PLA
sjöss
brutalt
fransmännen
miljöm
##slinje
döms
Avsikten
Lawrence
tilltalande
hållits
##wives
fritiden
chanserna
Spelar
tap
siden
Adrian
erforderliga
184
ersattes
sopran
duschrum
Rögle
##historien
Palest
aktiekap
Kropp
Islam
##stävling
GB
Svårt
kommand
##ösund
sänkte
gynnsam
underarter
Brandt
rubriker
FLICKA
avgas
välgör
underlättar
krok
fördom
Sollefteå
kik
blandat
CSI
skara
Ljungby
1911
Värmlands
gräva
Bis
Främst
Team
Nyhetstecken
belåten
##ebro
##ekont
vinnar
urin
farh
detektiv
operatör
äck
penn
##teckningar
Behov
##ved
essä
psykologi
ff
##ehanda
##magasinet
napp
##partierna
##illsyn
PP
påhitt
Kvinnorna
Holmström
rikets
Alt
Grönland
##ordnade
Banken
Hälsingland
kuri
##eig
krävas
fullfölja
sad
trop
rinna
bundna
adjunkt
325
Sigrid
HIF
##ECD
##ssal
##svand
pensionering
hyper
skadar
lånet
##oldater
Behöver
##hyd
##190
girl
139
hämtas
##ostnaderna
förbjuda
klump
trick
tonåring
efterläng
folkmusik
##ogh
Galopp
fattades
Junior
tras
world
Laila
Historiska
postför
JK
specialitet
kloka
bjudit
presst
motivering
obekväm
offren
vårdas
återkomst
kontorsgöromål
##apel
##heimer
exakta
bryts
TO
halk
##ledarna
stenhårt
bog
infört
pågå
propagand
välkänd
anstalt
##immen
##användning
##reme
fo
globalt
omtyckt
##play
Rehn
begav
jet
##glädje
dylik
linjerna
Four
stiftelsen
Kru
exploderade
Región
Edström
trädgårdstomt
Log
störa
förstördes
NÄR
Frost
##svana
##skamper
##gett
mosk
muren
företrädesvis
Chrust
Glamour
Avesta
rimligen
greve
kaffet
sprids
tomater
##ared
##räkn
föredöm
pyss
danskarna
Vetlanda
##drog
veckas
åtfölj
Rig
##aro
förlagd
Claesson
åldersbetyg
Sörmland
inbjudna
Def
bankens
utsläppen
##helgen
Södersjukhuset
Margot
##uterna
nyckeln
##enberg
Stiftelsen
##ecca
McL
energik
Fyr
les
Anti
besparingar
Italiensk
Laguna
Kyrkan
besvara
Peak
##fattare
##pers
Claud
presidentens
##bla
164
NIL
Våld
177
Gällivare
Östeuropa
laddar
löpning
Gotlands
##mnest
##ökta
interpell
##ämpning
Justin
##fäng
Allra
kanadensiska
##lning
mogna
efternamn
sto
tillämpa
##räfta
##kammar
##aki
Silvia
Sz
Hilding
Risk
mekanis
flyktingarna
MoDo
hyster
730
##bygge
valkrets
595
Nordir
rekommendera
kraftverk
##mörd
##sprincipen
MIN
ädel
Ljust
Cher
##ENTAR
Sitt
ribb
Sjöd
##ländskt
##rövar
galan
his
##ierra
paketet
Trumps
Frågor
utbröt
370
fienden
##NOT
##fett
##haninge
krossade
##eligt
##skytte
Valen
persilja
boxning
tyckt
valkamp
sänkning
##fartyget
skaka
nationen
självklarhet
djupet
##nämnde
stadion
Vux
utarbeta
tru
rekommenderas
oregel
Cy
dokumenterad
##spress
högtalare
pansar
##försäljningen
##unnighet
Aktiebolag
##yggnad
##smusik
tände
irriterad
hyresgästerna
företagsekonom
innerstad
kurd
##ankarna
sprung
##växling
järnvägsst
bam
##abliss
Hök
simm
cyl
##iör
kulturer
Hawaii
NORD
##ykort
utöka
smet
Västerbottens
Adels
akademin
åsk
sväl
smidig
Prats
Öppen
eter
brittiskt
##worth
synsätt
Gb
tråkig
Åkersberga
Ug
annans
tredjespår
ministrar
Baker
##ryckning
nystart
ömhet
sången
Kött
Wagner
upprörda
inta
skadat
##snät
partip
##iest
Buck
Smaka
##ores
lantbrukare
anmod
långvarig
##attning
höjdes
barnomsorg
##bed
noterar
änk
ljum
##ido
överträff
147
nek
snubb
zigen
onödan
bestånd
sänt
vrede
länets
Faktum
svaghet
Gas
040
kick
##VAR
Fair
Midsom
tillräckliga
jubel
##gend
faran
aktiver
utnyttjade
##relat
lyrik
involver
##konstruktion
##skapac
bagage
reformen
OECD
kaptenen
Finan
vettig
##chn
sysselsätter
Oftast
##död
fläck
##peppar
pedagogisk
##också
Litter
arbetssätt
misslyckade
timmes
funderade
lekte
sparat
Public
##slärare
arbetsgrupp
finare
återkom
##ranterna
Strid
inblick
ersätts
journalisterna
givande
märkvärdigt
tilläde
##kontroller
chockad
vinnande
lucka
Sot
ändamålsen
Stil
korruption
bildat
familjemed
prylar
tråkiga
tjänstgöra
Sats
diagnos
##laga
Kanarie
gentleman
##bryn
tolkar
##landslaget
uppskatta
njur
Mull
motiveringen
vek
höjt
##erfarenhet
dråp
fördelningen
rikligt
Fö
##blomm
Group
##LUND
##skunskap
inbördeskriget
Oscars
framträdde
pingst
##ånger
Krem
kuppen
Hunt
##missbruk
Antarktis
överväger
instans
småföretag
Djebel
relevant
huvuden
TA
##dator
öppning
skrivet
##ytter
hotellrum
tyskar
Förbundet
borr
Tjern
dimma
arbetskamrater
##ssamman
##sol
snällt
Antag
##sperspektiv
##elia
Rak
ideologiska
Riksdagen
sekreterar
##liven
Fun
##verktyg
välfärden
kändisar
##IB
sentiment
käpp
##andakt
##ämnade
##ommar
häktad
upptagen
##ía
##sreger
##regiss
##vallen
oskuld
PLO
Montreal
klocka
##nätet
Craig
Kvart
##börsen
Säsong
##spre
Vacker
ritningar
parkettgolv
143
##terings
utv
Tensta
##bete
##otto
FOTNOT
##veri
utgick
##ibel
kred
besvärliga
exemplet
operan
ansluter
##jn
##bers
minder
stug
##orre
##ship
ERIK
facit
smälta
ensemble
ammun
##övägen
##shinder
##merade
##ralen
företräde
sparbank
bevarade
Oll
felet
vettigt
genomgick
nykterhet
Folkpartiet
148
Dahlin
##randen
Studen
avstängning
Mov
##slösheten
Ful
landsväg
trovärdighet
uppförande
presentation
sagor
uppvuxen
nyt
Pjäsen
##sformen
HER
Aspl
renäss
dödar
LD
bun
##brun
idol
Molnigt
ärkebiskop
##licka
konver
173
sve
##stakt
Passa
vägde
lår
debuten
handlande
##itiativ
kompletterande
producenten
##konto
##sklubben
Mul
förväx
Philadelphia
##riären
bokens
beläg
tvill
##ystal
SB
föräldrarnas
ansluta
##makare
horison
fötterna
ändrats
TY
hå
##pist
##flikten
förvånade
##intervju
brag
Mira
Tisdag
##lända
utrustade
instruktion
Arbetsplatsen
Leic
Patricia
Goog
hiphop
labour
vågen
forma
kunskapen
horn
##handlaren
gubbar
Fridhem
gripits
##plos
##alvården
uppskattad
landar
Tävlingen
förberedelser
HO
Dju
årlig
##tomt
mini
ägar
Märsta
##ffle
arrangera
Squ
##sfolk
Kumla
Pratshow
grafik
##agh
##ssalen
teaterns
nutida
Foster
kungar
##250
elände
mycken
repetition
Knight
##artist
Amazon
villiga
##uch
lögner
allmänn
orts
fyrk
skör
Gibson
##pton
utlåt
205
iskall
straffar
Motsvarande
Oförändrad
Lagerlöf
lektion
mållinjen
fiska
Takter
inblandning
Gret
Shell
Oxford
klagade
##ICK
bostadshus
Regn
trivsel
mötes
föregångare
Muham
Resultaten
sammanslut
offensiva
##cif
##eba
Härj
applåder
polisman
delades
ig
stolen
byggda
åtgärden
Försäljningen
##slar
Nilssons
##ject
##estuga
moraliskt
tacksamma
milda
kortfatt
OOOO
långsidan
tabletter
amortering
Konserthuset
damernas
försäkra
##skurser
belastning
Ranken
WC
##ökningen
författarskap
oklar
försedd
Antal
kyss
Föräldrarna
Carmen
humoristisk
Merc
##såklagare
##ankt
lang
förlam
ank
klädda
smycken
Hamngatan
samlingen
dödas
HUS
##ding
191
##årsåldern
mekaniska
##agar
##ningsdag
##hästar
mandel
##not
LIV
Ye
##erbäck
Beethoven
medvetande
Förmån
övergången
Edberg
##reation
paradis
##ijk
Brolin
Stenberg
potatisen
Storbritanniens
obligatorisk
frag
eliten
##bolagets
##skanalen
##regatan
sladd
försörjning
Nicklas
stunden
##centraler
##slalom
##sklassen
grekisk
##apro
lögn
Emanuel
##slet
##ionschef
kategorin
Esc
##smö
Aling
##årigt
Fahl
##sökte
spelats
##sskäl
dyraste
ekip
spannmål
traktor
Avslut
detaljerna
olivolja
##atl
##jobbet
vanns
##urgi
döttrarna
antog
Tankar
inuti
##svärde
brygger
##skonsul
gråter
upphört
kontinent
förtidspension
Snarare
utdelningen
##sverige
##sas
##sägarna
Förklar
##renover
talanger
påstående
attraktivt
##sell
##strump
västerländska
ströv
trumpet
Rebecca
##ästarna
Idol
##osamt
##brekt
##egången
ingått
organiserad
PM
##vändning
Tapp
##nos
café
Solen
naturreserv
##alens
farmor
Norrt
Söderlund
##sti
Botten
Schu
mådde
frigiv
sympatis
landskampen
##omon
Palace
Löne
bristfäll
Spin
Diego
KVINNA
XXXXXX
vy
##fing
Lust
olycksfall
##skadad
punk
frekvens
##befolkningen
Masterchef
framgick
bländ
Rib
##stanbul
filmat
epok
Västergötland
preparat
##mur
Heart
rikedom
såsen
lyssnare
Vanc
avstår
begriper
förstånd
tacksamhet
##uz
landsbygd
förtvivlan
Ae
##färgade
##kors
terrorister
##REKT
Gem
lyckat
låst
Schwar
arméns
ackompanj
jämnare
Fält
kastat
stängd
##ningsarbetet
Arr
cykeln
##jöld
jättest
tillträdde
Class
##lokal
brittiske
##öpt
bakar
##board
##amask
Walker
inkomsten
Quick
##mässan
##ener
kommersiell
Snö
##ellet
Sigvard
häftiga
us
emellanåt
oskyldig
bestäms
Luke
##ÄS
##bbade
##born
##sfast
prövat
Barat
##ologerna
enhäll
överensstäm
Sla
##atorium
båtarna
##itj
##börs
Babs
##lamp
leksaker
Nancy
##yssels
Alto
virus
variationer
äppel
anförande
ingenjörer
geografiska
kliniken
publicera
##odling
##hantverk
##rivet
##unktion
##bön
bröllopet
##skön
##mäld
optimistisk
Favorit
ons
rop
billigaste
odla
Andelen
måhända
fastnar
Mera
canc
pick
dund
##skampen
kapitalet
##hållas
verksamhets
förför
Iv
synliga
uppb
##install
extrautrustade
##ural
Nora
KOMPET
Strandvägen
tillbringar
Jake
##olph
Apple
##ynner
atmosfären
diplomat
##180
Graf
440
styre
Drott
##larnas
husmor
##smästaren
parf
Akademien
oroa
Prinsessan
Lindblad
##ungdom
tillgängligt
##pelet
global
##arbetning
anor
diskuterats
anställningar
##städes
översätt
Popp
Lucas
upprepas
skäll
Lettland
DNA
##syra
Istanbul
Lening
smöret
##damm
Bus
##stram
förlaget
motorväg
##rix
##schen
trogna
massmedia
##hörda
Sent
CIA
540
##150
jagade
Kärn
skildra
arbetstagare
ifrågavarande
Thure
substans
##värdera
Kant
Sydafrik
högskolor
Kick
##ottern
Hof
björk
utbr
köping
Gand
pressmeddelande
##sidrott
Campbell
devalver
##hölls
motsättningar
påpeka
antika
viking
Hörn
stränga
trakasserier
Jämtlands
Hant
##emor
Warszawa
rele
##ändan
biträde
avslöjas
Boliv
komponenter
##inkomster
##spis
Era
fickan
övers
byx
lod
känslorna
Lukas
britterna
##ättes
norskt
##stenen
Sang
godo
161
science
gripande
HB
UPI
##sbevis
##vinnare
vx
##ssektorn
##lien
trånga
##herr
Perssons
Läkarintyg
##IAN
Saddam
palats
muskler
medelstora
Prat
bostadsb
##BOLL
stöv
Hedman
Tillverk
Spen
Western
statistiska
##numret
Ängelholm
Eventuellt
Marit
Cross
omtanke
långsiktig
Gora
örat
nyfikna
##sveck
Byggnads
Vasagatan
dörrarna
tavla
##fus
##politisk
nånting
undervisnings
hen
behöll
##ugård
Tillsyn
Anger
Zo
##givarna
subjekt
följden
påtal
hyser
förbättrade
##issionens
skadats
censur
grunda
stugor
##ständiga
Murphy
förestående
##innas
adressen
##luck
Solveig
grevskapet
act
ohygg
vibr
SOS
Björkl
Lidköping
monark
##mina
##krav
inledningsvis
Ordet
snacka
Eurovision
styrelseledamot
Våren
industriella
Aud
##ningssätt
Fiat
oroande
STR
Owen
lyste
kommend
inhämt
älskare
koloss
##dram
segling
Bian
##basen
Rank
##terminen
sväv
gled
Uffe
##lösningar
återhåll
insatserna
##bäv
ambassadören
blöt
uttalar
kontrolleras
varigenom
Barnradion
##efrån
guvernör
folkhögskola
utgångsläge
##marnas
Näslund
Hert
Palmes
grundare
energis
Gené
##NINGS
kryp
##partier
##ilo
västtysk
lågtryck
Segern
011
tragiska
framgången
stadsbyggnad
kombinationer
sändningar
lagerb
UND
##yllda
##tabelt
bearbeta
föräd
utpräglad
##inea
beviljas
backarna
Tung
Hir
FINN
sakkunnig
kretsen
apt
oin
Read
Europe
KOMMENTAR
##ivid
##krisen
intervjuade
##dröm
omröstningen
Västernorr
förhåller
##församlingen
årsdag
oavbrutet
publikens
Wir
släkting
personbilar
ställföret
##annon
##tapp
##äte
sor
dose
##underlaget
Manus
##offici
tyckas
Mellersta
kejsar
Petersburg
underställd
Gomorron
Nordisk
##vret
påverkade
Vancou
tillkall
##ämnat
Mjäll
##rupperna
Bran
##rap
Jokk
kiosk
avgörandet
skatterna
##celer
##komlig
##zzo
aspir
##plat
beräknade
kalv
like
##spressen
inträffa
delegation
utpräglat
##sim
##lement
##ografin
förmedlar
Ork
spårvagn
startades
Aja
putt
##blås
rättare
Mans
##final
Frick
materiella
sydvästlig
ridd
##nn
##bullar
Nigeria
CL
reklamen
Lyn
##report
följas
märkes
senior
ifrågasätter
överensstämm
Ända
##löv
Mötet
##obel
trim
ick
Earl
Marx
utfall
Division
##sfiskal
##wick
##PL
Hanover
Arroyo
Cost
kompetent
Kanarieöarna
nyanlända
krypt
jurister
##CE
spurtade
##sförsälj
##LLER
Leningrad
intelligens
##smateriel
adel
förkyl
Lugnt
##rikedom
löpare
##borger
##gyn
medge
##olitik
reception
##okon
Bev
budet
##anslag
varan
riktningen
cykla
kreativa
inbyggd
hanteras
##positionen
##räknade
intressera
Familjefilm
Perfekt
Tabell
##venska
vinet
Uef
utgifterna
trummor
experterna
ledigförklar
Jackie
aningen
Mrs
##ongol
Enbart
betraktade
Kursen
Singapore
Wiklund
manöv
Sunder
befrielse
##stemperatur
##tävlingen
##allsvenskan
##politiker
LI
korg
förskolan
riktat
Gertrud
##vanor
##odellen
förnek
159
Tecknad
##östes
##RF
Clara
sammanh
##radions
pressad
presidentvalet
passning
råg
folkpartiets
##dr
##skeppet
##odin
kommunister
företräd
Adolfs
omvård
1890
##ope
hiv
listade
accepterade
Mand
svalna
snabbhet
fäster
If
##övningar
##sservice
portfölj
AG
markera
Pur
häktade
##porträtt
##kunniga
Sanningen
##asso
eur
tjeckiska
##alläk
syften
##föringen
##mässig
berusad
kalender
skräm
Alk
nyrenover
##edningen
reparera
marx
fiol
##sväsendet
produktiv
syre
Linnea
smörgå
##skand
tunnel
Jorden
##alismens
Rinkeby
housewives
trösk
Heden
##ägt
Burn
##jära
pak
##bevis
vidsträck
Idén
kvinnok
upplopp
146
ägnas
Klassisk
##förhör
Möjlighet
Alldeles
Kristoffer
##ydlig
KUNG
pirat
medborgar
##hum
Skärgård
STOCKHOLMS
kloster
prognoser
inkomna
##UNA
kräm
plockat
inspirerad
Såsom
Rån
##ionserie
Hedvig
##hörighet
medgav
Jokkm
närstående
Södermanlands
abb
wadi
Fon
stum
läsarna
smeten
barock
melodier
beundran
Kad
Sri
##språket
bestraff
Lokalt
överlevande
rekvireras
##RAV
stand
##nin
Högan
Sheen
##livs
Thomp
Ganska
befogenheter
Arboga
konfron
Sunn
Önsk
utsökt
Fristdag
länders
hemmafru
179
Jill
skildras
169
resmål
journalistik
FÄR
parallell
Crystal
ÖB
215
landskommun
stormen
utförts
sjörapport
kvarvarande
erbjudas
##baserade
landa
##regeln
##ändningar
##ifa
talare
kreativitet
klockslag
tjänstemännen
kritikerna
postförskott
programmering
övergå
telek
##sländerna
##jern
##sfinal
korrig
köptes
utmanande
##avis
1906
gömma
##lekar
Sånt
omröstning
154
häftig
day
##skyrk
##sfören
##smuseum
utforma
missförstånd
sensationellt
bestämmelsen
##älte
##ässiga
vilj
##mg
repor
Opt
Sna
Nordahl
förbjöd
sot
##kapac
Niro
##RING
rally
barnfilm
grymt
middagar
skogsbruk
Fritt
##registret
##ynk
##tage
sked
fruktansvärda
##borgarrådet
##SSE
##stabil
Peters
##kommitté
Keith
ventilation
utel
Tanjung
Saudiarabien
##aux
systern
genre
universum
representativ
##iri
skadas
produceras
Crown
dug
importen
förundersökning
##emoni
Deutsch
##fågel
##ippa
Ald
##sökta
television
produkterna
##icers
baksidan
Gon
##segern
tidigast
##mix
lånar
cement
räddar
##bibliotek
gri
##stekniska
Bolt
Görans
Klin
Njut
Motion
Fell
Föredrag
Undersökningen
Rosengren
Eth
anordnar
huvudkontoret
##götlands
rört
likheter
postadress
konsumtionen
termer
Beverly
dragits
##spriser
trägolv
snör
hålet
cupen
skilde
vanilj
Bär
fu
##spat
förbluff
återkomma
##fant
förskola
Sul
##sstyrelse
plånboken
158
upprepa
dgr
förändringarna
styrkorna
##VE
##derat
##näck
Mkr
##avdelningar
underfund
##cyklar
Broline
GU
pensionen
Moderat
nutid
##amentet
sovr
Digital
##kostnaderna
leden
mittback
##gransk
##stolar
gummi
obehagligt
##uela
Nok
bredband
Gustafson
Slå
lift
##sutrym
Ena
hyllar
knuff
sorgligt
grannarna
##torp
##ultz
konstaterat
Egon
vrid
Melin
genomslag
##ae
Wenn
eleven
STEN
sammanställning
jättes
samförstånd
Paula
upply
##thers
nuläget
Shang
##människor
Ljud
ammunition
Gry
Löp
##juvar
köl
ken
Dark
Bernard
##bransch
##hjälpen
Champion
igår
##åsen
sugen
##amoten
##stammar
##sutsikter
Signe
Claire
##urella
Damask
##häv
Helm
utlö
änglar
##nag
##astad
Grammofonmusik
inhopp
181
hänvisade
SÖNDAG
avund
anim
##gångna
##iks
ändrades
SÅ
##pedagog
##efl
express
Orig
Represent
HAN
country
Conrad
överväldigande
analysen
utrymmet
avhopp
högtryck
Stadsh
jämförelser
##gal
##skedjan
misslyckande
Ekonomin
MC
Hamp
Hillar
##hörande
lillebror
poeten
fastställda
##mig
ryssar
##ötsel
prefekt
förfrågan
derbyt
Hellberg
##trapp
Fina
Säger
uppstån
##ugar
##skjöld
Marieberg
glimten
rikta
prövar
Rush
blöd
Thore
HAND
gåvor
##resande
Harl
##banden
höras
kritiserar
##sskatten
Wes
Fris
glest
bakslag
Gubb
##armén
Wis
##ättas
Dublin
##cs
Torsdag
övning
##skrafter
navig
arrangör
preliminära
cirkel
ud
Damaskus
senap
##eriets
förvånansvärt
##vester
sköld
##LIGA
vägledning
##hold
Exakt
##usta
Eriksdal
projektering
Arg
mentalt
sanktioner
öden
##rönika
##infar
##komliga
Pens
cont
##löpning
Kå
graven
himla
##värdering
##ÄLJ
##alas
Oscarsson
##expert
Solist
blädd
##ransporter
regemente
Väldigt
Siby
delegationen
postgiro
##forskare
sommartid
ingenstans
##elag
fisket
##status
raffin
skriftligt
ofull
tecknas
drömt
Naturvård
serviceinriktad
monster
näsa
Enkel
mammas
##oral
Allm
Cons
puts
Palestina
XII
##samhället
vl
mobiltelef
supportrar
Hussein
upphets
Snack
mobilen
ideologi
förblev
skärpt
beskrivas
Korea
Southampton
Christoffer
Sic
symfon
##car
SKTF
##mitt
##affärer
##ensiv
bedrivas
Fas
sabot
##uderande
##gö
cigarrett
elfte
Stuart
##grä
förena
##perspektiv
176
##unnet
##sväckande
bidraget
Regeringens
##svidare
prosa
tempel
##nä
Edin
##vikten
krigsför
Adressen
Hab
bildad
RES
opinions
kas
##ronom
domineras
##ussar
insjuk
skotten
kastas
##veten
utmaningen
##järnen
befinna
atomb
slängde
##deri
ensemblen
Utsikt
Västkust
Projektet
entreprenör
##iston
bostadsbygg
utredare
LM
tisd
Kulturnyheterna
meny
##rickor
tecknat
historie
##eldon
tant
hotel
##sker
Tengah
norrmännen
vred
engelske
Wiberg
Dave
Luther
Hyresgäst
Ple
Berns
rond
Diskuss
rådhusrätt
Nut
tenderar
##version
##avlan
Vancouver
utpek
Bent
mors
Allsvenskan
##OD
##upt
delikat
behaglig
sket
gråt
##antikvar
##ögd
Venez
Mjöl
sträckte
angelägenhet
Cash
Tecknat
rummen
stimulans
utesluter
Fört
värna
Harn
lånade
fastlandet
ävens
omedelbara
Bibliotek
725
##cession
##ålet
##bbats
##männens
mäklare
Lundkvist
protesterar
kritisera
187
Cox
##zio
förälskad
ockuperade
##ementer
utsk
judisk
Radiot
vitsord
##bos
stötta
##äcker
Invand
önskvärda
kä
##NINGEN
##uttag
arbetsför
skjorta
Ånger
##sbox
klasserna
Jet
isolerade
mätningar
invasion
##konen
Castle
Carlson
dyrbara
socialist
lida
Gunnarsson
Effektiv
different
bisar
prestige
Girl
gubbe
##artister
##ammade
trängde
ekonomichef
otroliga
världskrigets
Sophie
turnén
olycklig
eniga
inspirerande
##domaren
varsel
##viss
fonderna
familjerna
AMS
##rion
McCart
Lop
polisanmäl
hushållen
staty
välutbildad
Stämningen
repeter
trappor
Gratis
##enligt
Rhodes
fylls
##röder
redog
orsaka
##kommissionen
tjat
råka
proportion
MÖ
tillåtna
beställer
Mio
Josefsson
vassa
##begräns
bosatta
##TRA
veckotid
verkat
##DEL
##skridande
##rys
##uns
##tennis
stiftelse
dold
knock
##läggare
förlängningen
##länges
##zh
margarin
måltider
kraftfull
boyta
hälsan
prinsen
##ALEN
arga
hemmas
seglar
spridda
Reyn
Sierra
folkt
Allting
##risson
Gunde
optimism
Flertalet
Ort
##attle
##brän
Space
Putte
##skvällens
bryt
Sound
Europam
Sd
RIK
##vek
##bärare
obetydlig
##jav
##kryss
livskraft
färgerna
##sförsäk
Tranås
koordin
dystra
upplösning
fika
##ekonomiska
stabila
245
##hårig
Artur
##gubbar
tonåren
##ÄST
Schy
boxare
sprungit
Björling
##budgeten
möjliggöra
tunnelbana
Aug
barnmor
intervjuas
##orier
##industrins
kunnighet
Snow
pamp
hjält
dömas
paj
slam
Prest
##ao
Reser
management
framgångarna
uppfatta
Typ
##dock
##acht
##oney
honung
jättem
##NAS
520
Valley
Vänsterpartiet
skyddas
##vanta
konung
##eriefrån
##uggen
##umann
skrika
motsäg
samtalar
inva
fäder
ober
piller
fiskare
axlarna
tha
produkten
Nordirland
baka
stulna
provinsi
upptagna
##unnits
höjder
världar
osannolikt
efterföljande
Mellansverige
##ningsarbete
##ERING
medverkande
##FORS
HÄR
Levin
Cir
diameter
nyförvärv
Ci
onödig
avslöjades
kruk
påminde
centr
Önskar
Harriet
galet
bilister
gömmer
rikare
själen
narkotik
Standard
Sham
Tf
##mässa
depri
##genskaper
##ims
förbudet
##spelade
##sskiftet
eo
anklagelserna
Kai
TOR
högstad
färgade
världsmästaren
Folksam
ersättningen
ideella
##saft
valv
flexibilitet
Fogel
##härd
Sci
delaktighet
##oliv
Nash
uppdragsgivare
##KS
farväl
förordar
##sides
Amar
friare
affisch
Hälften
framkommit
##önen
segraren
industriell
obe
##able
avskaffa
meddelades
plank
##ssituation
Restaur
sprack
matta
##ohen
sysselsatta
lurade
Latinamerika
##sarbeten
##födda
miljöp
##änsande
RA
##hat
oskyldiga
Boström
Eriksgatan
nyfikenhet
Fång
entiteten
uppmärksamma
##förråd
##tema
##skrig
avi
##regat
Saknar
tendenser
starterna
hemlösa
##illen
bakterier
##isarna
struntar
##singenjör
kommissionens
kontrollerade
##slöv
Hår
ofatt
stulit
##sregler
Riktigt
##sanläggningar
##idé
NM
Turner
##spartierna
Gru
Banan
Jacobson
Unger
insp
##publik
##osta
Dyr
Bloom
tvekar
Hedin
belysa
förändrat
Zen
Tusen
makar
##lah
ljusare
noterat
Upplev
Virginia
spräck
Seoul
Ytt
fångarna
##ondel
bröts
Fleminggatan
##asino
Hötorget
Storg
##olkat
Telsvar
##edrama
hertig
##skedja
##riket
historiens
##natur
godkänna
engelskt
##öja
##resen
juv
kvarn
sektion
duon
##imp
Leicester
anledningar
##sviken
##spraktik
Tap
flaggan
stenkast
Lille
hänvisas
justitie
Skeppsbron
##celler
Paradise
##BRO
Muss
konstiga
Bolton
bindande
omslag
kompletta
LOPP
Belgrad
##zzi
egyptiska
erbjudandet
nordvästlig
kören
certif
smidigt
handlingarna
Driv
orkest
Sovjetunionens
410
fredagar
Flytt
däri
yttrade
undertecknad
Gay
datak
Veronica
##ople
##smatcher
##JÖ
införde
##eslag
slip
värdel
reserverar
##ovan
Pant
Olyckan
kollar
inveck
återgå
Karen
##srapport
Distrikt
Ewa
skattehöj
behandlats
likvidation
placeringar
##fod
ivrigt
Pors
##sappar
formulera
Tove
soffa
annonsera
angiva
Elits
grundutbildning
Paolo
##zig
lurar
##edo
förvandla
ovann
benämn
##oks
DIF
Rätten
SON
Cliff
Möt
Carn
##ierark
föreläsningar
Thompson
intensif
PERS
distr
arkitekten
världscup
##ursen
angår
430
Somliga
mirakel
spädbarn
flor
rutinerad
Höger
elevernas
Lex
Stek
##aledes
apart
##smötet
månadslön
##hama
kvinnornas
Thorn
stängdes
167
##besvär
bärg
tornet
Burt
LUND
##nesson
##tefter
##egan
##urnering
##hon
##sköp
##handlar
Vigg
Annons
rökt
##vänlig
##sbar
kanot
##affären
flykten
bytas
ryskt
experimenter
##ktiga
Utbildningen
##yndig
Matti
Snarast
Därifrån
vidareutveck
##sborgs
prepar
förlorare
##adder
##EX
##SR
kapabel
Oss
Citro
Lyon
retro
Mission
STAD
dikten
##tekniker
innehar
slitna
##göras
moped
##eddy
##illgäng
förberedd
ljuger
Sammant
##gymnas
Undant
karaktären
##TC
Monaco
##emo
uppmaning
##here
##rutt
Jub
västkust
##siffrorna
Sjöstedt
Malta
tvivlar
binda
Ljunggren
resonerar
genomförd
nyare
dådet
meningslöst
Trond
##sbergs
säte
kroppens
automatisk
skatteb
sportchef
##jorden
bräck
##odox
##sförvaltning
Olivia
VER
begå
##spelad
Design
Myrdal
##akern
Lock
##fars
##äggande
Kronprin
156
##issen
##atorget
GM
trivdes
Financial
fotografer
enhets
spisen
närmade
##igon
1880
##ulf
oen
##accep
##sprom
antib
##dömen
territorium
teknologi
återfören
stundom
kaka
Misst
Fräls
##anserna
dömda
stenografi
nationals
setts
##anderande
Ebbe
kran
##format
Malmös
lagring
nödvändighet
Tai
##erniss
##sgymnas
Wass
Siffrorna
kontakterna
Åström
heroin
153
##våningen
Hammer
tiger
riksbanken
uppge
Rat
serieled
inställda
klor
sympati
Moderklubb
Kampen
magnet
##ehem
EJ
##sålda
Sylvia
##ordningar
ABC
språng
höjdpunkt
##yrning
sportig
uppföra
##merit
duell
##får
##emas
##höjningar
utbyggnaden
##tail
påpekas
påtryckningar
Rit
Tess
Fagersta
##illade
##nyheter
Maurit
sambandet
0758
åldrarna
bolagsstämman
synvinkel
provar
Gymnas
Gaulle
återkall
##ierats
vasst
##växter
syriska
häpnadsväckande
##antar
Doris
skyttek
fruktansvärd
förrättades
åtalas
bekräfta
##sknings
##smöj
Spelarna
Wo
glädja
exekut
Mariestad
adresser
##ledningarna
Västmanlands
##ults
##ehandling
variation
AU
utrikespolitik
apelsin
införandet
##starten
##filé
Blues
##agent
Vild
Griff
arkitekter
##kens
stro
Woods
Jätt
nazist
Tren
upprustning
publicerat
ara
SÖKER
svänger
##eberg
##konjunktur
##färdiga
##föräldrar
skrämma
Chap
##gall
utförda
uppmärksammas
##ipa
Knappast
Storstockholm
motiverat
brydde
##ammans
schablon
##fam
beskydd
bemöt
Hjort
fokuserar
los
##terats
##otering
Regeringsgatan
mrs
kvalité
versioner
klättra
doms
perspektivet
Gudstjänst
Fond
Gbg
Reklam
slänga
##leder
Vest
##arkiv
Poll
Gym
Corp
##lip
##ygn
OL
fån
ORD
förutsatt
660
aids
Lindgrens
Järva
neutralitet
räv
Gorbatjov
##advok
bildats
##éus
placerades
Clas
##myndigheten
Edlund
orm
##innare
nos
förint
rörlighet
##enivå
##leans
##eca
sänktes
kå
Lat
##arbetad
##yckeln
bytes
accepteras
##650
misstro
##retter
snackar
stre
##artjänst
fallskärm
##äkta
##etekn
MEN
##växel
Ohlin
provok
##korn
psykologisk
sydafrikanska
##änningarna
##riken
utpress
ingrip
offret
tänkbar
##tis
SSU
Boys
ideligen
soppa
Harvey
lägenheterna
Dog
Sco
Rac
polismän
Lundquist
offert
framfördes
missbrukare
Fågel
Phill
##senheten
##berättelse
actionkomedi
##förut
vigseln
##MS
Garden
Låter
tågen
kollegan
LIND
seriens
grannen
Nybroplan
fyrkant
##ín
svalt
rättsliga
Anka
epidem
hålles
##volym
Kolgj
Rita
##hållen
##verker
mätning
beställningar
Winn
offensiven
rusar
Sannolikt
##ändamål
bemärkelse
fakturering
##abi
790
Fat
Rah
Hässleholm
##ede
beräknar
aggressiv
##ammar
sjös
intagna
etablerat
SISTA
##ère
##atoriet
##effekter
##iserats
förstört
##kaka
##sbär
##grön
Holmes
obev
varorna
förbehåller
boh
Observ
felfri
##erbar
gerillan
medicinal
Kristus
granskar
##träng
framhålla
425
ryms
socialvård
budg
seriem
återbetal
Margr
byggandet
Milos
##adas
påminnelse
##bänk
väskan
grundligt
belöning
räntorna
##uble
spec
Dek
##stjänstgöring
Räkna
##arsidan
##ärket
desamma
klist
restvärde
Lé
eftertrakt
engagerat
Dec
##stone
undvikas
##tvätt
Servic
Cykel
##sfient
Hern
Hösten
franc
##visst
sjöt
kortvar
handlägga
Television
##kunnig
balt
pensioneringen
bekräftelse
passagerar
Infl
pianisten
##lok
Meh
Boman
##vinning
druckit
texterna
uppfattningar
Cannes
behagligt
luftfart
##ÉN
kontorist
Radiotjänst
Napoleon
skäms
hundrala
##demonst
##agu
Jorma
Helsingborgs
styrelser
producenter
drabba
besättning
Zetterberg
Iz
Kamb
party
##fönstret
bageri
bokstavligen
tenor
Deri
olust
påven
Dum
##vart
Ble
utvidgning
Syri
##levnad
Julius
ukra
Valhall
svikt
Sedvan
Lit
##fjärden
##tsnabb
gärningsmannen
Serbien
familjeäventyr
miljöpartiet
Forssell
Vara
tandvård
inställ
Kronos
NordicBet
resulterat
byrås
operas
tveksamma
äldste
filma
funderingar
##istrat
skymtar
utdelas
##olitiken
Harold
supporter
##so
mässan
##ARA
kula
välkomnar
##IGT
protestera
390
475
##otisk
lämpligen
##EET
bjöds
music
Medicin
oan
olyckliga
pos
Fanny
##ason
Dä
etiska
toaletten
##gul
drömde
möda
Skräckfilm
##ipe
Peru
drastiskt
medvetslös
urvalet
##IGHET
oskad
inteck
166
Kenny
##arbetade
konfront
konstnärligt
##cm
löjligt
ambitiös
##öven
##utz
##abelt
Dub
##sskyld
Slottsbacken
lärob
##ois
##broms
miljövän
acceler
bortsett
motiverar
##öppet
tan
åskådarna
##CI
##antiska
formell
VIK
Tendens
världsst
Kris
rapportering
##spelningar
Svedberg
spekulationer
frihets
sking
##båg
guid
femår
##ohan
##otti
söderläge
nybil
färdighet
rikaste
presenterat
##sinter
rentav
showen
##ändiga
Nice
Bolivia
Vard
##beford
##leasing
grundar
utrustningen
simning
Tempo
Thörn
kolum
Indust
##ysch
ÖNSKVÄR
##emans
brutala
##odeller
decennium
Kristinehamn
ordbehandling
##amöterna
folkskol
##ebäck
ohälsa
omgiven
##arlamentet
##sprut
##åsar
##massan
Museum
##redd
förorter
##ränger
Därutöver
solig
sexa
Planen
Hjer
Lugn
##belt
202
tillgänglighet
judarna
skyddad
minoritets
##unen
anklagar
School
anseende
vänsterk
river
poly
##brytare
fullsatt
tacksamt
##KOR
##An
folkpension
fult
ogen
assistans
egendomligt
derby
symfoniorkester
befog
bergspass
dirigerar
Minns
fartygen
tiotusentals
##arbetena
##achim
färjan
explosion
##ösen
ungkarl
brandkår
dimensioner
stärker
jägare
nag
Aren
152
uteslutet
verb
Vinnare
diskuterades
##klock
Almed
##dernas
Högskolan
##käns
fastnat
##kandidat
skådespelerskan
##iley
##emonin
bagaget
revisorer
##sfamilj
Ghar
Krav
rita
Intressant
##olid
Camb
Branden
Um
rensa
eirka
BERG
motståndaren
vanor
##spsykiat
garanteras
föder
farligaste
##projektet
695
bedrev
tackat
##städ
motsvara
##shemmet
översatt
akvare
##läsning
##savtalet
##ighter
skrivas
inrättas
innebörden
##ULT
Hallsta
##sbesök
färdas
##ningsförmåga
evighet
Figur
Utifrån
##fys
KU
Head
##bestämmelser
husdjur
Wed
Jonny
Lig
##sfria
Windows
##BIL
skänka
debatter
Aftonbladets
Kanadensiskt
##ingel
boksta
Rättvik
Darreh
Förb
pigga
vax
##skådespel
logiskt
batalj
Eksjö
##angrepp
existerande
##ply
##isto
fjäd
Baron
horne
offra
realistisk
##atsen
##isol
dementer
bilt
menings
sorgen
##ebyggande
##ydligt
##astning
ävensom
Nottingham
Kirk
deg
##ssignal
Roseng
menas
Alingsås
Blair
##förvaltningens
##VIK
arean
Willis
överlägsna
Californ
fantasif
tjugu
beger
010
Världscupen
1904
irritation
underrättelse
Orleans
inram
Begravningen
broar
Mariatorget
Sydow
Sundsvalls
Bald
Mild
helgens
overk
matsalen
tryckfel
enklaste
tagna
##bens
##itori
mäktig
Guatem
##passning
##stidningar
##afton
läktarna
##aktie
Romeo
inpå
Miin
Natten
tystnaden
utgått
Tvätt
##ötterna
##orns
##lubb
insatt
advokater
landsort
förtjusning
Floyd
krönik
##SN
nedsatt
överstelöjtnant
##fc
förfärligt
upplevelsen
baklänges
##synt
##pin
##oras
huvudvärk
varna
vidtas
fransmannen
höjts
sammanträden
flir
fiasko
intresserat
##ktion
##sutred
bortsk
Ekonomieko
skulpturer
rodd
##bostäder
romerska
##sförbud
staket
cock
Peg
allihop
prospekt
Räknas
hemmen
linj
##raket
arvs
sexuell
Vinner
##floden
montering
segelb
Pent
nattklubb
sänks
balk
artisterna
Oc
##stierna
##lern
##länning
Ronny
välstånd
##biljett
uppskov
Kontrakt
Ella
Alliansen
Á
Fullt
förol
Pom
stängs
brandkåren
fackförenings
guldkant
Haug
Geneve
administrativt
klienter
Gur
Tant
testar
##inis
idel
skogarna
Shir
GAR
Anal
##AGER
##ställnings
Appel
Bend
Förhandlingarna
Rodrig
kartor
Daw
permanenta
##rättsliga
långsammare
##ÅS
Häromdagen
spör
diabetes
Muller
juridik
Lak
snöbyar
##rob
##oking
##byten
Martina
dragspel
Östergötlands
sik
Löw
Vap
##umtion
lingon
plattan
krogar
tillfrågade
obefint
ICA
säck
Massor
Fredriks
trötthet
##sföretaget
ändamålet
morgondagens
##örren
##arbeta
Nass
Sina
tugg
Stolt
medföljer
egentlig
Drew
besvärande
maraton
Isabella
Tork
##adan
##speglar
Därvid
##ariatet
sortering
795
angrep
Yrke
fladd
##kräm
jordbäv
##plade
erforderlig
Hat
laddade
stekpanna
Bant
värdighet
##slägenheter
spott
Micros
Reynolds
Köln
Kyl
vykort
##YS
Kärleken
Ringvägen
##cean
införd
förlänga
##motorer
författarens
Smak
##stödet
##ssv
##botten
terminal
##atören
##dyk
work
##skvalitet
scout
Canada
Kosovo
Morgonandakt
bluff
manöver
Elis
rörligt
##FS
ackumulerade
Evans
arvode
##efri
överträ
pisk
Witt
Utman
sar
Great
bostadsrätter
Lilja
intent
Enk
magnif
Öhman
studiet
Rasm
portugisiska
häller
skaldjur
##ikomm
rider
inkass
Eleverna
Nygatan
##badet
##operation
förankring
##burger
##sback
Sens
mångårig
tjänstemanna
Hillary
##iebolaget
##jic
lörd
Uppgiften
##jukdom
älskad
ögonbryn
ANDERS
##cus
Seth
slagits
kortsikt
sjukhusen
facklig
Betyg
kostnadsfritt
hejd
##riktade
kål
##kvarten
barnfamiljer
pappas
Hantverk
försking
terapi
##gänget
##icke
gudstjänst
inspirerade
ultim
areal
Pac
##JÄNST
Engelbrekt
Mjällby
förberett
Lägenhet
spin
böljade
resurs
kusken
Åh
expanderande
##alterna
bokning
gigantiska
Riksteatern
polsk
tatu
MAT
1903
##föremål
generell
byrådirektör
Folket
jj
Lunda
##vattens
##sexp
brännvin
VAD
##SKIN
ekon
ringar
zonen
##JÖRN
##dokumentär
rädslan
flöjt
skräddars
##hart
Sep
##agna
startel
##sprov
kartlägga
Garcia
##sedeln
Slöjd
Domare
Ät
högerext
rektorn
olaga
tvingat
##ikum
misstanke
Tidigt
reducerade
tvättmaskin
Samtalet
laboratorie
Zagreb
##ormen
handledning
##ulu
Wend
inslaget
Stocksund
seminarium
Hull
Vr
##jöt
##yggt
röstat
Bour
##issbruk
##sparti
##arkivet
if
Bella
vältränad
berättigad
##pump
Bibeln
##ledande
Vent
sparkade
solid
betecknar
##jej
kurdiska
städa
solsken
påvis
fullträffar
##sminist
##ppa
##anställning
utkast
diagnost
fen
##ämnande
Silv
Kitt
frus
##mh
##semester
danskt
##arma
Tåg
bromsar
takten
hängande
demonstranter
Nobelpristag
marginalskatt
##omat
high
ovannämnda
##GREN
Wright
vändning
underrättelset
motiverade
anpassade
uppträtt
Uru
balkongen
funktionsned
##nekt
tandläk
Rog
faderns
##ór
Ingeger
framfört
##srätten
##aya
högklass
760
##olkning
jäg
Erika
Lagercrantz
rapporterna
SUND
vinsterna
köras
avveckling
uppkommer
modif
Centralt
bidragen
##försäkringar
##valen
##känd
förfarande
##vrå
bulgar
behandlades
##aparken
rattfyller
recension
1901
utsedd
##sombud
##ssamhället
##uit
Sunderland
menyn
##sbilden
Joachim
Mälard
##tack
Wallström
begåvning
accent
##illas
##lagg
Norska
Edsbyn
dilemma
Percy
##steknisk
Paulsson
grundlig
##vint
Sut
##vuxna
Spot
svenskan
kompensera
världsklass
510
gjut
##debuten
nackdelar
##fris
plånbok
kokain
nordiskt
Light
skötsam
statsmakterna
##atorerna
valm
vägra
Thorbjörn
Barb
Marcel
Priser
Jämfört
Baby
Lindstedt
Mail
##jans
Guill
##ministeriet
##lets
Behovet
##illy
Urs
sugg
Balkong
Timo
##zelius
##estation
nollan
ryk
terrord
Helene
Spencer
Penny
gynnas
##mellan
Ljusdal
Västerbo
nen
smyga
fullmakt
##nord
FAST
lagras
Catalog
Sverker
naturens
##slö
##texten
Lange
##färgad
##skrävande
##änslor
##egationen
hantverkare
nyanser
##xit
plund
Bagge
pinsamt
kartläggning
##processen
Becker
ningen
##efar
##hjälte
##hastighet
jury
grytan
känsligt
##blankett
etabliss
generalen
beröv
mulnande
överväganden
Ober
Kostnaderna
365
jordbruks
##erback
Kna
långtgående
##RIV
chauffören
Game
##ökningar
Gang
etniska
jude
##guld
försiktiga
härd
falskt
fällde
gymnasieskolan
mart
kard
universiteten
##arby
Farm
235
##konstnär
arbetskraften
Utbildnings
##ieu
##OP
trädgårds
bojkott
påträffades
##producent
repliker
fixar
tillhand
Kuri
Rox
Jesse
##ömd
uppvisar
Ingegerd
##ONG
slock
Skarpnäck
bärande
Samu
Toyota
gradvis
segrarna
starkast
systemen
Teknik
##stur
Elof
##ffärer
nämndens
tam
militärer
döende
eftersträ
irakiska
##asson
västvärlden
impl
ingiv
partiledaren
##förmed
Bengts
Journalist
bla
osk
Hanson
lagledare
Wolfgang
##tabl
##ligast
oväntad
Kritiken
merparten
tavlan
uppfostran
DIN
HJ
##hålls
attityder
##tax
560
##iak
##kört
##rader
Smart
Afrikas
fastigheterna
##bygget
##juta
Vers
boss
doktors
MB
Homer
##eryd
Liam
Sony
##grim
medelklass
Spi
Nordsjön
##ulor
Atlanta
##VIST
##hler
Hål
Hagal
stuck
##servering
neger
överlämna
äpplen
merk
överraska
##eto
avdelningschef
Sandvikens
##restaur
studieb
Broadway
##yv
Olga
##sbehandling
begår
Litet
LIN
visit
Dikt
mysig
fordran
norrmannen
##ict
luta
rikst
##bourne
Andakt
anslöt
##gru
##fost
sysslat
ia
dödat
sympat
##säkerheten
##författaren
##utredningens
rida
reagerat
Ein
##js
övervaka
talman
infektion
låne
impul
##issar
aktionen
tendensen
hundratusentals
omnämn
axlar
##priorit
##ibi
Ud
Ruben
Ronneby
kvartal
föredra
##dagarna
illegala
Tvåa
sok
Pack
186
chefs
hovet
rödbet
bekymrad
Wilander
utesluta
östtyska
##universitetet
##kedjan
##slott
Lantz
kb
förändrar
Timell
LARS
Kond
familjel
##elis
kollektivtrafik
Pir
Lion
affärsid
##gart
tjänstled
Microsoft
nämnvärt
Melodiradio
##sbildning
kommissarie
psalm
Hamrén
morötter
utnyttjat
tvilling
##knapp
##iman
Musk
##alth
blommar
bistå
erinrar
realistiskt
förberedelserna
LKAB
konstruktions
Myst
Möte
##skrit
tecknar
tjänstef
##entrepren
##hustru
##spolisst
inbetal
kärleks
Lönne
häg
polar
##jack
##glada
illus
##dörren
miniat
knutna
Butt
genren
Fadern
##ingade
##sböter
Lisbeth
##ituationer
Moll
storstäderna
##rod
##styre
Spansk
480
fruar
Commun
förvaras
Kolgjini
Semester
centralbyrån
släppas
feg
##lis
##obligationer
UL
##egern
##inans
##mäter
Fransson
Martinsson
PENG
530
##ängder
bevaras
representerad
raser
missnöjd
rekommendation
gir
rödgröna
Happy
fastighetsägare
##vänliga
långtrad
rekommenderade
##innehavare
biff
##gods
förtrogen
##överenskomm
##ave
##skåpet
##skonsert
Hägglund
alger
penna
017
musikkår
Bajen
dumma
Varg
Say
Masters
Saga
avsevärd
Forskning
Trip
onorm
Kolla
##bäcken
Lanka
timmarna
Mant
gaff
##rädden
städning
##ningstjänsten
##ffet
Tas
Google
##edagen
##ografer
flagga
överlever
harmoni
minimal
förbättrats
##grenar
##ärde
##organet
drivas
insekter
öds
##ändningen
Mäst
Arch
Dahlström
industrins
##påverk
mjölken
Ferdin
##rukost
##smässig
Sjödin
pg
grin
##finns
förbry
likasinnad
Bägge
##ningskoden
Söl
Genomgående
skvall
inflytelser
lyssnat
Catalogue
SENAST
listor
präglar
Ekl
torsd
ramar
defensivt
frö
förelåg
##BR
game
Marse
apparaten
##ibla
sof
Elv
Trett
berömde
privatliv
överingenjör
åtstram
##skaren
##jek
synt
nerver
Badrum
börsnoter
vårda
principiellt
Warn
akust
##hä
##ädjen
banden
veteran
legend
Ey
Fire
MUSIK
mästerverk
demonstrera
förvärvat
##ålig
hrr
oaccep
finansk
konspir
direktiven
Business
bokhandel
HÖG
##melse
Wit
##skriva
olagligt
##icken
Jodå
strumpor
kopplat
Helmer
##isi
medeltid
anställer
signaturen
förvandlats
mentals
bonden
has
sparade
anfallare
##iba
fots
Santo
lådor
##kallad
kaj
##illes
tia
mottagande
##inken
syntet
oerhörd
Ingeborg
briljant
gemenskapen
##hjärtat
radiost
##uitet
Sonen
besynner
Wess
Scenen
##nivån
segla
##gjorts
gående
1902
iranska
värderas
Iris
upphöj
hindrade
Sweet
välvård
anpassad
##såker
Taxi
Home
Cov
Cri
##annens
ED
republikanska
##rustningen
##sklipp
baksätet
visningar
Frej
blygsam
##anställd
Petri
Ferm
råvar
tonsättare
psykiatrisk
lidit
sektionen
nekar
Ekonomi
regisserat
##hår
Abrahamsson
##emarknaden
##slägen
författning
Armé
##cas
##unionen
gröv
kopplar
skv
tårt
##sbacka
Brooklyn
klartecken
Kapp
ambitionen
försäkringen
##ADOR
åstadkommit
efterlyser
Dynam
##ställs
##VI
Gamle
trean
##maktens
##stax
Vackert
##lokaler
erinra
Sett
försum
sovjetisk
##rann
##departementets
##egorier
hjälpl
huvuddelen
hänseende
proced
mekanisk
fyn
##kungen
väste
stadsb
##divisionen
Lägenheten
##skriget
separata
##materialet
vansk
DIREKT
##imension
##senheter
inkomsterna
obegripligt
RAD
prioritera
filial
skänkt
##raven
inoffici
460
Cin
räckhåll
stryka
troende
Epstein
##silver
Hardy
destin
klinker
säljaren
##odds
Nicar
nervöst
nöjen
Ämnen
580
varumärken
myter
seminarier
##strömmen
##mänsk
##ästen
Diane
memoarer
##häft
##wait
##täcke
Barna
isolerad
##utställningen
bittra
förvirring
Längre
slöjd
Stortorget
##halten
##ränt
Regissören
Aur
IDAG
SEK
skyn
Pedro
likaledes
Fy
mörda
rekrytera
torsk
antibiot
Come
Bernadotte
##Ch
Fen
favor
##ståndare
##uger
öns
##främjandet
##erman
frilans
dyrbar
kriminalvård
hemstad
Trafikverket
griper
hästkrafter
##lappen
vrä
testat
utsl
Bangkok
Tips
##cil
nazistiska
##annel
omkr
keramik
Lycka
##astrofer
##natten
kullar
skymundan
evangel
Deltagarna
157
Persbrandt
##otor
mah
##sskytt
##hage
samiska
Potter
##omgången
Svärd
Yorks
##sbeslutet
##anes
webben
Project
##nek
192
Bens
Kammar
##skyldighet
avvikande
riska
Albanien
anmäler
kopior
medlen
uppmärksammad
830
Manner
batteri
människo
Kronofog
##ossar
Adelsohn
##NER
nål
##knäpp
stegen
Hunter
avn
##säkra
Guatemala
cap
överlevt
reduceras
fab
ensamheten
fälldes
Dagmar
omstrid
näringslivets
##tons
IA
Läkemedel
litterär
ersättnings
helgerna
FP
##tträd
##vivel
##risken
svärd
inställt
Plast
välfört
farhågor
SCA
##sfartyg
korrekta
allerg
räddades
sess
rostfritt
agr
Eleg
avslöjande
Färd
laddad
flygbolag
##ourg
Grädda
##sessa
utmanar
Sval
##alon
##edare
väkt
anhörig
taktiska
Rapporten
Rese
##spersonalen
Flott
bepröv
fy
poes
fotografi
Jordfästningen
LÖR
stord
##ants
##jour
##bädd
Had
rationellt
bakre
Sundbybergs
##politiskt
##stug
##berättigade
##vorna
inbördeskrig
panna
Berättelsen
stödde
förnämsta
Makt
Biskop
anlänt
Fallet
##stek
Uppen
kvittering
##egren
Blas
instru
Står
Skånes
##oir
anläggnings
uti
##rådes
Ekberg
Uppehåll
Jama
Artik
##buren
##ningsmannen
lojalitet
Jakt
beviljats
war
##usar
Friidrott
avkoppling
EURO
##levelse
detaljerade
pga
##pojkarna
##restaurang
Träff
Inrikes
##ryssland
brottsligheten
Abu
##hj
tillbaks
Naz
Bumble
##erare
Toll
Trin
Festival
jfr
##typ
##dasat
##DOM
målat
Stevens
Tusentals
Museet
stolpen
brast
modellerna
övertala
levererade
##jälv
##snyheter
åtalad
lugnande
missnöjda
klänningar
drätsel
barnhem
backa
189
Kasper
psykologiskt
Adel
Vias
##sbudget
gehör
slips
xh
uthus
allmännytt
##ÖD
destrukt
NR
åringens
inriktade
godtag
bifall
##fix
pizz
åket
Friedrich
bow
aud
##edjan
brok
framlid
komplikationer
Burg
##esund
Lovis
##flickan
knappar
5000
livsmedels
Order
##stakten
Bröllop
##utdelning
##änkningen
##fåglar
beteckningen
##skis
laddat
koncentrerad
Nai
##ronik
prövningsrätt
Chrustjev
Pay
skinka
nyem
Collins
kyrko
Litauen
##LAG
amatörer
gårdagen
##atti
##oration
##stats
Rekord
##sföretagen
##EV
bac
à
gängse
törs
tillgodoses
Pell
graden
liknade
April
avspär
räder
Lucy
lyfts
##work
uppemot
församlingar
##tak
uppfattade
Kli
bortgångne
Kreml
sunda
Timmer
##åklagare
NYA
##ierings
luckan
##avlö
kungörelser
huvudpersonen
785
hemmam
konkurserna
ehuru
Guinea
yrkesutbildning
inplacering
stämpel
én
##värmen
##arer
Nordegren
löpa
##rycker
förväntan
Agne
ritade
förbrän
Nol
tolkningar
Jelts
##spång
Pick
utkom
dödsstraff
naturreservat
##antering
Row
##ssvar
lojal
##ästerskap
##röts
##utik
##problemet
mg
förfrågningar
hängt
slang
##arettet
Hammarskjöld
##kult
Jol
Prova
disken
teoretiskt
jugoslaviska
Aer
folkm
upprepar
Ericssons
##följning
straffen
påbörjade
ket
förarg
##tuna
##skris
Tallinn
larmade
DA
##IX
Ferrari
döv
skry
tokig
avf
##sätra
Mäk
##cek
strategiskt
Sagan
##träning
tävlat
paradiset
##ktigt
undergång
upps
##ffären
Josephson
handläggare
inbjuder
aggressiva
Vilda
avvakta
såklart
top
aktör
##konstru
Skriftlig
620
##ridning
skrivande
##beskrivning
Put
etablerad
Aqu
kakan
Export
##biljetter
HELS
ryggar
genomgripande
##rekry
beräknad
##teckningen
##ommaren
##KES
trängsel
efterlevande
vandrade
registreras
ign
Sula
jänk
dämpa
expertis
Väner
##reformen
hårdast
spontant
rosen
Försv
verken
##uppehåll
##hänt
anark
Neil
fruktan
##leg
radioprogram
Karol
Middag
uppgör
Detalj
marmor
positionen
öste
aptit
skelett
vietnam
kontaktade
måndagar
Flykt
##månad
Ahlström
konventionella
##benter
hejda
Friends
kontinuerlig
tyr
Operation
715
Lju
##bollen
överskåd
##ädes
##eders
##ändet
##upplevelse
smick
cigarretter
##hms
##igi
##varsson
bromsa
anlita
##ostnaden
##ivo
omvårdnad
##juv
##ssamtal
lärdom
blixtsnabb
Verkligheten
slänger
Berwald
nationalpark
stoppat
underliga
SKF
##bry
Agu
oslag
Arv
fej
##gow
His
##aloger
##mekan
kassask
Nuvarande
kombinationen
##neys
ockupationen
Ips
JUL
GW
vital
Office
##ular
intimt
##rätts
##ception
Grä
rapporterades
beräkna
##ostas
tester
kontantinsats
verkets
mv
Marika
##visande
snäv
understryka
##PT
##seud
##randet
##morna
##konvention
##ångt
##holmens
##teri
Gle
skrämmer
##skinn
##anläggningen
efterlämnar
##demokraternas
##stickor
Därigenom
PSG
Lövgren
förstärker
engelsmannen
##omy
##förändring
Hys
Kniv
juridiskt
##staten
Sharon
fördelarna
Marl
##LIGT
Härmed
udd
testade
##vakning
Stones
Norrtull
Polisens
beige
Biljett
Nicola
htt
Värde
konsumenten
Maten
ryssen
riksbank
Ski
cyklist
##féer
flock
biverkningar
Mach
##inneha
vinterns
##hett
##orama
bensinst
fm
Ajax
finesser
Has
riksdags
Alexand
##uh
##sedan
sänts
##ÄRLEK
mail
Tilly
##ssor
Okt
Soul
utvecklande
##sdröm
förmånligt
##open
åtalet
införts
klassific
Asplund
Läkaren
##dukar
Salem
infanter
Oddasat
Norling
utställnings
Araf
havsb
brutal
avvaktan
lärling
##ansvariga
kavaj
##länningarna
utvecklad
##SAN
Glen
Domaren
##obi
Sevilla
##otion
Blix
olämpligt
##adow
##egränsad
Nicholas
ln
##slöjd
öknen
skänker
Myndigheterna
cd
Kinberg
FINNS
##studion
Madonna
sanden
fästmö
senaten
Ts
celler
Brag
##förband
Cruise
##sväx
Följden
husvagn
SOMM
försumm
Nordqvist
Mour
##vitet
orange
otänkbart
diskussionerna
föreläser
envist
sjukhusets
hälsning
täpp
##sproduktion
Kapell
sparka
dykt
##export
kryssning
##pulver
Diesel
Mej
##sdjur
##republiken
bakspår
faktura
sändningen
##apparater
ikon
vädjar
relevanta
Fla
##ynpunkt
Docent
prostitut
ynglingen
århundraden
Norrby
Const
Hamlet
##brytande
framförts
es
727
What
Höga
Betty
besökarna
testamente
sound
FOTBOLL
Föreställningen
##brid
##osau
##JEJ
handpenning
Sheldon
fåglarna
##sresor
##skred
Leslie
placerats
Realityserie
förenas
förebilder
Ahmed
svindlande
Student
Prim
Waldemar
SW
##Erik
Bolin
yngste
gynna
##färdig
hatten
Born
ämnena
kitt
stipendium
##stex
oändliga
repertoar
Kok
samme
kamraterna
##få
Observer
telefoner
kanadensisk
##spo
ft
blankt
Es
Sock
enhetlig
påbörjas
granskas
Myn
Rocky
gruvarbet
Härlig
förvärva
Götg
Jocke
störande
flygeln
medgivande
barer
##ontroll
asfalt
anställningen
träningspass
##arvagn
##savgiften
trädgårdar
Olympia
dominera
lotter
avunds
Ferdinand
gubben
TI
Aden
KÄRLEK
fotspår
videos
störste
tolerans
BT
erfarenheten
parker
##ningskrönika
symbolis
##givar
hero
##elekt
Nath
Kambod
dt
Burma
Perry
prövade
sliten
detaljplan
Omar
brottas
Verkstad
STU
konfir
skölj
IC
grote
inrätta
trotto
skapats
vingar
##riktning
efterfölj
skallen
##bris
avsak
Christensen
rymma
dialekt
##golvet
Thulin
kubikmeter
new
tullen
utanpå
##sterb
Girls
fräls
jättelika
hänför
Lucky
fåtölj
Mys
pristag
arbetstiden
sec
##ikte
klen
Hantverkar
##sfog
fjäril
amiral
kapitlet
Grav
##uds
##ambytt
##gara
skikt
källar
iver
varumärke
opart
mordförsök
##läst
Edwall
##shjäl
Ohama
trafikolycka
Company
egendomen
Jordanien
Kristersson
Salz
Ecu
Chalmers
vamp
sprint
kontroversiella
Miguel
storleks
##iji
AKT
Maggie
åtaganden
##jah
föröv
##visions
##max
tes
Ryssarna
##akten
##anslut
[...]
